[PAD] 0
[unused1] 0
[unused2] 0
[unused3] 0
[unused4] 0
[unused5] 0
[unused6] 0
[unused7] 0
[unused8] 0
[unused9] 0
[unused10] 0
[unused11] 0
[unused12] 0
[unused13] 0
[unused14] 0
[unused15] 0
[unused16] 0
[unused17] 0
[unused18] 0
[unused19] 0
[unused20] 0
[unused21] 0
[unused22] 0
[unused23] 0
[unused24] 0
[unused25] 0
[unused26] 0
[unused27] 0
[unused28] 0
[unused29] 0
[unused30] 0
[unused31] 0
[unused32] 0
[unused33] 0
[unused34] 0
[unused35] 0
[unused36] 0
[unused37] 0
[unused38] 0
[unused39] 0
[unused40] 0
[unused41] 0
[unused42] 0
[unused43] 0
[unused44] 0
[unused45] 0
[unused46] 0
[unused47] 0
[unused48] 0
[unused49] 0
[unused50] 0
[unused51] 0
[unused52] 0
[unused53] 0
[unused54] 0
[unused55] 0
[unused56] 0
[unused57] 0
[unused58] 0
[unused59] 0
[unused60] 0
[unused61] 0
[unused62] 0
[unused63] 0
[unused64] 0
[unused65] 0
[unused66] 0
[unused67] 0
[unused68] 0
[unused69] 0
[unused70] 0
[unused71] 0
[unused72] 0
[unused73] 0
[unused74] 0
[unused75] 0
[unused76] 0
[unused77] 0
[unused78] 0
[unused79] 0
[unused80] 0
[unused81] 0
[unused82] 0
[unused83] 0
[unused84] 0
[unused85] 0
[unused86] 0
[unused87] 0
[unused88] 0
[unused89] 0
[unused90] 0
[unused91] 0
[unused92] 0
[unused93] 0
[unused94] 0
[unused95] 0
[unused96] 0
[unused97] 0
[unused98] 0
[unused99] 0
[UNK] 288135385
[CLS] 52
[SEP] 21
[MASK] 3
<S> 0
<T> 0
! 7847294
" 18429609
# 1914437
$ 886818
% 27338377
& 2201467
' 4489909
( 54575043
) 57596975
* 4049951
+ 7176868
, 90289843
- 107274582
. 154142106
/ 28306585
0 12590982
1 41342423
2 36342347
3 65269057
4 30438627
5 35247321
6 18598283
7 16464109
8 27688252
9 14564265
: 50084849
; 10544251
< 3106521
= 4384707
> 8490370
? 12558413
@ 1274316
[ 9553792
\ 2749601
] 11642554
^ 304037
_ 77515898
a 5238087
b 2471500
c 2602749
d 1552578
e 1601235
f 1157790
g 2827322
h 1456682
i 1128387
j 1035553
k 1038738
l 1169421
m 931757
n 3278560
o 969089
p 2268649
q 2757934
r 1431277
s 1447455
t 2047862
u 1204485
v 1083409
w 1153349
x 2015346
y 5310465
z 3257156
{ 0
| 8514476
} 200052
~ 5797233
¡ 3740
¢ 2412
£ 8034
¤ 12438
¥ 21685
¦ 176
§ 35828
¨ 3436
© 74639
ª 712
« 9663
¬ 1495
® 42918
¯ 1070
° 23807
± 69776
² 2996
³ 498
µ 1187
¶ 51875
· 19166135
¹ 743
º 916
» 27106
¼ 632
½ 1284
¾ 601
¿ 2447
× 231020
ß 705
æ 2240
ð 417
÷ 21664
ø 10861
þ 213
đ 88
ħ 116
ı 587
ĳ 17
ł 1407
ŉ 1
ŋ 234
œ 915
ſ 7
ƒ 1275
ǁ 6
ɐ 27
ɑ 3247
ɒ 35
ɓ 9
ɔ 232
ɕ 38
ə 432
ɛ 178
ɟ 6
ɡ 4647
ɣ 35
ɤ 19
ɦ 28
ɨ 26
ɪ 394
ɫ 40
ɬ 14
ɯ 18
ɲ 10
ɴ 6
ɸ 26
ɹ 19
ɾ 24
ʀ 1
ʁ 19
ʂ 29
ʃ 144
ʉ 9
ʊ 42
ʋ 8
ʌ 73
ʎ 12
ʐ 8
ʑ 7
ʒ 88
ʔ 128
ʕ 62
ʙ 0
ʝ 9
ʤ 14
ʦ 26
ʧ 35
ʰ 0
ʲ 60
ʳ 7
ʷ 5
ʸ 2
ʻ 75
ʼ 20
ʾ 23
ʿ 19
ˁ 0
ˈ 598
ˋ 3394
ˌ 92
ː 12
˙ 20538
˚ 647
ˡ 2
ˢ 8
ˣ 11
΄ 37
α 97434
β 68957
γ 31855
δ 27063
ε 9330
ζ 3776
η 6530
θ 12150
ι 3681
κ 8239
λ 9850
μ 15109
ν 4251
ξ 4476
ο 3429
π 70103
ρ 7829
ς 15
σ 17080
τ 11165
υ 87762
φ 67539
χ 13875
ψ 10968
ω 25923
ϕ 164
а 7052
б 5567
в 13076
г 6905
д 3139
е 9272
ж 1178
з 3869
и 3263
к 1893
л 1770
м 1202
н 3282
о 4667
п 2629
р 3728
с 14290
т 9723
у 36180
ф 24208
х 15297
ц 11347
ч 9564
ш 2528
щ 4572
ъ 4205
ы 2878
ь 2217
э 7868
ю 2935
я 2025
ђ 2
є 59
ѕ 0
і 96
ј 20
љ 11
њ 4
ћ 0
џ 7
ѣ 4
ѧ 20
ѫ 24
ѳ 2
ґ 20
ғ 2
җ 4
ҙ 0
қ 19
ҡ 89
ң 22
ҫ 51
ү 12
ұ 34
ҳ 50
ҷ 3
ҹ 24
һ 176
ӊ 0
ӏ 18
ә 24
ө 44
՚ 0
՛ 1
՜ 0
՝ 25
՞ 315
ա 42
բ 16
գ 5
դ 22
ե 15
զ 10
է 6
ը 15
թ 2
ժ 8
ի 17
լ 31
խ 12
ծ 114
կ 21
հ 13
ձ 6
ղ 10
ճ 6
մ 15
յ 2
ն 8
շ 7
ո 3
չ 13
պ 15
ջ 2
ռ 6
ս 56
վ 29
տ 43
ր 0
ց 1
ւ 2
փ 5
ք 7
օ 8
ֆ 6
և 3
։ 7
֊ 1
־ 110
׃ 19
א 93
ב 46
ג 81
ד 23
ה 131
ו 51
ז 16
ח 67
ט 14
י 161
ך 8
כ 46
ל 21
ם 0
מ 155
ן 1
נ 57
ס 52
ע 39
ף 0
פ 53
ץ 2
צ 25
ק 46
ר 65
ש 69
ת 75
׳ 20
״ 115
، 530
؍ 1
؛ 28
؟ 5
ء 29
ا 133
ب 69
ة 5
ت 159
ث 24
ج 78
ح 93
خ 46
د 171
ذ 10
ر 96
ز 47
س 188
ش 148
ص 257
ض 17
ط 37
ظ 5
ع 81
غ 22
ـ 0
ف 59
ق 158
ك 144
ل 76
م 252
ن 89
ه 14
و 303
ى 20
ي 128
٠ 25
١ 68
٢ 40
٣ 16
٤ 16
٥ 36
٦ 19
٧ 2
٨ 4
٩ 1107
٪ 0
٫ 18
٬ 3
٭ 9
ٴ 4
ٹ 8
پ 31
چ 45
ڈ 0
ڑ 0
ژ 7
ڠ 0
ڤ 7
ک 13
ڭ 0
گ 41
ں 1
ھ 13
ہ 1
ۃ 0
ۆ 46
ۇ 15
ۋ 23
ی 18
ێ 0
ے 2
۔ 4
ە 28
۰ 37
۱ 70
۲ 92
۳ 34
۴ 37
۵ 124
۶ 379
۷ 16
۸ 1
۹ 5
ݨ 0
ः 7
अ 58
आ 17
इ 41
ई 35
उ 7
ऊ 1
ऋ 2
ऍ 0
ऎ 0
ए 9
ऐ 2
ऑ 4
ऒ 0
ओ 9
औ 1
क 28
ख 5
ग 13
घ 1
ङ 2
च 32
छ 4
ज 9
झ 4
ञ 0
ट 3
ठ 4
ड 7
ढ 1
ण 10
त 8
थ 4
द 22
ध 2
न 34
प 31
फ 9
ब 36
भ 22
म 35
य 29
र 254
ल 14
ळ 2
व 26
श 20
ष 2
स 118
ह 9
ऽ 0
ा 1
ि 0
ी 1
ॉ 0
ॊ 0
ो 0
ौ 0
ॐ 20
ॠ 0
। 73
॥ 17
० 0
१ 0
२ 0
३ 0
४ 0
५ 19
६ 24
७ 1
८ 2
९ 0
॰ 3
ॲ 0
ং 2
ঃ 0
অ 12
আ 10
ই 13
ঈ 0
উ 4
ঊ 0
ঋ 0
এ 6
ঐ 1
ও 2
ঔ 1
ক 25
খ 2
গ 18
ঘ 5
ঙ 0
চ 51
ছ 5
জ 21
ঝ 0
ঞ 0
ট 3
ঠ 1
ড 3
ঢ 0
ণ 0
ত 4
থ 1
দ 4
ধ 2
ন 23
প 13
ফ 6
ব 27
ভ 19
ম 10
য 10
র 28
ল 7
শ 11
ষ 1
স 37
হ 8
া 12
ি 8
ী 0
ে 11
ৈ 0
ৎ 0
ৗ 0
০ 0
১ 1
২ 1
৩ 0
৪ 0
৫ 3
৬ 9
৭ 0
৮ 1
৯ 0
ৰ 1
ৱ 0
৷ 0
ਅ 3
ਆ 1
ਇ 1
ਈ 0
ਉ 0
ਊ 13
ਏ 0
ਐ 1
ਓ 0
ਔ 0
ਕ 4
ਖ 0
ਗ 4
ਘ 0
ਚ 6
ਛ 0
ਜ 2
ਝ 0
ਟ 1
ਠ 5
ਡ 2
ਢ 0
ਣ 0
ਤ 7
ਥ 0
ਦ 3
ਧ 0
ਨ 1
ਪ 2
ਫ 4
ਬ 4
ਭ 3
ਮ 4
ਯ 1
ਰ 3
ਲ 5
ਵ 3
ਸ 4
ਹ 3
ਾ 0
ਿ 0
ੀ 0
ੜ 1
੦ 0
੧ 10
੨ 8
੩ 0
੪ 0
੫ 0
੬ 1
੭ 42
੮ 0
੯ 0
ੲ 1
ੳ 0
ઃ 0
અ 2
આ 0
ઇ 0
ઈ 0
ઉ 0
ઊ 1
ઋ 0
ઍ 0
એ 4
ઐ 0
ઑ 0
ઓ 0
ઔ 0
ક 5
ખ 0
ગ 1
ઘ 0
ચ 3
છ 1
જ 1
ઝ 0
ઞ 0
ટ 0
ઠ 0
ડ 0
ઢ 0
ણ 0
ત 0
થ 0
દ 1
ધ 0
ન 1
પ 2
ફ 2
બ 2
ભ 3
મ 5
ય 1
ર 1
લ 0
ળ 0
વ 2
શ 0
ષ 0
સ 0
હ 2
ા 1
િ 0
ી 1
ૉ 0
ો 0
ૌ 0
૦ 0
૧ 4
૨ 0
૩ 1
૪ 0
૫ 0
૬ 0
૭ 31
૮ 5
૯ 0
ஃ 1
அ 12
ஆ 2
இ 59
ஈ 1
உ 1
ஊ 1
எ 2
ஏ 0
ஐ 50
ஒ 5
ஓ 4
க 16
ங 0
ச 13
ஜ 2
ஞ 1
ட 0
ண 3
த 19
ந 12
ன 9
ப 21
ம 5
ய 2
ர 0
ற 0
ல 2
ள 0
ழ 0
வ 15
ஷ 0
ஸ 4
ஹ 1
ா 0
ி 6
ு 0
ூ 0
ெ 0
ே 0
ை 0
ௗ 0
ఁ 0
ం 0
ః 0
అ 4
ఆ 3
ఇ 2
ఈ 0
ఉ 0
ఊ 0
ఋ 0
ఎ 5
ఏ 0
ఐ 0
ఒ 0
ఓ 0
ఔ 0
క 7
ఖ 0
గ 1
ఘ 0
ఙ 0
చ 7
ఛ 0
జ 11
ఝ 0
ఞ 2
ట 1
ఠ 21
డ 2
ఢ 0
ణ 0
త 0
థ 0
ద 3
ధ 0
న 3
ప 2
ఫ 2
బ 1
భ 1
మ 0
య 3
ర 2
ఱ 0
ల 0
ళ 0
వ 5
శ 4
ష 0
స 6
హ 6
ు 0
ూ 0
ృ 8
ಂ 1
ಃ 0
ಅ 3
ಆ 1
ಇ 5
ಈ 0
ಉ 1
ಊ 0
ಋ 0
ಎ 0
ಏ 0
ಐ 1
ಒ 2
ಓ 0
ಔ 0
ಕ 6
ಖ 0
ಗ 4
ಘ 1
ಚ 10
ಛ 0
ಜ 1
ಝ 0
ಞ 0
ಟ 3
ಠ 152
ಡ 329
ಢ 7
ಣ 0
ತ 6
ಥ 659
ದ 0
ಧ 0
ನ 6
ಪ 1
ಫ 4
ಬ 3
ಭ 6
ಮ 4
ಯ 1
ರ 89
ಲ 0
ಳ 0
ವ 4
ಶ 1
ಷ 0
ಸ 8
ಹ 3
ಾ 0
ು 0
ೂ 0
ೃ 0
ೕ 0
ೖ 5
೦ 0
೧ 13
೨ 0
೩ 0
೪ 0
೫ 0
೬ 0
೭ 2
೮ 0
೯ 0
ം 0
ഃ 0
അ 5
ആ 4
ഇ 6
ഈ 1
ഉ 3
ഊ 1
ഋ 0
എ 4
ഏ 1
ഐ 1
ഒ 1
ഓ 6
ഔ 1
ക 7
ഖ 0
ഗ 0
ഘ 0
ങ 0
ച 7
ഛ 2
ജ 7
ഝ 0
ഞ 0
ട 1
ഠ 0
ഡ 2
ഢ 0
ണ 0
ത 6
ഥ 2
ദ 1
ധ 0
ന 3
പ 10
ഫ 2
ബ 1
ഭ 4
മ 11
യ 3
ര 14
റ 1
ല 6
ള 2
ഴ 0
വ 1
ശ 2
ഷ 2
സ 9
ഹ 1
ാ 0
ി 0
ീ 0
െ 0
േ 0
ൈ 0
ൗ 0
൧ 0
൨ 0
ൺ 2
ൻ 0
ർ 0
ൽ 0
ൾ 0
ൿ 2
ක 0
ද 0
ප 1
ම 0
ය 0
ර 3
ල 0
ශ 0
ා 2
ෙ 0
ก 341
ข 132
ค 445
ง 751
จ 155
ด 157
ต 241
ท 142
น 165
บ 253
ป 121
ภ 38
ม 335
ย 76
ร 217
ล 70
ว 124
ส 337
ห 324
อ 299
า 5
ำ 1
เ 678
แ 213
ไ 250
་ 13631
། 1347
ཀ 370
ཁ 354
ག 949
ང 82
ཆ 424
ད 1390
ན 514
པ 1045
ཕ 270
བ 1543
མ 1155
ཚ 250
ཟ 71
འ 562
ར 1145
ལ 1002
ཤ 135
ས 1304
က 67
ခ 10
ဂ 5
ဃ 1
င 1
စ 4
ဆ 4
ဇ 0
ဈ 0
ဉ 0
ည 0
ဋ 0
ဌ 0
ဍ 0
ဏ 0
တ 24
ထ 3
ဒ 4
ဓ 0
န 8
ပ 10
ဖ 4
ဗ 8
ဘ 5
မ 24
ယ 2
ရ 11
လ 11
ဝ 3
သ 8
ဟ 3
ဠ 0
အ 13
ဤ 0
ဥ 13
ဧ 0
ဩ 0
ါ 0
ာ 0
ေ 3
း 0
ျ 2
ြ 0
ဿ 0
၀ 0
၁ 16
၂ 2
၃ 0
၄ 0
၅ 0
၆ 0
၇ 0
၈ 0
၉ 0
၊ 0
။ 0
၌ 0
၍ 0
၎ 0
၏ 2
ა 13
ბ 9
გ 15
დ 25
ე 5
ვ 9
ზ 1
თ 1
ი 12
კ 25
ლ 1066
მ 13
ნ 12
ო 7
პ 8
ჟ 1
რ 6
ს 30
ტ 1
უ 0
ფ 9
ქ 6
ღ 2563
ყ 2
შ 2
ჩ 6
ც 2
ძ 0
წ 3
ჭ 1
ხ 2
ჯ 2
ჰ 4
ჲ 0
ᄀ 13298
ᄁ 1678
ᄂ 8080
ᄃ 7366
ᄄ 842
ᄅ 1538
ᄆ 16362
ᄇ 17612
ᄈ 1036
ᄉ 16777
ᄊ 8686
ᄋ 30492
ᄌ 14038
ᄍ 355
ᄎ 9930
ᄏ 1929
ᄐ 6410
ᄑ 4087
ᄒ 12837
ᅡ 2
ᅢ 0
ᅣ 0
ᅤ 0
ᅥ 0
ᅦ 0
ᅧ 0
ᅨ 0
ᅩ 0
ᅪ 0
ᅫ 0
ᅬ 0
ᅭ 0
ᅮ 6
ᅯ 0
ᅰ 0
ᅱ 0
ᅲ 4
ᅳ 3
ᅴ 0
ᅵ 0
ᆨ 0
ᆩ 0
ᆪ 0
ᆫ 0
ᆬ 0
ᆭ 0
ᆮ 0
ᆯ 0
ᆰ 0
ᆱ 0
ᆲ 0
ᆵ 0
ᆶ 0
ᆷ 0
ᆸ 8
ᆹ 0
ᆺ 9
ᆻ 1
ᆼ 0
ᆽ 0
ᆾ 0
ᆿ 0
ᇀ 0
ᇁ 0
ᇂ 1
᛫ 2
᛬ 1
ᠠ 0
ᠨ 0
ᠬ 1
ᠭ 0
ᠰ 0
ᡳ 2
ᴬ 21
ᴮ 0
ᴰ 0
ᴵ 0
ᴶ 0
ᴷ 0
ᴺ 5
ᴼ 12
ᴾ 0
ᴿ 0
ᵀ 0
ᵂ 0
ᵃ 0
ᵇ 0
ᵈ 0
ᵉ 0
ᵍ 0
ᵏ 0
ᵐ 361
ᵒ 114
ᵖ 0
ᵗ 0
ᵘ 0
ᵛ 0
ᵢ 0
ᵣ 0
ᵤ 0
ᵥ 0
ᶜ 2
ᶠ 0
ᶻ 0
᾽ 0
‖ 130941
‚ 6731
‛ 1950
„ 46436
‟ 455
† 3879
‡ 2722
• 938751
․ 2181
‥ 22123
‧ 254389
 0
‰ 53956
′ 80721
″ 48515
‹ 2381
› 7465
※ 288864
‼ 6478
‿ 2136
⁄ 1978
⁰ 179
ⁱ 1
⁴ 231
⁵ 36
⁶ 85
⁷ 114
⁸ 11
⁹ 95
⁺ 32
⁻ 114
⁾ 199
ⁿ 11
₀ 6
₁ 6
₂ 52
₃ 165
₄ 0
₅ 0
₆ 1
₇ 1
₈ 0
₉ 0
₊ 7
₍ 52
₎ 21
ₐ 0
ₑ 0
ₒ 160
ₓ 0
ₕ 1
ₖ 0
ₗ 0
ₘ 0
ₙ 0
ₚ 0
ₛ 0
ₜ 0
₤ 870
₩ 374
₪ 194
€ 402826
₱ 31
₴ 9
₹ 234
ℂ 127
℃ 56427
ℓ 88
ℕ 68
№ 5550
ℚ 90
ℝ 81
™ 18295
ℤ 62
⅓ 192
⅔ 110
⅛ 89
ⅰ 69360
ⅱ 106407
ⅲ 62975
ⅳ 27347
ⅴ 109087
ⅵ 7536
ⅶ 2873
← 43455
↑ 84771
→ 581527
↓ 30805
↔ 2256
↗ 2070
↦ 62
↺ 75
⇄ 328
⇌ 353
⇒ 3663
⇔ 692
⇧ 204
∀ 1090
∂ 266
∃ 132
∅ 180
∆ 423
∇ 387
∈ 6566
∑ 7791
− 5906
∕ 9507
∗ 173
∘ 56
∙ 8892
√ 29190
∞ 6874
∥ 8940
∧ 3582
∨ 3106
∩ 26269
∪ 5131
∫ 4302
∴ 59934
∼ 24197
≅ 131
≈ 10804
≒ 885
≡ 11694
≤ 89082
≥ 85376
≪ 1247
≫ 1101
⊂ 116
⊃ 88
⊆ 46
⊕ 3238
⊗ 105
⊙ 83254
⊞ 76
⊥ 5430
⋅ 4968
⋯ 90684
① 439373
② 410269
③ 284937
④ 147515
⑤ 85212
⑥ 46544
⑦ 27126
⑧ 19499
ⓐ 909
─ 99892
━ 4201
│ 67419
┃ 4957
┏ 3206
┓ 4517
└ 6104
┗ 4443
┛ 3788
├ 70443
┣ 383726
┫ 3069
┬ 3952
┳ 4379
║ 9498
╱ 23601
█ 54051
■ 200562
□ 156646
▪ 33917
▬ 296
▭ 97
▲ 256785
△ 289014
▶ 53080
► 13131
▼ 104784
▽ 77640
◆ 276053
◇ 119575
◊ 384
○ 214202
◌ 113
◎ 171624
● 534277
◡ 544
◦ 600
◯ 2213
★ 482093
☆ 149896
☉ 7516
♀ 3316016
♂ 117481
♕ 195
♖ 76
♗ 68
♘ 149
♙ 76
♠ 641
♡ 7237
♣ 642
♥ 22489
♦ 5039
♪ 5173
♭ 261
♯ 692
⚭ 0
✝ 161
⟨ 98
⟩ 115
⟪ 185
⟫ 189
⟶ 6
ⱼ 0
ⵏ 0
⺩ 13
⽥ 34
、 403501608
。 673218937
〃 45340
々 14451
〆 1536
〇 203415
〈 465623
〉 520515
《 43166473
》 43052839
「 12868491
」 11343730
『 7611655
』 7672474
【 166693090
】 169746522
〒 4801
〔 528254
〕 582270
〖 124318
〗 150080
〜 33924
〝 34590
〞 40630
〟 194
ぁ 4493
あ 2995
ぃ 7946
い 0
ぅ 468
う 3
ぇ 18987
え 0
ぉ 7923
お 0
か 7593
き 3723
く 2154
け 9375
こ 8006
さ 4206
し 4803
す 9151
せ 4581
そ 0
た 0
ち 7004
っ 0
つ 10278
て 7148
と 0
な 0
に 0
ぬ 2148
ね 8450
の 0
は 15244
ひ 18073
ふ 41293
へ 3369
ほ 799
ま 1637
み 4001
む 3387
め 1484
も 0
ゃ 7236
や 0
ゅ 8896
ゆ 6830
ょ 3768
よ 0
ら 0
り 0
る 0
れ 0
ろ 476
わ 0
ゐ 474
ゑ 244
を 0
ん 639
ゝ 2459
ァ 2618
ア 2359
ィ 0
イ 0
ゥ 962
ウ 788
ェ 336
エ 9944
ォ 371
オ 2284
カ 3165
キ 834
ク 1305
ケ 91141
コ 3340
サ 2969
シ 5607
ス 0
セ 7528
ソ 9864
タ 8491
チ 8280
ッ 0
ツ 1693
テ 1206
ト 0
ナ 3869
ニ 2759
ヌ 1030
ネ 1428
ノ 15358
ハ 4669
ヒ 5631
フ 0
ヘ 1833
ホ 2449
マ 0
ミ 1201
ム 344
メ 1113
モ 1237
ャ 0
ヤ 17846
ュ 27619
ユ 17266
ョ 11493
ヨ 13335
ラ 10037
リ 1560
ル 0
レ 0
ロ 2348
ワ 8255
ヰ 198
ヱ 219
ヲ 494
ン 0
ヵ 235
ヶ 10732
・ 637211
ー 7075
ㄚ 7586
ㄧ 57785
ㄨ 16724
ㄱ 123
ㄴ 226
ㄷ 108
ㄹ 268
ㅁ 141
ㅂ 579
ㅅ 317
ㅇ 173
ㅈ 68
ㅡ 68
ㅣ 349
ㆍ 10560
㈱ 666
㎒ 0
㎞ 314
㎡ 171148
㭴 26
㹴 178
䜣 342
䲁 6
䲗 3
䲢 14
一 305422259
丁 2502615
七 5805492
万 30865662
丈 964569
三 43835408
上 139798978
下 92208114
不 228575059
与 56510356
丐 71640
丑 552484
专 30315645
且 16081935
丕 44126
世 23256856
丘 674078
丙 1006635
业 120091177
丛 470260
东 23575420
丝 4813623
丞 153259
丟 188971
両 4050
丢 965013
两 26247580
严 10658686
並 5834676
丧 701664
个 112399343
丫 256070
中 200596642
丰 6288162
串 1274523
临 6695952
丶 101416
丸 628688
丹 2437936
为 143995513
主 67178665
丼 23811
丽 4749491
举 10685462
乂 7497
乃 1557869
久 7315008
么 33188115
义 12754126
之 64863299
乌 1843139
乍 133592
乎 5395157
乏 1820891
乐 21037628
乒 358560
乓 229525
乔 1057856
乖 348306
乗 2891
乘 3244485
乙 10780115
乜 31924
九 6372367
乞 175447
也 76231782
习 17357326
乡 6251389
书 20280140
乩 10512
乭 2213
买 13064482
乱 3512580
乳 3366887
乾 1012374
亀 5024
亂 605510
了 195575654
予 5998499
争 9792242
事 53545748
二 29024056
于 134592029
亏 1391628
云 9448958
互 15119676
五 16190521
井 1958630
亘 55286
亙 13624
亚 12812685
些 34461175
亜 6878
亞 1996661
亟 178824
亡 2675977
亢 137388
交 37573344
亥 143045
亦 3222543
产 73130928
亨 379827
亩 1032163
享 11878143
京 24104487
亭 790645
亮 5683145
亰 54314
亲 8249682
亳 68171
亵 80809
亶 5143
人 208851189
亻 3500
亿 14040390
什 17093071
仁 2046306
仃 15981
仄 180666
仅 11505391
仆 192230
仇 636025
今 23987976
介 11150432
仍 7707614
从 36141536
仏 4413
仑 240499
仓 2780499
仔 1850393
仕 358254
他 72100821
仗 453854
付 10045282
仙 2113288
仝 14866
仞 23292
仟 58703
仡 7361
代 40861636
令 7329004
以 140193833
仪 5144573
们 71768707
仮 2306
仰 1076880
仲 929794
仵 83110
件 40775701
价 31798869
任 36899774
份 14549486
仿 1962763
企 36004093
伉 21410
伊 3563291
伋 1480
伍 2454724
伎 65088
伏 1802105
伐 851820
休 5159296
伕 6178
众 14280448
优 21787397
伙 4692077
会 105284540
伝 5633
伞 466072
伟 3228120
传 23159212
伤 6014009
伦 2952867
伪 851771
伫 30423
伯 2407846
估 4451213
伴 5854890
伶 116465
伷 800
伸 2155908
伺 400469
似 5997635
伽 382097
佃 40037
但 39608432
佇 19340
佈 657749
佉 2058
位 45773654
低 19373430
住 14516323
佐 613344
佑 264305
体 80696346
佔 301350
何 22572396
佗 24411
佘 43767
余 7476360
佚 25300
佛 4153828
作 105389187
佞 13830
佟 100942
你 45108706
佢 197026
佣 447749
佤 13034
佥 9696
佩 1298609
佬 246508
佯 21235
佰 154934
佳 5741109
併 260978
佶 10886
佺 31552
佻 10548
佼 193882
佾 2898
使 44047592
侂 2012
侃 230971
侄 122489
來 18341611
侈 395568
例 12460414
侍 370330
侏 44601
侑 10656
侖 39863
侗 66132
侘 1884
供 36768441
依 13268747
侠 932761
価 13997
侣 584918
侥 111134
侦 720132
侧 2911882
侨 516618
侪 19749
侬 40177
侭 671
侮 182699
侯 693525
侵 4178272
侶 168875
侷 25762
便 17794323
俁 7145
係 1702417
促 6788925
俄 3216500
俅 9264
俊 1258240
俎 10931
俏 256256
俐 134753
俑 84359
俗 2116190
俘 142155
俚 20742
保 78296017
俞 243668
俟 20077
俠 148518
信 55491089
俣 11471
俥 713
俦 10434
俨 80295
俩 536549
俪 70302
俬 13865
俭 175453
修 15874934
俯 278522
俱 1672037
俳 8245
俵 1466
俶 5446
俸 31132
俺 166934
俾 69086
倂 1061
倆 112035
倉 352202
個 19912881
倍 6567255
們 14083897
倒 3928092
倓 2073
倔 55242
倖 26563
倘 257999
候 13526682
倚 196237
倜 21306
借 5628066
倡 1242226
倣 2390
値 16400
倦 308744
倧 1458
倩 292277
倪 243938
倫 586124
倬 8451
倭 43066
倮 4010
倶 2956
倹 473
债 3619558
倻 1010
值 19195238
倾 1754024
偁 1799
偃 35072
假 9461728
偈 31619
偉 452719
偏 3297838
偕 58547
做 31579308
停 10901502
健 12787051
偰 1006
偲 4062
側 529012
偵 207965
偶 1931096
偷 1890893
偽 156315
偿 2584421
傀 49626
傅 938833
傈 9336
傉 880
傍 394551
傑 278806
傕 3876
傘 114207
備 4300420
傚 51562
傢 193020
傣 36982
储 5644018
催 2178452
傭 69054
傲 1177923
傳 4587720
債 602184
傷 1206975
傻 532314
傾 312029
僅 2061874
僉 8558
僊 911
働 9966
像 13168433
僑 120906
僕 39617
僖 13491
僚 196648
僞 18632
僥 22516
僧 406237
僭 15013
僮 10973
僱 76266
僳 12419
僵 485202
價 5274999
僻 146401
儀 931125
儁 3764
儂 25400
億 1358302
儆 15210
儉 40425
儋 28982
儒 430615
儔 12263
儕 19837
儘 285098
儚 2526
償 584920
儡 48805
優 4132198
儲 771379
儷 26511
儸 7814
儺 8547
儼 26348
儿 14713598
兀 91245
允 1765024
元 39990230
兄 1534775
充 11603804
兆 728497
兇 88637
先 25169934
光 23276415
克 13840523
兌 195053
免 13524978
兎 958
児 19452
兑 912316
兒 2658283
兔 660800
兖 32715
兗 40985
党 19069850
兜 270172
兢 140290
入 49484397
內 11043173
全 82368739
兩 4698722
兪 838
八 7175303
公 99687251
六 8201903
兮 210255
兰 5915361
共 27557619
关 52203663
兴 8421786
兵 4161425
其 61119878
具 28730798
典 6222009
兹 567763
养 12879316
兼 3172112
兽 1276259
冀 644082
内 50897530
円 109552
冇 75529
冈 346769
冉 183662
冊 1145420
册 8699968
再 20581643
冏 4319
冑 1804
冒 2240514
冕 152538
冗 105007
写 7571111
军 12859384
农 11114354
冠 3633588
冢 53027
冤 427381
冥 266428
冨 20811
冪 30293
冬 3974034
冯 679005
冰 3745042
冲 5035931
决 17872541
冴 3260
况 15227589
冶 826200
冷 6563295
冻 1069771
冼 26249
冽 43489
净 5158216
凄 128367
准 21819267
凈 341193
凉 1494022
凊 1527
凋 101403
凌 1700455
凍 259069
减 9851838
凑 571271
凖 3651
凛 88736
凜 26222
凝 2734458
几 14179252
凡 3015607
凤 1498943
処 5625
凧 450
凪 3062
凫 9656
凭 2091965
凯 1674083
凰 775606
凱 319224
凳 193370
凶 665230
凸 772970
凹 410777
出 100648829
击 8766269
凼 12941
函 1377723
凿 170387
刀 2700250
刁 104184
刃 340359
分 141806743
切 11818992
刈 21159
刊 2551470
刍 26524
刎 10807
刑 2523271
划 22959108
列 14021526
刘 5018986
则 14066867
刚 6032639
创 27101507
初 10185405
删 1867467
判 5171671
別 4075324
刨 140480
利 41822697
刪 526657
别 21042436
刮 775703
到 112080708
刳 1931
制 55384645
刷 3698072
券 6094984
刹 386821
刺 3251860
刻 6893200
刽 14437
剁 99582
剂 14091787
剃 115885
則 3215429
削 1084079
剋 18406
剌 34191
前 63736216
剎 56976
剑 1910425
剔 272682
剖 667944
剛 1123415
剝 120884
剡 6299
剣 2250
剤 4322
剥 459247
剧 6812871
剩 1909348
剪 1498205
副 9812388
剰 6097
剱 501
割 1678878
創 4818862
剷 8219
剽 36923
剿 85634
劃 2109847
劇 1320765
劈 184808
劉 644064
劊 11965
劍 285251
劑 825472
劔 700
力 68974641
劝 544880
办 20993258
功 20311082
加 59549103
务 55231344
劢 8796
劣 1112938
动 78108671
助 19831101
努 4513876
劫 644780
劭 16070
励 3905056
劲 1484262
劳 4686016
労 8426
劵 33463
効 7205
劻 1314
劾 107402
势 16301965
勁 362744
勃 914169
勅 1985
勇 2796810
勉 448315
勋 323288
勐 62336
勒 2222280
勔 690
動 13969213
勖 7839
勗 1274
勘 552947
務 11482289
勛 27629
勝 806336
勞 886893
募 1559589
勢 2018185
勣 6248
勤 2101381
勧 745
勰 7176
勱 7496
勲 1712
勳 53167
勵 696952
勸 120588
勺 177193
勻 188090
勾 840057
勿 1071420
匀 958564
匁 434
匂 874
包 26924547
匆 427316
匈 179916
匍 29818
匏 4931
匐 25759
匕 52589
化 87901014
北 31498956
匙 530754
匝 57735
匠 742484
匡 109861
匣 90857
匪 360662
匮 93582
匯 748976
匱 23768
匹 1386928
区 42802697
医 18163088
匾 88727
匿 314547
區 7267592
十 26076769
千 8722236
卅 36085
升 18818948
午 5991473
卉 315026
半 10578280
卍 9073
华 19188428
协 13178730
卐 864370
卑 356250
卒 258959
卓 3788163
協 2511224
单 31544840
卖 6414440
南 23618649
単 4825
博 13126857
卜 588939
卞 50727
卟 14730
占 8543251
卡 11082124
卢 985859
卤 205242
卦 293767
卧 887799
卫 7140114
卬 1411
卯 101268
印 9641737
危 4718650
即 16762057
却 8311186
卵 1010321
卷 2880305
卸 936658
卹 4837
卻 2051486
卽 5313
卿 388619
厂 9523156
厄 218390
厅 4715554
历 13678217
厉 986721
压 12708249
厌 555469
厓 6035
厔 997
厕 597575
厘 702114
厚 4423313
厝 59817
原 29115710
厢 374519
厥 159965
厦 1439644
厨 1474928
厩 23148
厭 174974
厮 106056
厲 189764
厳 944
去 33226845
县 8338767
叁 143761
参 17263355
參 3702554
叄 822
又 17242978
叉 1048514
及 62040129
友 17035612
双 15050720
反 17090800
収 17705
发 115370830
叔 953907
取 24090899
受 31556101
变 21389585
叙 710760
叛 411434
叟 74912
叠 1136812
叡 16234
叢 111175
口 29181568
古 8929764
句 3671485
另 9027214
叨 123646
叩 80304
只 28381824
叫 4967879
召 3712958
叭 204122
叮 267044
可 106235380
台 39561490
叱 51127
史 11650961
右 6270466
叶 3964058
号 18574081
司 58102191
叹 764579
叻 22533
叼 35424
吁 448176
吃 9770814
各 34056493
合 73004438
吉 5145746
吊 1540732
吋 163825
同 68924166
名 40279074
后 68476813
吏 147385
吐 1286401
向 30368988
吒 147388
吓 543297
吕 678766
吗 8594116
君 2002964
吝 84314
吞 633852
吟 375898
吠 35999
吡 52594
否 8929201
吧 7511960
吨 3252244
吩 141994
含 8949638
听 7585890
吮 129941
启 5606031
吱 77388
吲 8573
吳 476470
吴 2581328
吵 440278
吶 25823
吸 9270543
吹 1436411
吻 602462
吼 209196
吽 4996
吾 540240
呀 861869
呂 131834
呃 42326
呆 676717
呈 3625670
呉 5194
告 20346539
呋 29253
呎 83920
呐 144523
呑 1282
呕 218012
呗 129724
员 38065992
呛 68993
呜 95534
呟 671
呢 8105027
呤 44886
呦 102702
周 18432168
呪 2507
呱 85518
味 10098265
呵 723859
呷 29309
呻 155033
呼 3742365
命 12828795
咀 153171
咁 129052
咄 44353
咆 60511
咋 192067
和 170685560
咎 195171
咏 200706
咐 189363
咒 353721
咔 67551
咕 170629
咖 1594441
咗 95092
咙 81999
咚 116832
咤 37499
咥 1314
咧 112963
咨 4519763
咩 59292
咪 548326
咫 50997
咬 677261
咭 16202
咯 185489
咱 1721054
咲 18292
咳 436639
咸 488143
咽 380950
咿 15987
哀 451164
品 81358664
哂 17970
哄 233429
哆 90416
哇 201418
哈 4244072
哉 133846
哋 54812
哌 21032
响 12684446
哎 161229
哏 6260
哑 207999
哒 120336
哔 69333
哗 158083
哙 8359
哚 8941
哟 171161
員 7965334
哥 4126525
哦 1606584
哨 211347
哩 206007
哪 7880134
哭 1053169
哮 156480
哲 1220540
哺 302620
哼 223917
哽 36092
唁 16725
唄 18512
唆 53133
唇 870935
唎 3617
唐 2726673
唑 85698
唔 395326
唖 906
唛 27556
唢 14485
唤 637274
唧 42371
唬 62764
唭 678
售 16926013
唯 3276661
唱 2621306
唵 3581
唷 167305
唸 56891
唾 106696
啃 128342
啄 54771
商 44545895
啉 22449
啊 3837311
問 5408372
啓 49422
啖 23837
啜 33175
啞 45773
啟 1004777
啡 1294892
啤 502402
啥 719744
啦 1634781
啪 644884
啬 42798
啮 46794
啰 67660
啲 119688
啶 37294
啸 178242
啼 95134
啾 25907
喀 298531
喂 642965
喃 131989
善 10256378
喆 78440
喇 295597
喉 424200
喊 1069565
喋 34114
喔 568248
喘 516925
喙 34925
喚 142248
喜 11257594
喝 2688307
喧 208476
喩 1299
喪 163872
喫 15788
喬 196488
單 5914684
喰 4610
喱 56623
喲 46371
喵 115093
営 20366
喷 2362333
喹 15932
喺 94730
喻 563339
嗅 165768
嗆 45912
嗇 15149
嗎 1378187
嗓 163025
嗔 42174
嗚 75179
嗜 153391
嗝 68794
嗟 26297
嗡 78625
嗣 101546
嗤 49355
嗨 174564
嗩 7871
嗪 28287
嗯 319221
嗲 20008
嗶 13680
嗽 264392
嘅 395688
嘆 127155
嘈 55989
嘉 2894485
嘌 37683
嘎 146544
嘏 3412
嘔 50820
嘗 386706
嘘 117998
嘛 622812
嘜 9115
嘟 136306
嘢 33645
嘧 21136
嘩 35985
嘯 49522
嘱 254893
嘲 254276
嘴 1948019
嘶 87493
嘹 32742
嘻 248648
嘿 247781
噁 33325
噂 683
噌 23358
噏 1320
噓 31392
噗 80228
噛 658
噜 108468
噠 17043
噢 98640
噤 11936
器 27668375
噩 129031
噪 928685
噫 4538
噬 173221
噱 66251
噲 6992
噴 461438
噶 49046
噸 319571
噹 42244
噺 7589
噻 22572
嚆 918
嚇 181731
嚈 1240
嚎 63744
嚏 47213
嚐 129962
嚕 39536
嚙 7991
嚟 50184
嚢 1200
嚣 183421
嚥 15220
嚨 45874
嚮 37667
嚴 1626319
嚷 88636
嚼 188825
囁 7392
囂 43804
囃 867
囉 190027
囊 1062742
囍 12732
囑 54715
囓 1029
囗 10828
囚 177109
四 19632767
囝 9549
回 27483739
因 41137097
囡 24512
团 20248111
団 21122
囤 116533
囧 80396
囪 30691
园 10828712
囮 669
困 5341811
囱 97161
囲 1554
図 6113
围 10342082
固 6719596
国 143802090
图 18276303
囿 21321
圀 851
圃 104350
圆 3120258
圈 3996498
圉 3252
國 21281154
圍 1745759
圏 6995
園 2440988
圓 738591
圖 3285848
團 4136946
圜 12572
土 11537180
圣 2756558
圧 2895
在 246794967
圩 63336
圪 4755
圭 169622
圮 3806
圯 1667
地 90832675
圳 3667118
圹 6957
场 51605159
圻 9736
圾 2111466
址 8345569
坂 118050
均 14700605
坊 1186267
坌 2517
坍 96596
坎 419851
坏 3198844
坐 4665562
坑 883751
块 7212208
坚 9272299
坛 2878662
坜 6378
坝 461119
坞 275138
坟 159943
坠 450002
坡 1996339
坤 551275
坦 2221899
坨 37517
坩 23667
坪 1005918
坬 513
坭 9651
坯 223277
坳 22589
坵 2678
坷 92535
坻 14706
垂 1249973
垃 2114673
垄 709689
垅 10949
垈 545
型 29370751
垌 4546
垒 389906
垓 5837
垕 3017
垚 23125
垛 131730
垟 4474
垠 31254
垡 6163
垢 335078
垣 86886
垦 162663
垩 21519
垫 1045980
垭 22090
垮 168493
垴 6692
垵 14625
垸 6960
埂 30339
埃 1315050
埈 1429
埋 1002176
城 25305704
埏 1166
埒 1965
埔 386407
埕 22730
埗 24236
埙 7504
埜 4326
埝 6810
域 16173611
埠 198094
埡 8755
埤 14355
埭 10586
埴 2382
埵 6883
執 1421931
埸 8170
培 11049267
基 36445839
埼 26449
堀 27559
堂 5066300
堃 17642
堅 1530054
堆 1544214
堇 17937
堉 2845
堊 9048
堑 39667
堕 183595
堝 24785
堞 2240
堡 1373589
堤 324081
堪 796181
堯 43772
堰 224862
報 4909345
場 8082208
堵 1201749
堺 9850
塀 1447
塁 3439
塊 840241
塋 7332
塌 429943
塑 4174979
塔 3178491
塗 248338
塘 687585
塙 1186
塚 33841
塞 2885321
塡 1198
塢 60024
塩 8502
填 2864804
塬 17808
塭 4781
塱 4631
塵 400607
塹 16675
塽 1003
塾 37489
墀 4706
境 16544437
墅 672997
墉 13206
墊 303586
墓 824603
墕 488
増 14216
墘 2724
墙 3103900
墜 104952
增 27453070
墟 143087
墨 2105452
墩 152156
墬 1642
墮 55366
墳 38732
墺 808
墻 259076
墾 73437
壁 2241204
壅 19211
壆 28833
壇 527201
壊 4772
壌 1153
壑 55803
壓 2367484
壕 56725
壘 103814
壙 8245
壞 763363
壟 61683
壠 1202
壢 55153
壤 916224
壩 76394
士 15349100
壬 72443
壮 1567783
壯 324327
声 8632520
壱 1510
売 13219
壳 1201504
壶 352781
壷 670
壹 1160219
壺 92592
壽 453643
处 25702135
备 23828772
変 14585
复 14627117
夏 6234685
夔 15580
夕 772386
外 87201969
夙 39163
多 91850682
夜 6687678
够 11017036
夠 1808680
夢 914671
夤 4585
夥 282320
大 186749278
天 60231402
太 14771916
夫 6357997
夭 101228
央 8571772
夯 342995
失 12562935
头 19672072
夷 406991
夸 680712
夹 1175372
夺 1545571
夼 2087
夾 369850
奂 48565
奄 43399
奇 7643758
奈 1167367
奉 1499677
奋 2507054
奎 232426
奏 1499286
奐 16116
契 1273054
奔 2374939
奕 245367
奖 13928709
套 9000892
奘 33860
奚 73375
奠 566438
奢 846796
奥 5636890
奧 597849
奨 2155
奪 295580
奬 11214
奭 4897
奮 448402
女 24508136
奴 524866
奶 3734281
奸 573223
她 20606902
好 65926383
如 57694840
妃 532392
妄 296898
妆 1435241
妇 3046238
妈 5252096
妊 250443
妍 202649
妒 138293
妓 122572
妖 919581
妙 1616743
妝 502880
妞 180224
妣 8975
妤 33251
妥 1027502
妨 872520
妫 22958
妬 1037
妮 579779
妲 32523
妳 600868
妹 2752321
妻 2658052
妾 96681
姆 1971588
姉 1986
姊 351379
始 16409098
姍 17541
姐 3603427
姑 1006003
姒 11979
姓 2626170
委 21499086
姗 102496
姚 660213
姜 885243
姝 61330
姣 92914
姥 148730
姦 71505
姨 562180
姪 10221
姫 6882
姬 319973
姵 4103
姶 918
姻 886034
姿 1251563
威 7226690
娃 1076126
娄 148571
娅 183945
娆 44999
娇 546177
娉 27220
娑 51796
娓 124847
娘 1924814
娛 454253
娜 1194087
娟 300671
娠 236043
娣 37277
娥 218564
娩 193049
娯 666
娱 7529557
娲 51573
娴 123072
娶 258647
娼 43398
婁 42363
婆 1745109
婉 327865
婕 80929
婚 5227883
婢 47445
婦 579133
婧 93570
婪 106791
婬 3487
婭 19381
婴 1417224
婵 35765
婶 65545
婷 750643
婺 59491
婿 119929
媒 8435598
媚 433089
媛 241824
媞 5454
媧 12487
媯 7872
媲 108590
媳 330666
媽 1621219
媾 15488
嫁 714522
嫂 423125
嫄 4312
嫉 127096
嫌 2463720
嫔 41659
嫖 63825
嫗 8143
嫚 6888
嫡 143672
嫣 149055
嫦 88039
嫩 967838
嫻 29527
嬅 11058
嬈 10600
嬉 125738
嬋 11475
嬌 216831
嬖 8696
嬗 12916
嬛 30944
嬢 2460
嬤 44948
嬪 35176
嬬 11532
嬰 301580
嬲 7238
嬴 38190
嬷 40182
嬸 32657
嬿 6410
孀 14887
孃 4449
子 95845249
孑 22046
孔 2859996
孕 2924032
孖 11302
字 15527620
存 39234535
孙 2275024
孚 140410
孛 12553
孜 228231
孝 726000
孟 997633
孢 98470
季 10105569
孤 1185941
学 91246569
孩 12891384
孪 35097
孫 328952
孰 77685
孱 11797
孳 27490
孵 416834
學 15211182
孺 33566
孽 87248
孿 13747
宀 7444
宁 5226932
它 17967946
宅 2127374
宇 2491394
守 5576094
安 47245675
宋 1987663
完 26497969
宍 1659
宏 2089591
宓 27092
宕 167433
宗 4032623
官 21332269
宙 594040
定 66260236
宛 276033
宜 4676796
宝 12046078
实 64758156
実 19482
宠 1080655
审 8679816
客 28116483
宣 8632255
室 11820819
宥 36100
宦 63739
宪 673489
宫 3024045
宮 714707
宰 468190
害 8238506
宴 947976
宵 288458
家 100595593
宸 122885
容 25577992
宽 3453720
宾 2280725
宿 2563218
寂 487350
寄 1920346
寅 162802
密 32930163
寇 124129
富 10477750
寐 80069
寒 2129247
寓 1067005
寔 6509
寘 9150
寛 11037
寝 172885
寞 234900
察 8055993
寡 347312
寢 72547
寥 193521
實 10471849
寧 647780
寨 742283
審 1406154
寫 1873008
寬 594549
寮 109115
寯 943
寰 124528
寳 7664
寵 322167
寶 2010882
寸 2396560
对 87643220
寺 1133513
寻 3472743
导 26254283
対 12271
寿 2251654
封 5283003
専 19921
射 5566684
将 48450016
將 9467490
專 6400593
尉 146832
尊 3257197
尋 1023100
對 14395069
導 4696428
小 66936087
少 25589770
尔 12050423
尕 14717
尖 2128326
尘 2381693
尙 3027
尚 5943050
尝 1674395
尤 4007289
尧 150893
尪 2706
尬 396879
尭 555
就 76582354
尴 321722
尷 63534
尸 790764
尹 337844
尺 2609066
尻 25091
尼 6220024
尽 7996560
尾 2727165
尿 1876589
局 21333155
屁 603939
层 10737616
居 10308798
屆 841293
屈 760926
届 5481258
屋 4098588
屌 108426
屍 109461
屎 128594
屏 3888218
屐 8289
屑 392022
屓 642
展 56402965
属 12271287
屠 481777
屡 518980
屢 88185
層 1955888
履 2009848
屬 2423795
屯 340116
山 21662590
屹 116195
屿 226718
岀 31876
岁 6194006
岂 226647
岌 43284
岐 164413
岑 95270
岔 116721
岖 52493
岗 2707190
岘 36339
岙 17506
岚 156342
岛 4289970
岡 232123
岢 15945
岩 1568597
岫 23818
岬 24894
岭 802603
岱 71029
岳 851324
岷 43534
岸 2721220
峁 24433
峄 12736
峇 25410
峋 15777
峒 20376
峙 164340
峠 2940
峡 891769
峤 14492
峥 102917
峦 66645
峨 146966
峩 1712
峪 104906
峭 122019
峯 24754
峰 4196963
峴 13809
島 1193609
峻 605937
峽 172222
崁 22240
崂 40943
崆 13380
崇 1136427
崋 1979
崍 7844
崎 341361
崐 5240
崑 29974
崔 461064
崖 347590
崗 390802
崙 27354
崚 2174
崛 511541
崞 3430
崢 16483
崤 4013
崧 15054
崩 581733
崭 205334
崮 10866
崱 2211
崴 28807
崽 50445
嵇 12809
嵊 33839
嵋 22007
嵌 564908
嵐 47443
嵘 54584
嵙 1612
嵜 1170
嵩 103052
嵬 12530
嵯 9232
嵴 12244
嶂 24853
嶄 76062
嶇 24370
嶋 10725
嶌 1271
嶗 9712
嶙 16171
嶝 3253
嶠 8811
嶧 7507
嶴 5358
嶷 5006
嶸 13887
嶺 147837
嶼 103206
嶽 27256
巂 1356
巅 323929
巌 1273
巍 199172
巒 27186
巔 46569
巖 126011
川 4413224
州 17550543
巡 2293503
巢 605192
巣 7279
工 98191398
左 6437766
巧 4940270
巨 4919321
巩 593298
巫 362442
差 8547753
己 26044958
已 34492579
巳 70282
巴 9260995
巷 582749
巻 13400
巽 26271
巾 754071
巿 31331
币 6441215
市 80201901
布 24828786
帅 1028289
帆 688911
师 23296241
希 9019282
帐 904409
帑 6856
帕 793884
帖 743692
帘 543222
帙 4900
帚 37041
帛 59544
帜 273794
帝 3221813
帥 184644
带 20753764
帧 156618
師 4652215
席 7748930
帮 7933096
帯 4635
帰 2573
帳 1098957
帶 3985646
帷 344208
常 36502670
帼 61312
帽 987165
幀 27157
幂 160852
幄 27846
幅 5905806
幇 8996
幌 117619
幔 30632
幕 4917316
幗 13030
幟 52265
幡 41504
幢 170209
幣 920290
幪 3056
幫 1815985
干 15521245
平 52292405
年 145481080
并 39052741
幷 6002
幸 5224274
幹 604348
幺 58669
幻 1945720
幼 4025053
幽 868748
幾 2456446
广 23716767
庁 7228
広 38363
庄 2582321
庆 5239020
庇 265531
床 5147851
序 7548848
庐 169537
庑 15455
库 6643792
应 41381846
底 11635271
庖 39864
店 17716631
庙 566434
庚 348501
府 14068251
庞 915061
废 3011010
庠 10287
庥 4572
度 60778645
座 7024355
庫 1002435
庭 6040276
庵 76944
庶 108849
康 11506543
庸 493750
庹 10142
庾 22217
廁 127185
廂 108615
廃 2192
廄 12937
廆 1769
廈 244694
廉 2552631
廊 881524
廍 1038
廓 257103
廖 305715
廙 735
廚 586878
廝 21594
廞 522
廟 206790
廠 2209920
廡 8228
廢 574054
廣 4051040
廨 2474
廩 8030
廪 9838
廬 37109
廳 1121121
延 5037086
廷 830618
廸 5089
建 53477719
廻 2354
廼 923
廿 80057
开 70951583
弁 12629
异 6384250
弃 2196448
弄 1580269
弇 2013
弈 347588
弉 596
弊 597206
弋 37232
弌 937
式 42456717
弐 1312
弑 29578
弒 6017
弓 298397
弔 10132
引 18396110
弖 606
弗 981775
弘 936360
弛 206977
弟 2910238
张 13487273
弢 6167
弥 814172
弦 474364
弧 442418
弩 69092
弭 27142
弯 1088805
弱 3070575
張 2457404
強 4604904
弹 3856913
强 27988281
弼 44078
弾 2499
彀 14612
彅 1254
彈 776275
彊 6361
彌 181596
彎 232666
归 4208697
当 37140465
录 9224151
彗 37202
彘 5880
彙 120906
彝 117458
彡 1957
形 23480502
彤 228312
彥 95633
彦 424939
彧 19561
彩 33670789
彪 195360
彫 4305
彬 341592
彭 798213
彰 1084885
影 28634672
彳 2674
彷 159919
役 1208147
彻 2912663
彼 1607016
彿 95306
往 12105500
征 6117354
徂 3468
径 2836932
待 8147269
徇 67721
很 42303190
徊 143458
律 13905385
後 10087501
徐 4220448
徑 473038
徒 1870321
従 4097
徕 38070
得 60477438
徘 132257
徙 102799
從 5943677
徠 14470
御 1095628
徨 48158
復 1964245
循 2303811
徬 8520
徭 6251
微 16195962
徳 33146
徴 3283
徵 561193
德 13969833
徹 441306
徽 1657152
心 58739450
忄 1963
必 16955949
忆 1762008
忉 4904
忌 832999
忍 1631165
忏 73722
忒 25255
志 9849664
忘 2997924
忙 2466476
応 6133
忞 1833
忠 1746362
忡 43390
忤 9129
忧 1702030
快 37232353
忱 157039
念 10148987
忻 61394
忽 1732308
忿 34778
怀 3621409
态 13859271
怂 60314
怎 9554171
怒 1117221
怕 3431936
怖 739865
怙 30033
怛 7320
怜 304850
思 14452178
怠 186339
怡 607226
急 5396136
怦 28394
性 115630209
怨 787730
怪 2218552
怯 130488
总 26781170
怿 7617
恂 6602
恃 68442
恆 147865
恋 1497414
恍 155133
恐 2541481
恒 2501311
恕 346167
恙 36921
恚 18745
恢 1983969
恣 65735
恤 313938
恥 86940
恨 752665
恩 3065925
恪 148005
恫 16852
恬 97666
恭 440770
息 32212408
恰 1144197
恳 238450
恵 12281
恶 3049409
恸 12742
恺 139513
恼 648811
恽 11223
恿 28499
悄 717836
悅 303867
悉 3604602
悌 11529
悍 236609
悔 621045
悖 86503
悚 90979
悛 1901
悝 2650
悟 1015323
悠 1107604
患 5657625
悦 1083995
悧 1998
您 29855486
悩 603
悪 2447
悫 6038
悬 1097671
悯 57031
悰 1057
悲 1272370
悳 1846
悴 37595
悶 128521
悸 91584
悼 136713
悽 5048
情 44177315
惇 12797
惊 2912305
惋 77748
惑 1197559
惕 338325
惘 38149
惚 57268
惛 2771
惜 1285650
惟 518002
惠 6253085
惡 724629
惣 1337
惧 560856
惨 612666
惩 686431
惫 151926
惭 56074
惮 70084
惯 2058399
惰 132083
惱 201264
惲 7602
想 30778239
惶 109388
惹 443369
惺 54388
愁 513086
愃 640
愆 5057
愈 1581297
愉 762977
愍 14958
愎 9171
意 43252465
愔 3462
愕 62657
愚 299880
愛 3785167
感 28786033
愤 460548
愧 386294
愨 7863
愫 41686
愴 8195
愷 65476
愼 1110
愾 7274
愿 6802958
慄 10050
慇 1939
慈 1147596
態 2339959
慌 490061
慎 1620698
慑 256295
慕 943791
慘 156640
慚 23164
慜 14528
慟 10597
慢 4968884
慣 458388
慤 1213
慧 3495438
慨 496525
慫 18175
慮 635362
慰 974849
慳 27462
慵 60390
慶 826841
慷 131198
慾 178904
憂 288645
憊 46915
憍 6006
憎 77805
憐 90593
憑 424081
憔 35741
憙 1323
憚 21507
憤 106288
憧 115842
憨 79431
憩 118480
憫 30258
憬 120385
憲 176121
憶 506079
憺 1669
憾 529432
懂 2302551
懃 1429
懇 61065
懈 551381
應 8030537
懊 75885
懋 28843
懌 7538
懐 1037
懒 439952
懦 78994
懲 129491
懵 117430
懶 158412
懷 802690
懸 205237
懺 24206
懼 145381
懾 30109
懿 126658
戀 371922
戈 611813
戊 102726
戌 76030
戍 46254
戎 132347
戏 14386646
成 101629089
我 116781718
戒 1339727
戔 7464
戕 8507
或 62461870
战 20284412
戚 477795
戛 108575
戟 71119
戡 4202
戢 3380
戦 16027
戩 8042
截 4176886
戮 95486
戯 5082
戰 2985949
戱 395
戲 1850552
戳 187444
戴 2197084
戶 4741540
户 31773872
戸 53393
戻 891
戾 32267
房 22147478
所 58568033
扁 471356
扆 1235
扇 890725
扈 36559
扉 73348
手 47127811
扌 3374
才 20686739
扎 2166921
扑 825794
扒 188039
打 25998962
扔 424315
払 1081
托 6091168
扛 223441
扣 2918936
扦 51459
执 7509214
扩 4415299
扫 2349028
扬 2851559
扭 1069549
扮 1103923
扯 405929
扰 1691617
扱 1653
扳 273729
扶 3390764
批 10493081
扼 103739
找 10237238
承 13367020
技 42766474
抄 641739
抉 154621
把 20067917
抑 1176831
抒 186515
抓 4501807
投 27927217
抖 788607
抗 5567239
折 4166393
抚 651571
抛 2021198
抜 3626
択 1204
抟 10563
抡 25886
抢 2721211
护 14819391
报 32392183
抨 71583
披 1368101
抬 820900
抱 2413482
抵 2761269
抹 833476
押 1472045
抽 2986779
拂 140320
担 8492415
拆 2233461
拇 165498
拈 48886
拉 12547032
拋 169304
拌 949050
拍 7209526
拏 4677
拐 374650
拒 1927007
拓 2861105
拔 2039226
拖 1527934
拗 59752
拘 674216
拙 116884
拚 95587
招 8764472
拜 1816422
拝 1070
拟 3278493
拠 1440
拡 2617
拢 200824
拣 150491
拥 6662841
拦 448109
拨 1170989
择 10091105
括 10213395
拭 259045
拮 43583
拯 304513
拱 287012
拳 1063815
拴 40543
拵 563
拶 1800
拷 146099
拼 2247087
拽 133183
拾 639274
拿 6376815
持 33913590
挂 4759554
指 25696184
挈 9990
按 13192909
挑 4277108
挖 1762640
挙 2568
挚 298345
挛 189844
挝 112404
挞 34313
挟 122837
挠 212295
挡 1098935
挣 531234
挤 921025
挥 4542278
挨 407878
挪 491320
挫 450981
振 2871969
挹 17037
挺 1676319
挽 399862
挾 35272
挿 843
捅 91992
捆 265960
捉 545521
捌 39031
捍 166613
捎 40980
捏 401394
捐 1158101
捒 308
捕 1645133
捗 487
捜 1581
捞 355858
损 7977350
捡 269556
换 8532232
捣 179443
捧 576213
捨 119157
捩 6963
据 33227863
捱 15153
捲 201180
捶 56906
捷 2912119
捺 46488
捻 60975
掀 444579
掃 398604
授 6945013
掉 3731482
掌 4059428
掏 281248
掐 116070
排 18107232
掖 65738
掘 1362911
掙 107926
掛 502444
掟 4507
掠 209393
採 1035013
探 5858707
掣 52433
接 35195892
控 17382613
推 27905595
掩 679409
措 5826190
掬 25842
掰 85945
掲 1892
掳 32905
掴 12117
掷 167791
掸 25112
掺 154882
掻 717
掾 4875
揀 57353
揃 822
揄 13056
揆 14418
揉 390108
揍 53620
描 2749962
提 63662071
插 3209581
揖 23231
揚 481777
換 1943133
握 4116590
揣 162676
揪 119011
揭 1613971
揮 693864
援 2634031
揶 10378
揺 966
揽 379227
揾 4612
搁 257346
搅 725874
損 1343291
搏 726358
搐 86549
搓 218541
搔 42637
搖 329385
搗 45369
搜 4957822
搞 1994632
搦 3082
搪 71719
搬 1785035
搭 4802364
搵 34543
搶 446049
携 2285887
搾 3873
摂 2525
摄 4037606
摆 2038416
摇 1764766
摊 618855
摑 9724
摒 108611
摔 457352
摘 1851091
摠 1248
摧 254774
摩 3254161
摭 2612
摯 74552
摶 7896
摸 1754458
摹 91360
摺 70552
摻 33418
撃 8197
撇 133070
撈 66487
撐 327453
撑 2167712
撒 762452
撓 39529
撕 480335
撚 15826
撞 1535330
撣 11854
撤 1273370
撥 339845
撩 175686
撫 263404
撬 119370
播 10895267
撮 93940
撰 652742
撲 147061
撷 22163
撹 4802
撻 27711
撼 452164
撿 63003
擁 1458991
擂 78823
擄 32034
擅 926518
擇 2067680
擊 1588680
擋 239991
操 8178975
擎 1349501
擒 102265
擔 1820289
擘 43405
據 3927496
擠 232449
擢 31779
擦 1706540
擧 3440
擬 539552
擱 40627
擲 42601
擴 667644
擷 36516
擺 446377
擾 375893
攀 946591
攏 46017
攒 145578
攔 73292
攘 70729
攜 412620
攝 1108766
攢 26300
攣 34745
攤 176723
攪 150239
攫 33025
攬 71377
支 23491146
收 31922449
攷 8450
攸 56890
改 24872291
攻 5454195
放 27050618
政 40039546
故 10881576
效 25706173
敌 1573288
敍 5184
敎 9383
敏 2809546
救 4830422
敕 37020
敖 85322
敗 569213
敘 153071
教 39230953
敛 287004
敝 118362
敞 500454
敢 2564510
散 4810789
敦 1143238
敬 2777062
数 38744583
敲 684181
整 25918725
敵 315444
敷 593498
數 6214713
斂 53254
斃 30880
文 51676270
斉 2042
斋 178229
斌 628402
斎 4328
斐 183289
斑 1134124
斗 5780655
料 30354271
斛 68741
斜 2248078
斟 106165
斡 39222
斤 1730195
斥 647059
斧 182004
斩 443532
斫 10286
斬 83693
断 12932839
斯 17811102
新 95884486
斷 2266636
方 92991889
於 11229435
施 20615083
旁 1984628
旃 11432
旅 12099747
旋 2226114
旌 50996
族 7563889
旒 5392
旗 4488125
旛 1742
无 50990671
既 4079251
旣 3809
日 77727209
旦 2128592
旧 4614902
旨 2105462
早 10487943
旬 675837
旭 631117
旱 387004
时 113865956
旷 187127
旸 14746
旺 1397631
旻 37087
旼 4297
昀 54405
昂 1221251
昆 1373860
昇 140528
昉 14977
昊 299072
昌 2112753
明 41170055
昏 532409
昐 700
易 34559789
昔 468390
昕 186626
昙 43859
昝 6745
昞 1177
星 11783584
映 3176993
春 7954778
昧 199443
昨 2490710
昪 864
昭 485467
是 272597161
昰 3396
昱 99614
昴 9931
昵 129999
昶 39297
昺 3819
昼 166286
显 15159083
晁 23942
時 21303251
晃 418690
晄 1079
晉 202923
晋 1543961
晏 104802
晒 1022683
晓 2394814
晔 39845
晕 444967
晖 274122
晗 102878
晙 2739
晚 7259816
晝 36925
晞 18349
晟 159502
晤 265514
晦 97154
晧 4852
晨 2128723
晩 5446
普 11590004
景 13650297
晰 1485071
晳 2845
晴 641145
晶 21285402
晷 7918
晸 990
智 14231302
晾 172848
暁 1570
暂 2231063
暄 33569
暇 225349
暈 128891
暉 38032
暌 12454
暎 2847
暐 8258
暑 1046239
暖 3654731
暗 2700466
暘 7877
暝 7129
暠 2329
暢 391192
暦 1972
暧 74741
暨 1224085
暫 523690
暮 219949
暱 49136
暲 996
暴 3920536
暹 33425
暻 1691
暾 4659
曄 11347
曆 230856
曇 17067
曉 312192
曖 28364
曙 153824
曜 104007
曝 1273367
曠 54980
曦 197385
曩 73353
曬 197837
曰 799812
曲 4745003
曳 91441
更 50100655
曷 5259
書 4655428
曹 964242
曺 1458
曼 2075754
曽 5299
曾 8114294
替 2705437
最 59574413
會 23891938
月 63017015
有 255028305
朋 6954475
服 46177852
朐 18780
朓 1789
朔 195423
朕 147885
朗 3610002
望 13896409
朝 4722700
期 45451025
朦 89412
朧 22074
木 7631765
未 19965873
末 21182991
本 78348783
札 125028
朮 21755
术 30096641
朱 2099308
朴 723766
朵 952813
朶 1054
机 81927329
朽 167142
杀 3800140
杂 4333902
权 21345331
杆 2172693
杉 565300
杌 4576
李 9153966
杏 534103
材 19120713
村 11723431
杓 15762
杖 160096
杙 879
杜 1705604
杞 179997
束 4061727
杠 720306
条 16501943
杢 740
杣 1318
来 94614266
杨 3367845
杭 1949353
杮 861
杯 3103492
杰 2434813
東 4231009
杲 11335
杳 25738
杵 29067
杷 36994
杼 7751
松 6030781
板 14481672
极 15429459
构 19152214
枇 37849
枉 159535
枋 19643
析 10866977
枕 415212
林 12813446
枚 728019
果 43527746
枝 1129224
枞 21314
枠 1080
枡 6326
枢 456282
枣 350670
枪 1548108
枫 372011
枭 63445
枯 512317
枳 21369
架 6248251
枷 46604
枸 143460
枹 1433
柁 3595
柃 1192
柄 407637
柊 15260
柏 927399
某 8749948
柑 142287
柒 96074
染 7287005
柔 2254810
柘 23373
柚 166764
柜 2190562
柝 2292
柞 17580
柠 190900
柢 16889
查 22632854
柩 11184
柬 199467
柯 760616
柱 1837839
柳 1080512
柴 2058537
柵 52641
査 25484
柽 6593
柾 2594
柿 210650
栂 650
栃 11637
栄 13112
栅 356895
标 31191664
栈 315047
栉 29156
栋 644803
栎 21887
栏 2076385
树 4747525
栒 875
栓 481988
栖 289497
栗 295624
栞 1506
校 21317250
栢 8309
栩 117371
株 692660
栱 2814
栲 2804
栴 2267
样 26208659
核 12903795
根 17763850
栻 1841
格 32172317
栽 728094
栾 59415
桀 37284
桁 54638
桂 1231861
桃 1914217
桅 28154
框 1844557
案 20777314
桉 30318
桌 2089266
桎 21631
桐 371869
桑 920561
桓 153271
桔 145619
桜 7119
桝 669
桟 754
桡 15043
桢 30580
档 3812069
桥 3323878
桦 82238
桧 24714
桨 111331
桩 498547
桫 3873
桶 1979261
桷 5276
桿 304730
梁 2565169
梃 2942
梅 2667172
梆 37041
梓 189050
梔 10970
梗 341656
條 3582573
梟 16063
梠 1811
梢 164755
梦 4615172
梧 156768
梨 570410
梭 375332
梯 1909873
械 4528743
梱 1025
梳 673760
梵 243499
梶 7262
检 12532902
棂 12984
棄 516541
棉 1421535
棋 2953325
棍 338289
棒 1794233
棕 1525231
棗 65340
棘 210606
棚 824932
棟 172849
棠 171739
棣 57007
棧 64607
棨 2088
棫 1275
森 3167671
棱 223243
棲 67438
棵 317417
棹 6930
棺 132581
棻 2519
椀 1097
椁 18153
椅 1257357
椋 21976
植 4792820
椎 389358
椏 7806
椒 680051
椙 612
椚 741
椛 861
検 6515
椭 122785
椰 223463
椴 11283
椹 14289
椽 12017
椿 66617
楂 77886
楊 540652
楓 91389
楔 70123
楕 661
楙 1835
楚 3026080
楝 10329
楞 126670
楠 302005
楡 651
楢 1625
楣 32667
楨 13017
楫 11080
業 19318445
楮 9912
楯 2571
楳 961
極 2207481
楷 194328
楸 14069
楹 45383
楼 5721609
楽 13688
概 4578609
榄 184721
榆 218699
榈 89442
榉 27179
榊 2187
榎 2302
榑 681
榔 78760
榕 121809
榖 4520
榘 4287
榛 45085
榜 2449337
榧 13675
榨 363294
榫 45381
榭 83376
榮 877961
榴 222377
榷 37102
榻 152417
槁 14072
槃 75010
槇 744
槊 5650
構 2772647
槌 48758
槍 280494
槎 14019
槐 143118
槓 30321
様 5158
槙 2207
槛 472703
槟 130007
槤 6582
槨 7687
槪 1038
槭 15337
槲 8101
槳 28493
槺 614
槻 6489
槽 1306840
槿 72551
樁 75964
樂 3593879
樅 8366
樊 190565
樋 3499
樑 54750
樓 1333947
樗 4952
標 4908557
樞 99237
樟 138577
模 18818035
樣 5033494
樨 6853
権 5011
横 1750424
樫 2054
樱 431235
樵 41047
樸 128072
樹 892883
樺 50729
樽 46543
樾 25753
橄 205431
橇 38449
橈 11378
橋 694860
橐 7432
橘 304602
橙 653300
機 12510742
橡 1048611
橢 28956
橫 339260
橱 295314
橹 28332
橿 2148
檀 161246
檄 12873
檉 6540
檎 3455
檐 109866
檔 1074661
檗 9364
檜 19984
檢 2423416
檣 8716
檬 254442
檯 120289
檳 53739
檸 86912
檻 91794
櫂 1400
櫃 392273
櫓 12109
櫚 27095
櫛 13402
櫟 9475
櫥 69199
櫨 8947
櫸 11115
櫻 186803
欄 383251
欅 1054
欉 1850
權 5661731
欒 18278
欖 55750
欞 7017
欠 1016756
次 41788627
欢 11396708
欣 2054345
欤 20112
欧 7045729
欲 2246060
欺 977437
欽 82964
款 21081773
歆 39526
歇 452468
歉 697938
歌 6235071
歎 50652
歐 1193076
歓 1720
歙 16696
歟 8687
歡 2461778
止 10760434
正 41697822
此 39951128
步 20875731
武 6974224
歧 715285
歩 23987
歪 289403
歯 8886
歲 1539122
歳 18214
歴 5625
歷 2026875
歸 757083
歹 148347
死 7510020
歼 221317
歿 9393
殁 11536
殃 46082
殆 75143
殇 37793
殉 56817
殊 3384590
残 2034891
殒 23221
殓 11924
殖 1983367
殘 373431
殞 11963
殡 206070
殤 11360
殭 15175
殮 10697
殯 38644
殲 25940
殴 197263
段 13197785
殷 348443
殺 813153
殻 2213
殼 262235
殿 822486
毀 317950
毁 1690975
毂 80894
毅 731584
毆 36260
毋 149591
毌 1355
母 7535725
毎 10509
每 24107758
毒 4864056
毓 76187
比 44187312
毕 4540433
毖 18251
毗 197448
毘 17518
毙 94095
毛 5231691
毡 86486
毫 2344985
毬 40933
毯 443343
毽 12517
氂 1281
氈 27757
氏 1753831
氐 24311
民 40893520
氓 102686
气 25225459
氖 43164
気 9433
氘 6023
氙 28293
氚 6217
氛 1751382
氟 1779438
氡 15807
氢 2736816
氣 4883385
氦 35396
氧 15209070
氨 798429
氩 42983
氪 76535
氫 110065
氬 37057
氮 548947
氯 2245628
氰 96984
水 74493255
氵 3508
氷 1952
永 6159968
氹 19872
氾 20048
汀 214555
汁 1186502
求 31228996
汇 4940119
汉 4649163
汊 7532
汎 5397
汐 97487
汕 250102
汗 1279062
汙 201871
汚 3993
汛 229839
汜 8181
汝 243991
汞 186690
江 14596050
池 4191094
污 6152035
汤 1529162
汧 1375
汨 18587
汪 616765
汭 3555
汰 1465429
汲 184628
汴 33609
汶 152895
汹 126129
決 2967269
汽 21017895
汾 151826
沁 190856
沂 281680
沃 1259959
沄 2312
沅 44606
沆 6553
沈 1641380
沉 3368090
沌 101002
沐 361680
沒 5879911
沓 71922
沔 6085
沖 590274
沙 8490247
沛 314672
沟 2605639
没 29081126
沢 30228
沣 46576
沥 312271
沦 205837
沧 369445
沪 870998
沫 642164
沭 27137
沮 117043
沱 60428
河 10521334
沸 407736
油 16248914
治 20890500
沼 177931
沽 144871
沾 393931
沿 2574713
況 2570582
泄 1188337
泉 2349767
泊 703686
泌 666113
泓 95999
法 67616933
泗 83474
泚 2374
泛 4126244
泞 38390
泠 26735
泡 2624343
波 7333494
泣 201736
泥 2482282
注 29186818
泪 845183
泫 19399
泮 14344
泯 29247
泰 3809483
泱 29675
泳 982959
泵 2064009
泷 30479
泸 194907
泻 302831
泼 440672
泽 2064479
泾 94258
洁 4205473
洄 12625
洋 3943514
洎 3463
洒 566121
洗 6137705
洙 33912
洛 2461432
洞 3955763
津 5258902
洧 8743
洩 144467
洪 1690287
洮 19288
洱 215382
洲 7761945
洵 24438
洶 35797
洸 4978
洹 13267
洺 6399
活 36794616
洼 130956
洽 933313
派 5388447
流 32662678
浄 4045
浅 2691055
浆 1024515
浇 488870
浊 177458
测 15546454
济 15439542
浏 3277582
浑 472601
浒 62087
浓 2512329
浔 49064
浙 2617893
浚 79972
浜 172154
浞 5944
浠 88130
浣 98993
浤 1382
浦 1248547
浩 1329661
浪 4008231
浬 3341
浮 2014059
浯 7068
浴 1547350
海 32692828
浸 992981
涂 2533664
涅 208023
涇 16440
消 22283726
涉 6476840
涌 969823
涎 71963
涓 327562
涔 48221
涕 104505
涙 10188
涛 740556
涜 9336
涝 116098
涞 28797
涟 81601
涡 387248
涣 62811
涤 331996
润 4150811
涧 63595
涨 4903775
涩 304488
涪 65043
涮 64435
涯 853319
液 6638171
涵 2036121
涸 44773
涼 328508
涿 35409
淀 859726
淄 224612
淅 40614
淆 132482
淇 279020
淋 1068551
淌 135217
淑 345503
淒 19097
淖 56716
淘 3056050
淙 17747
淚 221706
淝 7770
淞 41410
淡 9520551
淤 179992
淦 16536
淨 593595
淩 42199
淪 60361
淫 1043865
淬 145008
淮 694709
淯 2499
深 22399747
淳 204883
淵 83118
淶 9493
混 4745945
淸 5828
淹 199485
淺 242067
添 4465257
淼 91163
清 21682517
渇 861
済 8074
渉 2106
渊 343985
渋 7254
渍 194920
渎 67779
渐 3344835
渓 1001
渔 740551
渕 1605
渗 918285
渙 17272
渚 77367
減 1594703
渝 374801
渟 1799
渠 2503951
渡 1196194
渣 678246
渤 215315
渥 48887
渦 69791
温 11269590
渫 2566
測 2347237
渭 159177
港 12749222
渲 239939
渴 702608
游 29371144
渺 121693
渾 114145
湃 279964
湄 77382
湊 111588
湍 46285
湖 6896134
湘 698525
湛 479745
湜 13003
湟 22104
湣 7138
湧 115808
湫 8129
湮 30928
湯 510700
湳 7586
湾 3772405
湿 2798230
満 23748
溃 453199
溅 227242
溆 18153
溉 177273
溏 16880
源 29719780
準 3629473
溜 382435
溝 570915
溟 14425
溢 938982
溥 49391
溧 46558
溪 1268248
溫 2254607
溯 508475
溱 8763
溲 3678
溴 55746
溶 45349892
溺 188499
溼 32670
滁 60115
滂 12539
滄 69810
滅 355253
滇 121354
滉 2245
滋 1279006
滌 84580
滎 9288
滏 3160
滑 4294970
滓 51971
滔 131500
滕 170548
滘 17054
滙 43924
滚 1284920
滝 3037
滞 556491
满 12170076
滢 22416
滤 1961792
滥 418964
滦 43554
滨 1424809
滩 733334
滬 87304
滯 101337
滲 168901
滴 1860447
滷 34419
滸 12853
滹 5874
滾 300598
滿 3289167
漁 188126
漂 1554510
漆 1765855
漉 45831
漏 5216761
漑 644
漓 232940
演 12279706
漕 43923
漠 633271
漢 767648
漣 24041
漩 87565
漪 64682
漫 3705085
漬 63457
漯 68029
漱 113242
漲 473608
漳 208003
漵 5314
漸 755038
漾 117957
漿 224013
潁 11785
潇 214254
潍 231638
潑 109129
潔 820595
潘 685250
潛 454512
潜 2485568
潞 35426
潟 24711
潢 229671
潤 676280
潦 36628
潭 514669
潮 24670130
潯 16743
潰 105671
潴 17688
潺 66471
潼 69705
潾 1184
澀 78987
澁 850
澂 2785
澄 1418231
澆 74259
澇 20838
澈 216739
澍 19696
澎 379557
澗 20789
澜 337068
澠 7324
澡 387652
澤 401671
澧 29001
澪 2631
澮 6550
澱 63911
澳 5019291
澶 81570
澹 32790
激 8567441
濁 55338
濂 38010
濃 548440
濉 14652
濊 5468
濑 37773
濒 225316
濕 709853
濘 16923
濛 29868
濞 5712
濟 2248547
濠 324250
濡 66349
濤 97526
濫 118074
濬 8362
濮 110815
濯 31816
濰 37902
濱 222213
濵 1013
濺 36099
濾 381643
瀅 11174
瀆 19847
瀉 68687
瀋 17146
瀏 1282742
瀑 323943
瀕 38348
瀘 24540
瀚 189743
瀛 113231
瀝 56567
瀞 4991
瀟 28859
瀧 17124
瀨 27303
瀬 18968
瀰 14731
瀾 58023
灃 9529
灌 1242883
灏 72837
灑 123148
灕 1829
灘 197604
灝 14767
灞 45996
灣 3276361
灤 13247
火 12539375
灭 1687493
灯 3888051
灰 3656138
灵 4773230
灶 358827
灸 231161
灼 194985
災 495139
灾 2250181
灿 360161
炀 26301
炁 7903
炅 35753
炆 6298
炉 2018718
炊 90799
炎 2566800
炒 1484908
炔 35401
炕 50342
炖 171000
炘 3850
炙 151041
炜 112645
炤 10558
炫 478730
炬 157959
炭 1257455
炮 1073321
炯 64714
炱 4196
炳 172922
炸 2275294
点 41957879
為 27474241
炼 1982603
炽 118091
烁 211242
烂 827754
烃 102928
烈 4547281
烏 324734
烘 821537
烙 138084
烛 173297
烜 4077
烝 2530
烟 3359053
烤 1226099
烦 1586802
烧 2534920
烨 103225
烩 86079
烫 398923
烬 48961
热 16626190
烯 869146
烴 24768
烷 234543
烹 479078
烺 1848
烽 99246
焉 232161
焊 1753051
焓 13133
焔 716
焕 290636
焗 34560
焘 19156
焙 235858
焚 596964
焜 5234
無 8155660
焦 3046598
焯 40930
焰 421833
焱 45668
然 41063694
焼 2754
煇 2971
煉 272193
煊 26190
煌 807524
煎 421947
煒 21037
煕 1807
煖 3224
煙 500081
煚 636
煜 103839
煞 241867
煤 2769237
煥 71438
煦 69856
照 16791439
煨 21730
煩 404950
煬 9709
煮 864452
煲 156130
煽 146771
熄 180352
熈 673
熊 1499434
熏 262125
熒 40003
熔 782113
熙 487143
熟 5025564
熠 122028
熨 72834
熬 479194
熱 3342480
熲 6903
熵 17788
熹 52826
熾 31323
燁 17423
燃 3988806
燄 3321
燈 864836
燉 52622
燊 33431
燎 59096
燐 3143
燒 625725
燔 7105
燕 1131951
燗 481
燙 519900
營 4093193
燥 1377847
燦 120183
燧 12723
燬 2514
燭 60322
燮 23719
燴 21240
燹 2627
燻 15245
燼 17280
燾 8927
燿 3327
爀 572
爆 5060733
爍 41964
爐 457116
爛 174300
爨 5953
爪 293717
爬 926446
爭 1613948
爰 41164
爱 14734680
爲 651763
爵 490269
父 5141555
爷 1398289
爸 2786552
爹 307674
爺 243775
爻 53163
爽 1385740
爾 1781597
牂 1879
牆 329502
片 20387768
版 22501897
牌 20276550
牍 28595
牒 33277
牘 9835
牙 3577126
牛 14806148
牝 23074
牟 239785
牠 134551
牡 285984
牢 2299982
牧 1398004
物 44679897
牯 9465
牲 485736
牴 15642
牵 1265925
特 40519733
牺 333588
牻 675
牽 228366
犀 176396
犁 99215
犂 781
犄 8978
犊 50502
犍 12156
犒 21117
犛 6437
犠 1206
犢 16714
犧 81310
犬 754388
犯 5213300
犰 1823
状 46455705
犷 35443
犸 17237
犹 875279
犽 1466
狀 2029949
狂 2202187
狄 180662
狈 58545
狍 12229
狎 7792
狐 700097
狒 8813
狗 2376635
狙 113838
狛 2759
狠 1056910
狡 86203
狨 1540
狩 90306
独 8044194
狭 357038
狮 512315
狱 692772
狳 2211
狷 3869
狸 166689
狹 80531
狼 981308
狽 21154
猁 3498
猊 4597
猎 851267
猕 99479
猖 64521
猗 9606
猛 1392191
猜 961545
猝 92342
猞 2966
猟 516
猥 120522
猩 127049
猪 2195311
猫 2249049
猬 36175
献 3682205
猴 1995157
猶 356371
猷 27329
猾 48015
猿 112316
獁 5582
獄 184918
獅 162077
獎 1733734
獏 623
獐 79608
獒 24974
獗 42829
獠 17286
獣 1871
獨 1835293
獬 7462
獭 29537
獰 16444
獲 2523168
獴 1898
獵 155366
獷 13154
獸 238986
獺 15145
獻 643661
獼 17782
獾 21195
玄 939753
玆 1722
率 20229682
玉 3938482
王 13983680
玑 31671
玕 2188
玖 168910
玘 2123
玛 1088262
玟 38662
玠 8523
玢 2428
玥 79779
玩 12306782
玫 497003
玮 134344
环 19497296
现 66077665
玲 824289
玳 9941
玷 27030
玹 4412
玺 128019
玻 4217143
珀 196732
珂 104506
珅 16591
珈 62385
珉 145944
珊 407768
珍 2135731
珏 28870
珐 34645
珑 100907
珙 11770
珝 1528
珞 57568
珠 3172850
珣 6630
珥 10893
珦 644
珩 41909
珪 13043
班 9571068
珮 49710
珲 19882
珺 37557
珽 2906
現 11342080
球 23116934
琅 192185
理 85787935
琇 7348
琉 178384
琊 41920
琍 28792
琏 23226
琐 362842
琚 11435
琛 107697
琢 195925
琤 3503
琥 86977
琦 286493
琨 68835
琪 550672
琬 12926
琮 18407
琯 3935
琰 28322
琲 3602
琳 701661
琴 1325446
琵 67034
琶 89103
琺 19776
琼 374581
琿 9051
瑀 8727
瑁 19390
瑄 27079
瑈 481
瑊 854
瑋 41538
瑕 403667
瑗 11855
瑙 109663
瑚 144173
瑛 81135
瑜 671947
瑞 3470795
瑟 392662
瑠 5542
瑢 2716
瑣 63284
瑤 61135
瑩 91121
瑪 285072
瑭 5595
瑯 34159
瑰 531048
瑱 3371
瑳 951
瑶 310332
瑷 9222
瑾 116854
璀 153937
璁 37845
璃 4056665
璆 1318
璇 133030
璈 1607
璉 19506
璋 110974
璐 212750
璘 8428
璜 26643
璞 70103
璟 85261
璠 7205
璣 11207
璥 465
璦 7212
璧 139470
璨 162842
璩 5109
璪 688
環 3590314
璲 404
璹 561
璽 29351
璿 11296
瓊 74917
瓌 741
瓏 28244
瓒 22312
瓔 12534
瓘 3174
瓚 10379
瓛 483
瓜 1563799
瓠 6381
瓢 55832
瓣 495657
瓦 2201229
瓩 2805
瓮 39497
瓯 60204
瓶 2105346
瓷 1947839
甄 326324
甌 13113
甑 16847
甕 19774
甘 2109658
甚 6174071
甜 2103756
生 116730670
甡 1100
產 11068481
産 616704
甥 48552
甦 28795
用 144771981
甩 319014
甫 236928
甬 47767
甯 121568
田 4526768
由 32280702
甲 4101516
申 9520140
电 55036867
男 10573612
甸 437217
町 333613
画 7019730
甾 22378
畀 22879
畅 2036255
畈 10602
畋 5447
界 21707744
畏 541293
畑 14011
畔 303226
留 10723115
畜 627528
畝 146460
畠 3746
畢 855863
畤 2203
略 9981776
畦 23069
番 1523385
畫 2210016
畬 9359
畯 2413
異 1328391
畲 34324
畳 1065
畴 508558
畵 660
當 8197569
畷 2247
畸 233510
畹 10939
畿 31952
疃 22879
疆 1608738
疇 66170
疊 194056
疋 4726
疍 2865
疎 1609
疏 1320889
疑 5562484
疒 1105
疗 9091318
疙 62040
疚 97637
疝 34382
疟 57261
疡 150741
疣 74683
疤 201252
疥 14875
疫 1960847
疮 247646
疯 956299
疱 87894
疲 1030370
疵 313247
疸 52674
疹 378562
疼 1265593
疽 31353
疾 3894518
痂 28116
病 14720914
症 3936283
痉 88060
痊 71612
痍 12916
痒 295648
痔 95893
痕 916923
痘 507598
痙 31272
痛 4147213
痞 106895
痢 52946
痣 83870
痤 59552
痩 1186
痪 197738
痫 1435477
痰 227263
痲 3445
痴 352044
痹 120080
痺 15067
瘀 141487
瘁 23808
瘋 223455
瘍 37261
瘓 33179
瘙 84790
瘟 193853
瘠 37766
瘡 69369
瘢 38292
瘤 1101430
瘦 997482
瘧 17868
瘩 58539
瘫 210557
瘴 23512
瘾 238173
療 1738421
癇 42049
癌 2057683
癒 93682
癖 75969
癡 73156
癢 118944
癣 86888
癥 223510
癩 8885
癪 579
癫 1476388
癬 25041
癮 89574
癱 51845
癲 57204
癸 56423
発 17805
登 10285813
發 17038082
白 30337343
百 15843361
皂 257495
的 996896634
皆 1971733
皇 3712328
皈 42949
皋 69677
皎 42382
皐 1102
皓 232408
皖 154704
皙 88137
皝 2157
皮 7654481
皰 18348
皱 406178
皺 114045
皿 99014
盂 31444
盃 98233
盅 24203
盆 1013767
盈 2302449
益 14313965
盎 214434
盏 145651
盐 3334558
监 13349938
盒 1912990
盔 164491
盖 4997304
盗 1313390
盘 6801305
盛 4428696
盜 232791
盞 43025
盟 6030163
盡 1393129
監 1898231
盤 1036145
盥 23388
盧 160073
盩 806
盪 64048
目 47491186
盯 464528
盱 17898
盲 813886
直 27133078
相 47489649
盼 711462
盾 1508224
省 22489233
眈 40256
眉 1050878
看 45675065
県 239712
眙 16437
眞 8859
真 27941914
眠 1130304
眨 163036
眩 155005
眭 3728
眶 89466
眷 259872
眸 204899
眺 127520
眼 11261123
眾 2609250
着 36589986
睁 271851
睇 107031
睐 419404
睑 56878
睛 1629725
睜 61063
睞 73206
睡 2789308
睢 31722
督 5353003
睦 170000
睨 14984
睪 23487
睫 196761
睬 70787
睹 373500
睺 5757
睽 57352
睾 104555
睿 413293
瞄 299029
瞋 26747
瞌 22394
瞎 177226
瞑 11023
瞒 215146
瞞 49606
瞥 90471
瞧 257311
瞩 272232
瞪 172803
瞬 1169033
瞭 497776
瞰 122357
瞳 147704
瞻 353511
瞼 20316
瞽 4674
瞿 52363
矇 9806
矍 8854
矗 78877
矚 66260
矛 1140815
矜 37401
矢 245666
矣 264642
知 30233215
矧 1634
矩 1118494
矫 314518
短 8109721
矮 301435
矯 88930
石 11952149
矶 265913
矽 179617
矾 47887
矿 3296987
砀 18489
码 15585051
砂 1553908
砌 232286
砍 452292
砒 10668
研 27286530
砕 644
砖 1378964
砚 96393
砜 18118
砥 161258
砦 7182
砧 41575
砬 2967
砭 19950
砰 67251
砲 66891
破 11090228
砵 2912
砷 45822
砸 438947
砺 188393
砾 53548
砿 541
础 7050312
硃 4495
硅 1089954
硏 4547
硐 14389
硒 102283
硕 1582662
硖 8251
硝 1785631
硤 8596
硫 9428487
硬 6092822
确 18276158
硯 23571
硼 88150
碁 34321
碇 13211
碉 28411
碌 372882
碍 1556262
碎 2457055
碑 1386610
碓 7297
碕 691
碗 769511
碘 217998
碚 23223
碛 12572
碟 400358
碣 17578
碧 898724
碩 327945
碭 7620
碰 1830452
碱 829096
碲 7834
碳 6458804
碴 16957
碶 1676
碸 5789
確 3750134
碼 1561570
碾 139702
磁 3407309
磅 568407
磊 687489
磋 293050
磐 84650
磔 2388
磕 140117
磘 658
磚 261490
磡 16349
磧 8132
磨 3335009
磬 14228
磯 78833
磴 5813
磷 531151
磺 104850
磻 1941
磾 1848
礁 207915
礎 967632
礒 938
礙 358240
礦 550143
礪 29116
礫 19644
礬 15489
礴 90698
示 33288320
礼 4624429
礽 4970
社 27903665
祀 147535
祁 177412
祂 154635
祆 2186
祇 41761
祈 340045
祉 127424
祎 74523
祏 1053
祐 49457
祓 1872
祔 2259
祕 87470
祖 2497114
祗 22004
祚 26185
祛 266023
祜 17143
祝 2419316
神 18812544
祟 46306
祠 142647
祢 34597
祥 1318560
票 17904591
祭 693008
祯 63678
祷 155007
祸 462354
祺 136923
祿 66191
禀 103792
禁 4587542
禄 238177
禅 329469
禊 2281
禍 116550
禎 26560
福 10871605
禑 494
禔 1535
禕 9828
禛 11182
禦 79293
禧 203959
禩 3005
禪 126609
禮 1398256
禰 8581
禱 118575
禹 195014
禺 101772
离 10634960
禽 457732
禾 304737
禿 38621
秀 6361499
私 5422405
秃 115268
秆 162204
秉 1070609
秋 3603728
种 36897953
科 34800627
秒 2167351
秘 4082950
租 6403041
秣 9066
秤 273297
秦 1689531
秧 82712
秩 850492
秭 10262
积 12334930
称 16447972
秸 171178
移 8827964
秽 124844
稀 2823838
稃 2010
稅 1260953
稈 32124
程 43577872
稍 1391062
税 6374616
稔 25095
稗 10473
稙 996
稚 221197
稜 14886
稟 25028
稠 211777
稣 236631
種 6435373
稱 2597424
稲 8888
稳 7827433
稷 47665
稹 11697
稻 698117
稼 78468
稽 236482
稿 2775046
穀 65639
穂 9402
穆 714714
穌 154557
積 2063551
穎 174065
穏 1740
穐 430
穗 680988
穢 67224
穣 722
穩 1131843
穫 39239
穰 5048
穴 961040
究 18116944
穷 937794
穹 126916
空 24116145
穿 5599070
突 8559587
窃 406223
窄 676086
窈 30373
窍 1650889
窑 316916
窒 113668
窓 1190
窕 27512
窖 148608
窗 3352281
窘 124220
窜 135607
窝 787786
窟 210888
窠 15101
窣 6226
窥 194012
窦 150501
窩 127908
窪 19214
窮 202573
窯 64834
窺 65096
窿 37406
竄 50394
竅 46378
竇 31043
竈 7671
竊 113042
立 30964224
竑 4377
竖 305276
站 37021079
竜 4860
竝 2628
竞 7576943
竟 3955779
章 8948029
竣 339769
童 5605966
竦 16430
竪 1237
竭 888902
端 10295385
競 1024558
竹 1681065
竺 58978
竿 194520
笃 118717
笄 7049
笆 44866
笈 41880
笋 166730
笏 10808
笑 5187971
笔 4333450
笕 12955
笙 89096
笛 174532
笞 13094
笠 91204
笥 12526
符 5059970
笨 256512
笪 7142
第 40391642
笮 6424
笳 88841
笹 4366
笺 60072
笼 638436
筅 1443
筆 1067386
筈 992
等 81452545
筊 4520
筋 918236
筌 5257
筍 55323
筏 49814
筐 78796
筑 6411550
筒 995821
答 5629738
策 13897682
筛 898255
筝 145413
筠 43958
筥 713
筧 11962
筮 7111
筰 729
筱 90633
筲 4325
筵 27742
筷 154091
筹 2458940
筺 459
签 5986250
简 10175899
箇 13675
箋 17882
箍 105668
箏 29492
箐 13446
箒 941
箓 13859
箔 134480
箕 38065
算 15333112
箚 709
箝 5860
管 47428216
箪 6383
箫 38832
箬 6530
箭 1049923
箱 5734219
箴 28430
箸 7718
節 3337832
篁 11525
範 1246157
篆 102572
篇 3614695
築 690981
篋 7895
篙 10447
篝 35946
篠 7494
篡 164413
篤 34543
篦 17228
篩 193827
篪 21609
篭 580
篮 1744702
篱 81638
篷 301083
篾 8406
簀 6952
簃 798
簇 122592
簋 9412
簑 849
簒 664
簕 2125
簗 635
簡 2156563
簧 395216
簪 29003
簫 11867
簷 15314
簸 71108
簽 908634
簾 118369
簿 243384
籀 3443
籁 50953
籃 226596
籌 343904
籍 2837631
籐 5097
籓 2276
籔 666
籙 6513
籟 15908
籠 116776
籤 120053
籬 28366
籲 118620
米 12409909
类 20300877
籽 264696
籾 889
粁 535
粂 450
粄 4823
粉 29661354
粋 1347
粍 5364
粑 46703
粒 5582074
粕 98439
粗 1579993
粘 1620282
粛 2132
粟 95982
粤 641632
粥 332755
粧 16017
粪 375174
粮 1405127
粱 77508
粲 14112
粳 40099
粵 134687
粹 524435
粽 137719
精 24116349
粿 17568
糀 1408
糅 28211
糊 1015561
糍 12026
糎 424
糕 1028764
糖 2883296
糗 16428
糙 261161
糜 98618
糞 70859
糟 511079
糠 60581
糧 215445
糬 13032
糯 169091
糰 18297
糸 14749
糹 201
糺 753
系 46682295
糾 269101
紀 2012735
紂 12539
約 3586459
紅 2104727
紆 7390
紇 7586
紉 20529
紊 176541
紋 447522
納 1069686
紐 355273
紓 43828
純 752594
紗 220967
紘 11618
紙 902362
級 3920463
紛 628762
紜 12786
素 12697636
紡 174067
索 8783613
紧 7137772
紫 3715945
紬 2894
紮 105414
累 4214562
細 2491408
紳 43385
紹 982206
紺 10697
終 1863699
絃 5036
組 4025654
絅 575
絆 34266
経 27390
結 5105297
絕 1629847
絜 3569
絞 52562
絡 1603661
絢 39076
絣 697
給 3971554
絨 113028
絮 188094
統 5590843
絲 1031478
絳 17206
絵 24423
絶 13788
絹 19455
綁 187720
綃 7018
綉 13261
綏 25272
綑 10192
經 12596697
継 2749
続 5334
綜 889967
綝 1993
綠 1062945
綢 53723
綦 22937
綫 42107
綬 10149
維 2673928
綰 10483
綱 155417
網 12420712
綴 66809
綵 7573
綸 37446
綺 40051
綻 56791
綽 31299
綾 20951
綿 186886
緊 1489961
緋 25471
総 30999
緑 7902
緒 339932
緖 1128
緘 14268
線 4911816
緝 42683
緞 27485
締 87183
緡 7766
緣 558289
編 1673548
緩 558166
緬 80532
緯 70217
緲 10303
練 1094667
緹 22530
緻 575296
縁 2995
縄 11107
縈 16661
縉 19003
縊 8758
縛 59274
縝 14288
縞 8163
縣 1609845
縦 1688
縫 294656
縮 681647
縯 1060
縱 238593
縷 37133
縹 10303
縻 3251
總 4171742
績 806475
繁 3162313
繃 65378
繆 23156
繇 10840
繊 1173
繋 1843
繍 3968
繒 7738
織 1601153
繕 42351
繙 3897
繚 30984
繞 399120
繡 91577
繩 205961
繪 394009
繫 315989
繭 24728
繰 7879
繳 442758
繹 83321
繼 1432975
繽 78477
纂 112134
纈 8681
續 3318313
纍 4191
纏 122062
纓 14958
纖 381104
纘 6843
纛 2723
纜 320457
纠 1426434
红 18655070
纣 33407
纤 1544874
纥 11554
约 14450569
级 24426475
纪 10569311
纫 60139
纬 297197
纭 53600
纮 7214
纯 4136294
纱 690052
纲 714100
纳 6678296
纵 1519275
纶 158162
纷 3483903
纸 4082494
纹 1953763
纺 892175
纽 1450880
纾 59259
线 29642335
绀 22422
绂 20028
练 4884268
组 24284889
绅 128535
细 12388349
织 10386364
终 10402349
绊 119213
绍 6426758
绎 396601
经 67194942
绑 856152
绒 546184
结 46900565
绕 2537876
绘 1402455
给 22396741
绚 174135
绛 44809
络 10697639
绝 6079447
绞 249965
统 28158840
绡 10626
绢 46411
绣 423453
绥 121447
继 7308788
绩 5428228
绪 1426761
绫 41249
续 16967293
绮 98361
绯 92266
绰 99850
绳 637256
维 13684033
绵 717680
绶 20032
绷 133813
绸 352980
综 6235411
绽 229697
绾 35692
绿 9064542
缀 257661
缄 34289
缅 369330
缆 1200539
缇 54512
缉 157625
缎 65025
缓 3255579
缔 341116
缕 163863
编 10312411
缘 2507015
缙 25541
缚 210776
缜 52390
缝 1488701
缟 10432
缠 465298
缢 14350
缤 229431
缨 38600
缩 3513949
缪 96254
缬 16178
缭 105352
缮 80133
缯 8804
缴 2019626
缵 5860
缶 7707
缸 722266
缺 5810828
缽 24254
罂 26022
罄 58435
罅 11647
罈 2638
罌 10123
罐 1067914
网 81173952
罔 39040
罕 553882
罗 7699282
罘 11498
罚 2586207
罟 6694
罠 475
罡 42040
罢 567893
罩 865994
罪 4336626
置 16973830
罰 360873
署 4117498
罵 141284
罷 161942
罹 116259
罽 1473
羁 163079
羅 1272681
羆 7555
羈 32619
羊 1874016
羋 9658
羌 111840
美 49540400
羔 82082
羚 82943
羞 507473
羟 72194
羡 327631
羣 11191
群 13084278
羥 18772
羧 31141
羨 68247
義 2575076
羯 62786
羰 10143
羲 73107
羸 19998
羹 96262
羽 1101163
羿 44332
翀 10542
翁 418471
翅 377791
翊 38182
翌 70219
翎 59529
習 2942495
翔 844399
翕 6559
翘 248835
翟 299080
翠 687263
翡 254188
翥 3530
翦 11600
翩 143968
翫 1018
翮 2843
翰 682751
翱 64863
翳 15986
翹 91324
翻 4088593
翼 1016961
耀 1588860
老 27221246
考 24096331
者 60077251
耆 36350
而 56178860
耍 384812
耐 4487367
耒 15624
耕 967997
耗 2929895
耘 122953
耙 57543
耜 3202
耦 130135
耨 12535
耳 2972884
耶 1014441
耸 180070
耻 236243
耽 252711
耿 217278
聂 184195
聃 4732
聆 289067
聊 2075635
聋 109614
职 14728671
联 29892019
聖 835356
聘 3237939
聚 6531362
聞 1360270
聡 2204
聪 810036
聯 4186040
聰 167246
聲 2499349
聳 60624
聴 1746
聶 37601
職 2491055
聽 1649572
聾 28597
聿 30203
肃 1293196
肄 13605
肅 166544
肆 441494
肇 262542
肉 5875714
肋 176857
肌 2424593
肓 12413
肖 1554786
肘 218781
肚 706269
肛 265609
肜 2378
肝 1382927
肟 8972
肠 1193215
股 20804062
肢 566297
肤 2807822
肥 3278822
肩 1326463
肪 818165
肮 61807
肯 3406408
肱 20268
育 25104589
肴 178231
肺 1053840
肼 11235
肽 139929
肾 815853
肿 1282902
胀 840459
胁 828748
胃 1414892
胄 22582
胆 1284772
背 6476636
胍 19495
胎 2125631
胖 938919
胚 289833
胛 19807
胜 4878334
胝 11901
胞 2430069
胡 2539572
胤 68737
胥 45645
胧 82750
胪 11174
胫 30669
胭 34345
胯 73736
胰 252661
胱 127147
胳 118185
胴 23923
胶 3510474
胸 1723895
胺 404292
胼 5757
能 117359401
脂 2405576
脅 206782
脆 794751
脇 4457
脈 385869
脉 1707679
脊 464787
脍 30079
脏 1369258
脐 142189
脑 5448840
脓 126178
脖 309720
脚 3476421
脛 13043
脣 3879
脩 7131
脫 927981
脯 65311
脱 4706337
脲 39918
脳 4180
脷 3444
脸 3391656
脹 171201
脾 617171
腆 29314
腈 48801
腊 578668
腋 95987
腌 126152
腎 208469
腐 3135028
腑 123992
腓 28383
腔 1272364
腕 498604
腥 228109
腦 1716981
腩 34980
腫 275115
腭 26444
腮 85349
腰 1544272
腱 61476
腳 859741
腴 23380
腸 311501
腹 1505707
腺 1059069
腻 672543
腾 4502753
腿 2037504
膀 513413
膂 7916
膈 29402
膊 134054
膏 780456
膑 14489
膚 989863
膛 105168
膜 3214582
膝 436580
膠 829240
膣 3452
膦 21210
膨 517697
膩 203257
膳 287341
膵 659
膺 82279
膽 264321
膾 14432
膿 34700
臀 393916
臂 871972
臆 41286
臈 552
臉 960256
臍 52923
臏 8424
臓 2744
臘 115190
臚 8420
臟 263118
臣 989642
臥 178411
臧 48182
臨 1175284
自 80768262
臬 14558
臭 1914210
至 27664820
致 15740134
臺 2818471
臻 214716
臼 49675
臾 21538
舁 1492
舂 9817
舅 202522
舆 852619
與 14189599
興 1714772
舉 2127679
舊 757387
舌 824996
舍 1755918
舎 3099
舐 31045
舒 3214853
舔 315890
舖 207087
舗 3861
舘 2620
舛 18350
舜 142951
舞 4007644
舟 826060
舢 4629
舩 804
航 9255562
舫 18370
般 8566972
舯 1779
舰 1708851
舱 436777
舳 3968
舵 120290
舶 426204
舷 44658
舸 22187
船 3570141
舺 6742
舾 7037
艀 448
艇 3504477
艉 3963
艋 8272
艏 6218
艘 515802
艙 93137
艛 257
艤 6598
艦 238993
艮 30707
良 8812095
艰 989148
艱 155521
色 75851633
艳 1141293
艶 2187
艷 138585
艸 8830
艹 29630
艺 10652016
艾 1740672
节 18513384
芃 25886
芈 31050
芊 49672
芋 143040
芍 56465
芎 24770
芒 627319
芗 13117
芙 298619
芜 195108
芝 864110
芡 30840
芥 104528
芦 466830
芨 13506
芩 25249
芪 54976
芫 14598
芬 883719
芭 286645
芮 72014
芯 2004812
花 17138847
芳 1175514
芷 109999
芸 190865
芹 158754
芻 11878
芽 617110
芾 26067
苄 15180
苅 889
苇 72847
苋 27791
苌 12312
苍 634260
苎 11706
苏 6132982
苑 431746
苓 77980
苔 144372
苕 8514
苗 2180499
苛 254778
苜 22208
苞 74018
苟 146887
苡 25992
苣 23620
若 7678734
苦 4084471
苧 9533
苫 16549
苯 546881
英 13885550
苳 2580
苴 8505
苷 95902
苹 4115264
苺 2166
苻 12526
苾 8313
茁 71017
茂 790930
范 14618516
茄 371083
茅 953865
茉 105162
茌 5535
茎 310894
茔 9743
茗 107613
茛 3381
茜 170308
茧 74988
茨 515824
茫 475571
茯 49735
茱 43375
茲 143060
茴 33318
茵 187006
茶 5185473
茸 111599
茹 139773
荀 49988
荃 98131
荆 355526
草 5665582
荊 63517
荏 24922
荐 3338000
荒 1014410
荔 200609
荖 2964
荘 3004
荚 56215
荞 42969
荟 135645
荠 29496
荡 1367373
荣 4179511
荤 62415
荥 29660
荧 270055
荨 53020
荩 13467
荪 15911
荫 161362
药 10358939
荳 7755
荷 1911714
荸 13759
荻 20058
荼 125431
荽 8873
莅 181767
莆 134724
莉 1051065
莊 489536
莎 825115
莒 29599
莓 344660
莖 160645
莘 78740
莞 869981
莠 44387
莢 19025
莧 9844
莨 7578
莪 13541
莫 2394832
莱 2227631
莲 880362
莳 21769
莴 24079
获 14121847
莹 386102
莺 82129
莽 111334
莿 1774
菀 17841
菁 193898
菅 28813
菇 396791
菈 6164
菊 498930
菌 2542355
菏 93986
菓 16907
菖 18371
菘 10101
菜 5216263
菝 2605
菟 13074
菠 183902
菡 16728
菩 582044
菫 1121
華 3381403
菰 7403
菱 381196
菲 2063341
菴 3680
菸 93384
菽 8764
萁 8880
萃 313057
萄 1272790
萇 7773
萊 350994
萌 981040
萍 433250
萎 319723
萘 17867
萜 11595
萝 579057
萠 540
萣 2598
萤 80774
营 21082441
萦 54968
萧 646381
萨 2136047
萩 5257
萬 3792987
萱 126043
萵 10822
萸 21415
萼 29511
落 14604012
葆 106219
葉 753874
葎 1582
著 12449082
葛 602257
葜 4974
葡 1995402
董 4323427
葦 21828
葩 136867
葫 294483
葬 662184
葭 12238
葯 10774
葱 443399
葳 16528
葵 220543
葶 4093
葷 22280
葺 15705
蒂 1234337
蒋 586675
蒐 248911
蒔 9579
蒙 2853576
蒜 371407
蒞 55044
蒟 5739
蒡 15433
蒨 3357
蒯 8035
蒲 264146
蒴 6066
蒸 1538308
蒺 5776
蒻 5335
蒼 105426
蒽 11385
蒾 518
蒿 74057
蓀 8210
蓁 17590
蓄 895338
蓆 9002
蓉 483070
蓋 867071
蓍 4032
蓑 10855
蓓 62134
蓖 19928
蓝 4258412
蓟 50867
蓣 6265
蓬 665199
蓮 443007
蓼 10471
蓿 22550
蔀 1058
蔑 97166
蔓 324027
蔔 56072
蔗 126160
蔘 14464
蔚 345565
蔡 1287241
蔣 115699
蔥 114047
蔦 8493
蔬 1109632
蔭 50186
蔴 1902
蔵 11423
蔷 64797
蔺 45237
蔻 88892
蔼 51551
蔽 573876
蕁 11728
蕃 87512
蕈 8383
蕉 476252
蕊 118917
蕎 19560
蕗 1398
蕙 62534
蕤 6315
蕨 25629
蕩 195461
蕪 41945
蕭 148398
蕲 17985
蕴 537903
蕷 6801
蕾 574220
薀 791
薄 2231207
薇 507027
薈 36062
薊 17415
薌 8055
薏 53778
薑 72958
薔 23620
薗 897
薙 5659
薛 363682
薜 7033
薦 1158867
薨 9114
薩 405403
薪 1639818
薫 1918
薬 10768
薮 11261
薯 378464
薰 151774
薷 7855
薹 16042
薺 9884
藁 14156
藉 602028
藍 763994
藎 6600
藏 5369681
藐 33731
藓 24937
藔 327
藕 108744
藜 38568
藝 2144579
藤 598631
藥 1832688
藨 796
藩 122705
藪 8688
藷 2035
藹 17988
藺 11641
藻 325718
藿 26149
蘂 565
蘄 8546
蘅 8103
蘆 103091
蘇 866111
蘊 120251
蘋 308895
蘑 156466
蘚 10792
蘭 1290197
蘸 80180
蘿 127553
虎 2566759
虏 78292
虐 416710
虑 3920131
虓 1250
虔 88440
處 5198934
虚 3325536
虛 580957
虜 27162
虞 201945
號 3343410
虢 16032
虧 171700
虫 1342737
虬 16805
虯 6447
虱 38014
虹 792768
虻 13621
虽 5924574
虾 598097
蚀 1219332
蚁 352886
蚂 254877
蚊 299421
蚋 5708
蚌 114215
蚓 34558
蚕 200199
蚜 23114
蚝 54483
蚣 30313
蚤 39561
蚩 22144
蚪 38839
蚬 11546
蚯 31637
蚱 14512
蚵 19019
蚶 6347
蚺 3401
蛀 67932
蛄 7615
蛆 19208
蛇 711428
蛉 7790
蛊 59695
蛋 3646494
蛍 1061
蛎 42592
蛏 17261
蛔 25087
蛙 210246
蛛 302275
蛞 7041
蛟 88402
蛤 72430
蛭 42738
蛮 391267
蛯 908
蛰 55559
蛱 7725
蛳 23330
蛸 3141
蛹 27031
蛺 7066
蛻 35689
蛾 69440
蜀 315517
蜂 1033677
蜃 18012
蜆 12754
蜈 38211
蜉 6986
蜊 16668
蜍 17037
蜑 1052
蜒 84000
蜓 60348
蜕 126932
蜗 167862
蜘 247573
蜚 37070
蜜 1453765
蜡 382080
蜢 6446
蜥 39756
蜱 13903
蜴 25933
蜷 41143
蜻 57892
蜿 82420
蝇 126787
蝉 154735
蝋 411
蝌 35887
蝎 159261
蝓 3178
蝕 215183
蝗 36310
蝙 87623
蝟 8726
蝠 103547
蝣 3650
蝦 202577
蝨 4947
蝮 6897
蝰 4583
蝴 231705
蝶 540176
蝸 38855
蝽 3117
蝾 5983
蝿 481
螂 74914
螃 112856
螄 8099
螈 4277
融 13867819
螞 48617
螟 13175
螢 250161
螨 75119
螫 4369
螭 7062
螯 26568
螳 25854
螺 1820886
螽 2203
蟀 15786
蟄 15778
蟆 31402
蟇 583
蟋 13477
蟎 15462
蟑 54578
蟒 58895
蟜 1034
蟠 36654
蟬 47362
蟲 301443
蟷 568
蟹 524229
蟻 87162
蟾 53347
蠅 30066
蠊 5668
蠍 26926
蠑 7103
蠔 24546
蠕 129357
蠟 93252
蠡 35315
蠢 234856
蠣 17761
蠱 18276
蠲 7876
蠵 1759
蠶 42292
蠹 15045
蠻 152268
血 9711174
衅 152002
衆 79177
衊 3847
行 117980164
衍 742242
衒 1024
術 5450779
衔 740451
衕 2235
街 5112020
衙 68920
衚 786
衛 1198282
衝 544110
衞 23628
衡 3048705
衢 107582
衣 6182329
补 7591481
表 44903337
衫 713971
衬 725140
衮 17323
衰 1175645
衷 749508
衹 51177
衽 4709
衾 7653
衿 10308
袁 653326
袂 91756
袄 49375
袈 11926
袋 2619288
袍 278659
袒 54088
袖 959307
袛 1053
袜 472426
袞 8964
袢 8952
袤 53695
被 33258189
袭 1385947
袱 95740
袴 3490
裁 3284466
裂 2023456
装 25366754
裏 664263
裒 1535
裔 366840
裕 724458
裘 64747
裙 980869
補 1480069
裝 4909794
裟 17008
裡 2978613
裤 1148695
裨 40224
裱 51637
裳 97447
裴 140682
裵 790
裸 684516
裹 646822
製 2126311
裾 10833
褂 55206
複 673695
褌 9890
褐 2216984
褒 79485
褓 14731
褔 9323
褚 74427
褥 76845
褪 207559
褫 7258
褲 472378
褶 111592
褻 58452
襁 17080
襄 306959
襖 15005
襞 4573
襟 113666
襦 4992
襪 149735
襯 159721
襲 243560
襷 453
西 26513631
要 119396752
覃 58791
覆 3519200
覇 2472
見 3764599
規 5012509
覓 56205
視 3850735
覗 497
覚 2183
覦 11003
覧 12945
親 2220833
覬 11341
覲 9755
観 5841
覺 2775628
覽 1991236
觀 3436240
见 15646516
观 51985683
规 30956267
觅 220149
视 23839421
览 5842406
觉 10480706
觊 22938
觎 22158
觐 24650
角 10286573
觚 3374
觞 29464
解 56622494
触 3640739
觴 9695
觸 829837
言 12622854
訁 5259
訂 2459292
訃 12504
訇 4049
計 7221971
訊 3100101
訌 8279
討 1050397
訓 1437003
訕 19164
訖 18924
託 296187
記 3776411
訛 19515
訝 76866
訟 195532
訢 2277
訣 87621
訥 11463
訪 1207948
設 9529488
許 2724521
訳 3176
訴 1184441
訶 23322
診 639915
註 863324
証 79987
訾 8213
詁 8082
詆 14996
詈 8503
詐 224370
詒 8531
詔 38526
評 2280700
詛 27622
詞 633257
詠 59030
詡 13311
詢 1623364
詣 25736
試 3063294
詧 812
詩 505906
詫 18986
詬 14642
詭 58124
詮 85525
詰 15296
話 3411846
該 3758251
詳 1039330
詵 7417
詹 465727
詼 16319
誅 27059
誇 100069
誉 4324843
誊 20762
誌 419608
認 4379837
誑 8788
誓 542187
誕 326617
誘 214415
語 2255645
誠 860226
誡 34467
誣 22648
誤 986681
誥 11127
誦 70720
誨 24623
說 8182990
説 68645
読 1481
誰 514942
課 1887468
誹 58405
誼 134184
誾 941
調 3919520
諂 9830
諄 16934
談 1004831
請 7161324
諌 464
諍 11150
諏 9554
諒 202899
論 3358889
諛 9829
諜 45851
諡 10777
諤 9500
諦 40007
諧 188447
諫 19645
諭 26589
諮 291830
諱 37489
諲 715
諳 16924
諴 620
諶 11658
諷 60322
諸 442062
諺 27686
諾 610500
謀 257375
謁 13506
謂 503369
謄 20150
謇 10275
謊 66344
謎 73937
謐 24392
謔 18753
謖 8129
謗 84183
謙 111514
謚 7053
講 1692076
謝 1614026
謠 71271
謡 1205
謨 12865
謫 9284
謬 42258
謳 11527
謹 260957
謾 23759
譁 5661
證 4354880
譏 19947
識 2578885
譙 9864
譚 68380
譜 277814
警 8115036
譬 211001
譯 491269
議 3735327
譲 2042
譴 43204
護 3616710
譽 487140
讀 2105263
讃 2323
變 4334963
讎 8148
讐 651
讒 13360
讓 6321562
讖 8174
讚 266147
讞 10303
计 46702333
订 5571847
讣 22747
认 21249194
讥 47547
讦 13015
讧 13265
讨 3947064
让 24017436
讪 52133
讫 21887
训 7937066
议 17954475
讯 8954057
记 25107208
讲 8665756
讳 147638
讴 49674
讶 251809
讷 30663
许 11848742
讹 49497
论 16119342
讼 798995
讽 203000
设 48036088
访 6845338
诀 2929379
证 24076829
诂 8731
诃 112289
评 12269818
诅 69568
识 13211639
诈 1002482
诉 6723920
诊 2611670
诋 45212
词 4564589
诏 96525
译 1757269
诒 14601
试 23557256
诗 2550710
诘 41877
诙 55570
诚 4075869
诛 100048
诜 11141
话 15446649
诞 1098451
诟 74761
诠 291298
诡 181896
询 6898767
诣 71104
诤 29466
该 19873417
详 5751630
诧 74028
诩 42192
诫 133727
诬 61527
语 11062877
误 3779694
诰 25155
诱 966001
诲 216156
说 43391395
诵 383205
请 25698630
诸 1984938
诹 10721
诺 4263190
读 8508278
诽 72762
课 8687671
谀 17854
谁 3140564
调 23640801
谄 19976
谅 439517
谈 5579719
谊 823932
谋 2075293
谌 54478
谍 217300
谎 250821
谏 58112
谐 1119239
谑 35579
谒 31881
谓 2349903
谔 13677
谕 51103
谗 16522
谘 51312
谙 66868
谚 48156
谛 99072
谜 371947
谟 29977
谢 4597373
谣 375876
谤 82436
谥 45583
谦 363757
谧 71879
谨 1271692
谩 47526
谪 17210
谬 97532
谭 337608
谯 17947
谱 1467918
谳 6306
谴 133978
谶 11918
谷 3330454
谿 2903
豁 182521
豆 2601358
豈 68932
豉 25609
豊 26451
豌 59804
豎 68232
豐 1321631
豔 87036
豕 9046
豚 151762
象 11974457
豢 27511
豨 2454
豪 2876652
豫 673558
豬 420152
豳 2476
豸 7368
豹 1828614
豺 14144
貂 76489
貉 12699
貊 1940
貌 1479375
貓 432490
貘 3785
貝 476712
貞 106251
負 2297438
財 1838352
貢 349061
貧 547699
貨 3399349
販 246051
貪 160404
貫 414643
責 3003813
貯 50056
貰 6581
貳 27696
貴 1044295
貶 57743
買 2922518
貸 1039719
費 5423343
貼 1185582
貽 14185
貿 739569
賀 215212
賁 13920
賂 24448
賃 185282
賄 54582
資 11564964
賈 104063
賊 89336
賎 499
賑 13860
賓 518215
賚 8373
賛 1952
賜 115188
賞 717179
賠 371294
賡 9825
賢 217682
賣 1494673
賤 53712
賦 203541
質 5720685
賬 369345
賭 164017
賴 496266
賺 419782
購 4084444
賽 2018496
賾 7737
贄 7689
贅 32622
贇 6590
贈 562962
贊 306757
贋 1543
贍 20818
贏 422573
贓 23694
贔 5490
贖 63698
贛 44471
贝 2601610
贞 253816
负 11075858
贡 2109800
财 11384941
责 15803459
贤 690886
败 3260987
账 3858417
货 11288586
质 31784288
贩 551298
贪 591417
贫 4191844
贬 356643
购 15945798
贮 270998
贯 2786826
贰 177211
贱 175459
贲 24807
贴 4246545
贵 5308114
贷 4001100
贸 4757782
费 25514781
贺 839541
贻 47409
贼 314284
贽 8729
贾 1002311
贿 751928
赀 5843
赁 2115153
赂 286712
赃 129245
资 51314466
赈 24368
赉 12696
赋 1131982
赌 1579299
赍 9607
赎 205772
赏 1956902
赐 306483
赓 38536
赔 2827278
赖 1779315
赘 99020
赚 2418968
赛 15226894
赝 20111
赞 2570964
赟 22301
赠 1181348
赡 82331
赢 3974682
赣 236478
赤 996727
赦 138938
赧 7611
赫 1125438
赭 12527
走 18540214
赳 12601
赴 1263086
赵 2174923
赶 2092822
起 38972427
趁 513433
超 19292355
越 18039298
趋 3106504
趕 407969
趙 258699
趟 339022
趣 5005110
趨 481085
足 14904543
趴 248113
趸 33565
趺 10802
趾 142347
跃 1716546
跆 68738
跋 126134
跌 4065822
跏 6097
跑 4241714
跖 16847
跗 5431
跛 22746
距 4203571
跟 9323723
跡 314483
跤 65106
跨 3676983
跪 325123
路 30758595
跳 2632638
践 3280226
跷 51687
跸 8499
跻 124394
踊 132939
踏 1576572
踐 422243
踝 109766
踞 66554
踢 514095
踩 553471
踪 1273337
踰 4654
踴 74212
踵 80726
踹 54177
蹂 33248
蹄 201498
蹇 33258
蹈 663902
蹉 15172
蹊 60205
蹋 38168
蹕 7338
蹙 38453
蹟 103963
蹠 6874
蹤 338041
蹦 171118
蹬 65107
蹲 292600
蹴 54024
蹶 21186
蹺 15938
蹼 6654
躁 401736
躄 1113
躅 3653
躇 29138
躉 12225
躊 15129
躋 23017
躍 311757
躏 26822
躑 6960
躓 6740
躙 484
躪 17996
身 30945915
躬 122335
躯 242581
躰 1153
躲 635654
躺 605338
躾 477
軀 71792
車 6762709
軋 57693
軌 294817
軍 1875104
軒 122141
軔 7795
軛 10657
軟 1778006
転 3037
軫 8366
軸 417754
軻 9688
軼 13797
軽 3469
軾 15453
較 3130354
輅 7543
載 2053056
輋 1797
輌 599
輒 29649
輓 2372
輔 536742
輕 2369145
輛 553256
輜 7313
輝 292273
輟 17921
輥 52959
輦 8243
輩 288353
輪 1059074
輯 664056
輳 7141
輸 1556166
輻 107400
輾 29502
輿 86254
轂 13379
轄 239799
轅 26441
轆 12583
轉 3660210
轍 26747
轎 71468
轟 114477
轡 7661
轢 7877
轤 7519
车 68833955
轧 329528
轨 1743740
轩 527727
轫 17722
转 18874839
轭 15558
轮 6701786
软 9679382
轰 578247
轲 24913
轴 2034395
轶 66017
轸 9165
轻 9213947
轼 54447
载 17647405
轿 781406
辂 7022
较 17272722
辄 99573
辅 3781335
辆 12611759
辇 11202
辈 1046137
辉 1888943
辊 286165
辍 67881
辎 8619
辐 683201
辑 2618538
输 9154478
辕 80977
辖 1002728
辗 91775
辘 25105
辙 87742
辛 1711597
辜 240274
辞 1344078
辟 555074
辣 1267371
辦 4118753
辨 1321064
辩 852756
辫 78259
辭 211012
辮 20196
辯 173268
辰 1003446
辱 589928
農 1867117
辶 3103
边 10692151
辺 8229
辻 6611
込 5032
辽 1102387
达 22956663
辿 963
迁 1528807
迂 49298
迄 480044
迅 3054320
过 65884041
迈 1483415
迎 8708687
运 27683690
近 25523136
返 2504448
还 41177027
这 96347463
进 70087993
远 8988723
违 6942278
连 12143097
迟 1196021
迢 39796
迤 18003
迥 77306
迦 197531
迨 8544
迩 47185
迪 3240654
迫 1959448
迭 351402
述 8227790
迳 14204
迴 172193
迷 3682199
迸 107524
迹 2098920
迺 7373
追 6287543
退 8238745
送 12891541
适 11801659
逃 1803052
逄 6122
逅 95524
逆 1576792
选 23644803
逊 895328
逋 5919
逍 162129
透 7494042
逐 5499460
逑 10639
递 2845481
逓 528
途 9245808
逕 67991
逖 6577
逗 349329
這 17520307
通 57416881
逛 687835
逝 595529
逞 91745
速 23103679
造 33312245
逡 5859
逢 725597
連 3090865
逮 283680
逯 10517
週 815283
進 11209367
逵 29297
逸 849318
逹 2456
逻 1013877
逼 1523115
逾 1007583
遁 94745
遂 482595
遅 2128
遇 6818145
遊 2714799
運 5085921
遍 3149301
過 13204520
遏 300362
遐 79877
遑 22035
遒 12335
道 44273999
達 4184486
違 1040327
遗 4466975
遘 1825
遙 197951
遜 142319
遞 480363
遠 1632682
遡 780
遣 756105
遥 962200
遨 41920
適 2933406
遭 2977851
遮 752053
遲 256147
遴 172957
遵 2302339
遶 7501
遷 317347
選 5608744
遹 1912
遺 639465
遼 129273
遽 25684
避 4995700
邀 9437948
邁 250791
邂 100423
邃 88166
還 7387997
邇 14787
邈 15636
邉 1146
邊 2318321
邏 146124
邑 249598
邓 782404
邕 31458
邗 7834
邙 7286
邛 20423
邝 19971
邠 2550
邡 10708
邢 255241
那 30470398
邦 2279311
邨 35145
邪 917748
邬 39967
邮 4696172
邯 145114
邰 9969
邱 393566
邳 22424
邴 3524
邵 330541
邸 88943
邹 245860
邺 27736
邻 1131780
邽 2184
邾 3942
郁 994936
郃 6594
郅 12408
郇 3305
郊 472079
郎 944397
郑 2578936
郓 20383
郕 1201
郗 12553
郛 2289
郜 28555
郝 233396
郞 4536
郡 498733
郢 13419
郤 11451
郦 17724
郧 21905
部 66646224
郫 28107
郭 1594160
郯 11877
郴 72817
郵 1086117
郷 8895
郸 124853
都 58764376
郾 12553
郿 1297
鄂 330759
鄄 10536
鄆 8855
鄉 1091781
鄒 38787
鄔 11347
鄕 2787
鄖 12668
鄙 159262
鄚 1329
鄜 1688
鄞 32217
鄠 6875
鄢 23241
鄣 8717
鄧 120133
鄭 429638
鄯 11039
鄰 265757
鄱 41623
鄲 22957
鄴 10231
鄺 12387
酆 10968
酈 9106
酉 74350
酊 13140
酋 156626
酌 248090
配 20460189
酎 2529
酐 27571
酒 12212719
酔 1685
酗 42896
酚 203590
酝 103882
酞 12560
酢 13651
酣 96527
酥 316329
酩 13175
酪 169515
酬 828490
酮 395096
酯 557999
酰 174816
酱 572720
酵 620572
酶 444875
酷 1621207
酸 43421556
酿 523665
醃 30729
醇 13661278
醉 893308
醋 9135270
醌 8503
醍 15040
醐 12566
醒 3264437
醗 417
醚 105328
醛 527231
醜 74803
醞 29264
醣 44939
醤 696
醪 16346
醫 3489818
醬 250772
醮 11691
醯 19461
醴 23758
醸 1050
醺 35782
釀 133806
釁 30787
采 16971522
釈 1636
釉 205123
释 3403896
釋 770118
里 34843835
重 56942008
野 3905165
量 87019354
釐 43830
金 51905790
釔 7414
釗 16634
釘 101805
釜 194114
針 1076138
釣 115384
釤 7231
釧 13121
釩 15813
釵 13193
釷 7179
鈀 9920
鈉 78139
鈍 32122
鈎 11470
鈐 9204
鈑 18449
鈔 54765
鈕 162069
鈞 49754
鈣 115812
鈦 66488
鈮 3007
鈰 6944
鈴 135492
鈷 15264
鈸 7697
鈹 9744
鈺 32772
鈽 6995
鈾 15986
鈿 8360
鉀 48666
鉄 39942
鉅 47788
鉈 7634
鉉 11622
鉋 1241
鉍 7415
鉏 988
鉑 35035
鉗 35196
鉚 24543
鉛 85227
鉞 8709
鉢 3588
鉤 66621
鉦 7683
鉬 32594
鉭 9007
鉱 1371
鉴 2292594
鉸 22731
鉻 46405
鉾 1749
銀 1738014
銃 9918
銅 305807
銑 37073
銓 19370
銕 858
銖 17515
銘 182649
銚 7478
銛 5624
銜 110755
銣 7082
銥 13369
銦 8963
銨 15342
銫 7229
銬 17241
銭 1666
銮 27559
銳 179379
銷 2823578
銹 173413
銻 13942
銼 10184
鋁 304517
鋅 113774
鋆 4068
鋇 17358
鋌 9135
鋏 7154
鋐 3010
鋒 236000
鋤 17958
鋪 354140
鋭 1775
鋯 13580
鋰 63221
鋲 479
鋳 604
鋸 57138
鋹 1241
鋼 1238038
錄 2003079
錆 6841
錐 57684
錒 7366
錕 8653
錘 64816
錚 17342
錠 36039
錡 9243
錢 1586126
錦 244326
錨 41013
錫 163454
錬 1465
錮 14101
錯 1444983
録 16090
錳 30217
錶 216857
錸 8280
鍇 7219
鍊 157989
鍋 590148
鍍 172492
鍔 55791
鍛 150431
鍬 13953
鍮 671
鍰 28114
鍱 438
鍵 931136
鍶 8034
鍺 14063
鍼 1718
鍾 155000
鎂 60808
鎊 45162
鎌 8557
鎏 20303
鎔 9102
鎖 536983
鎗 3269
鎘 12603
鎚 6384
鎝 236
鎢 23898
鎧 19437
鎬 37877
鎭 9763
鎮 924350
鎰 17933
鎳 38892
鎵 32429
鏃 43983
鏈 739311
鏊 9441
鏐 6025
鏑 7562
鏖 25250
鏗 15325
鏘 15193
鏜 12679
鏞 10338
鏟 37517
鏡 739587
鏢 28666
鏤 20414
鏵 7887
鏽 125809
鐐 23208
鐘 929194
鐙 9621
鐡 2637
鐫 19510
鐮 26784
鐲 31231
鐳 18987
鐵 1346185
鐸 17732
鐺 11808
鑄 191442
鑅 789
鑑 290379
鑒 215643
鑓 478
鑛 1893
鑠 7689
鑣 12261
鑫 896021
鑭 8962
鑰 119510
鑲 68289
鑼 56912
鑽 217550
鑾 23538
鑿 36131
钇 3318171
针 5772238
钉 547774
钊 65949
钍 10084
钏 13481
钒 41909
钓 487528
钗 45350
钙 559430
钚 15250
钛 260669
钜 58219
钝 129337
钞 288544
钟 4578900
钠 284603
钡 59307
钢 7333719
钤 14495
钥 491251
钦 289690
钧 434478
钨 94882
钩 466674
钫 7003
钮 586747
钯 37356
钰 107166
钱 11748526
钳 136438
钴 211397
钵 91773
钹 10521
钺 14870
钻 1404695
钼 71344
钽 19165
钾 222761
钿 13514
铀 48033
铁 7188191
铂 149175
铃 555583
铅 437785
铆 102569
铈 5294927
铉 29309
铊 7606
铋 11376
铌 11981
铍 14309
铎 48906
铐 40390
铛 56876
铜 1562550
铝 1839003
铟 719043
铠 85792
铢 69846
铣 168290
铤 28715
铧 15268
铨 28493
铫 5252
铬 196306
铭 634466
铮 89885
铯 9693
铰 122675
铱 19371
铲 227251
铳 10395
铵 243614
银 10167719
铷 7974
铸 939524
铺 2382863
铼 8918
链 6703935
铿 67029
销 17817187
锁 2794379
锂 839230
锄 47791
锅 2041824
锆 2307483
锈 1661287
锉 34033
锋 2033615
锌 647942
锐 946918
锑 28769
锕 7318
锗 20017
错 6289368
锚 206298
锜 7235
锝 6659
锟 24823
锡 945690
锢 45358
锣 142127
锤 440132
锥 252492
锦 1303570
锭 76395
键 5304834
锯 300608
锰 237756
锴 12996
锵 69900
锶 15240
锷 12096
锹 37113
锺 21593
锻 913497
锽 5128
锾 7366
镀 831580
镁 994179
镂 75938
镇 5914176
镉 46775
镌 49645
镍 261968
镐 51831
镑 313945
镒 11203
镓 169301
镕 27855
镖 137869
镗 32887
镛 14153
镜 2865808
镝 2437390
镠 6824
镧 3975037
镫 9180
镭 46105
镯 69375
镰 50289
镳 25148
镶 248485
長 8374290
长 50754857
門 5039530
閂 8732
閃 324152
閆 15046
閉 577445
開 11948544
閎 9543
閏 18553
閑 197271
閒 305714
間 8896907
閔 30666
閘 98860
閡 19164
関 42799
閣 385698
閤 4338
閥 413145
閨 49819
閩 64414
閬 18556
閭 17016
閱 1326281
閲 33326
閹 14966
閻 31299
閼 7587
閾 17631
闆 269476
闇 20263
闈 24510
闊 203755
闋 8512
闌 18539
闍 9283
闐 8881
闓 5579
闔 23329
闕 23420
闖 101818
闘 1570
關 9792252
闞 7446
闡 81819
闢 33593
闥 7586
门 27602668
闩 10768
闪 1434319
闫 151720
闭 23820893
问 29476430
闯 480180
闰 30341
闱 15123
闲 2102891
闳 12505
间 42682363
闵 126386
闷 449794
闸 509137
闹 1018995
闺 229390
闻 7207210
闼 10658
闽 386698
闾 22574
闿 7367
阀 1791096
阁 912333
阂 60815
阅 4417094
阆 25363
阇 12473
阈 50648
阉 30094
阎 132819
阏 9674
阐 764571
阑 65104
阔 1031427
阕 11529
阖 46628
阗 9537
阙 61621
阚 23655
阜 280476
阝 2203
队 18150661
阡 23701
阪 268303
阮 183396
阯 1291
阱 224806
防 18440181
阳 9419410
阴 2547155
阵 2820585
阶 4718602
阻 3230676
阿 8154383
陀 491056
陂 41791
附 5495353
际 18969534
陆 4945400
陇 145092
陈 5676895
陉 12690
陋 178987
陌 768434
降 13461334
限 24866762
陔 1433
陕 1212501
陘 7431
陛 87113
陜 120155
陝 49898
陞 16731
陟 10927
陡 199254
院 27213742
陣 622594
除 17908937
陥 545
陨 109124
险 15879866
陪 1765200
陰 1014117
陲 32003
陳 1278650
陵 1088374
陶 1986675
陷 2041677
陸 1044877
険 10590
陽 1634265
隅 73779
隆 2394447
隈 7325
隊 2660639
隋 163442
隍 31711
階 842085
随 12678179
隐 3176192
隔 3523985
隕 23715
隗 6812
隘 64443
隙 646551
際 3266357
障 8043123
隠 2303
隣 2150
隧 477984
隨 2515821
險 2022890
隰 5861
隱 1057784
隴 25086
隶 412238
隷 1481
隸 107919
隹 6848
隻 588988
隼 36715
隽 63653
难 13171870
雀 438657
雁 287730
雄 4298331
雅 4012392
集 29010770
雇 607825
雉 26833
雋 18940
雌 209204
雍 182688
雎 12892
雏 170135
雑 2369
雒 14625
雕 1655030
雖 1439011
雙 2366312
雛 33279
雜 902759
雞 714192
雠 7813
離 2262061
難 2449040
雨 4703198
雩 5790
雪 4652301
雫 2890
雯 306993
雰 932
雲 764857
雳 47926
零 7237097
雷 5595548
雹 42398
電 11524530
雾 1234549
需 33206071
霁 48982
霄 174930
霆 257961
震 3328464
霈 14699
霉 537776
霊 2083
霍 924572
霎 41968
霏 38918
霑 4347
霓 79644
霖 231308
霜 708003
霞 723765
霧 265736
霭 20306
霰 14418
露 5913303
霸 1631610
霹 56207
霽 9998
霾 364257
靂 24214
靄 10464
靈 1116424
靑 5437
青 13654476
靓 233095
靖 431104
静 3989154
靚 73109
靛 24223
靜 805762
非 23341537
靠 6440379
靡 234077
面 69876835
革 9334292
靭 968
靱 666
靳 72679
靴 240423
靶 264280
靺 2517
靼 13927
鞄 796
鞅 20019
鞆 615
鞋 2466643
鞍 270064
鞏 84601
鞑 22300
鞘 90774
鞞 2321
鞠 122902
鞣 35493
鞦 6258
鞨 2406
鞫 7256
鞬 628
鞭 393507
鞮 1147
鞴 12138
韃 9671
韆 6637
韋 154289
韌 98673
韓 1158063
韜 24172
韞 7492
韦 683584
韧 495152
韩 4039420
韫 12459
韬 110992
韭 111124
韮 1104
音 13841022
韵 592509
韶 196597
韻 176961
響 2165104
頁 1544651
頂 894037
頃 76410
項 4642059
順 1098254
須 1939808
頊 8114
頌 71048
預 2533028
頑 61894
頒 239866
頓 453441
頗 165539
領 3355481
頚 612
頜 16040
頠 725
頡 11846
頤 39392
頦 7023
頫 11106
頬 483
頭 4292040
頰 64701
頴 8070
頵 701
頷 9640
頸 221746
頹 24883
頻 1261493
頼 1748
頽 732
顆 408509
題 5301958
額 1664824
顎 31057
顏 639284
顒 7876
顓 8316
顔 25406
顕 1340
顗 3266
願 944733
顛 106789
類 3666461
顥 9769
顧 1298218
顫 111735
顯 2443457
顰 8783
顱 31655
顳 9684
页 5650178
顶 4595306
顷 208231
项 25719776
顺 4924077
须 7554003
顼 14089
顽 324644
顾 4797576
顿 2360230
颁 1237149
颂 257890
预 16116257
颅 146676
领 21824710
颇 841413
颈 909502
颉 30634
颊 122482
颌 76899
颍 45046
颏 8929
颐 169782
频 11979561
颓 87798
颔 18965
颖 929543
颗 4804544
题 31292668
颙 8019
颚 69301
颛 14318
颜 3014769
额 9056224
颞 21770
颠 557135
颢 14666
颤 281486
風 4411850
颯 15056
颱 86673
颳 6246
颶 15517
飄 155456
飆 66627
飈 1296
风 23962626
飒 46822
飓 62796
飘 704818
飙 247981
飚 35484
飛 1146295
飜 614
飞 10541739
食 15411711
飡 459
飢 31567
飨 34633
飩 14129
飪 47636
飫 7216
飭 9981
飮 1466
飯 1037305
飲 1094782
飴 9717
飼 156863
飽 335858
飾 1071361
餃 56472
餅 305986
餉 13652
養 2427365
餌 31210
餐 7085584
餓 102669
餘 587561
餚 29165
餞 16024
餡 60930
館 1752219
餮 115688
餵 73151
餾 32366
饅 44822
饉 7724
饋 358829
饌 18463
饑 40657
饒 92028
饕 69677
饗 40367
饥 208545
饪 255891
饬 21681
饭 2490082
饮 3971720
饯 31458
饰 4274551
饱 942021
饲 745610
饵 126025
饶 396502
饷 30004
饺 271713
饼 798129
饿 365139
馀 43177
馅 178368
馆 5240553
馈 1082952
馏 117645
馑 9543
馒 108553
馔 15385
首 18514126
馗 16898
馘 1181
香 11563513
馥 62959
馨 1142189
馬 2562865
馭 41106
馮 94009
馱 14926
馳 120010
馴 32105
駁 104851
駄 2448
駅 63346
駆 1211
駈 466
駐 329511
駒 27852
駕 469154
駙 8855
駛 360387
駝 37886
駟 8348
駢 8130
駭 58162
駱 36068
駸 5699
駿 58422
騁 24669
騎 320848
騏 10650
騒 1733
験 13232
騙 381576
騨 1434
騫 16403
騭 6877
騮 7383
騰 316736
騶 6864
騷 157422
騾 13697
驃 8312
驅 361540
驊 16266
驍 18566
驒 4159
驕 87709
驗 3701520
驚 727857
驛 31424
驟 205824
驢 47774
驤 8623
驥 13922
驩 1966
驪 11207
马 14904992
驭 184887
驮 34127
驯 107999
驰 2448141
驱 2173306
驳 354711
驴 224734
驶 2864726
驷 14268
驸 18688
驹 146527
驺 5171
驻 1895352
驼 176322
驾 3576791
驿 135209
骁 218106
骂 570388
骄 400348
骅 40945
骆 161903
骇 113690
骈 22173
骊 29407
骋 80525
验 17652961
骏 325045
骐 25016
骑 1209430
骗 3466891
骘 5963
骚 554087
骝 7024
骞 71770
骠 10750
骡 52779
骤 744181
骥 44779
骧 9734
骨 3648742
骯 12377
骰 84138
骶 20522
骷 56537
骸 105375
骼 162715
髀 7124
髂 14603
髄 877
髅 48529
髋 43933
髏 14989
髑 3708
髒 102593
髓 417691
體 11179071
髖 14746
高 81517090
髙 10519
髡 10479
髣 1717
髦 245008
髪 6030
髭 4669
髮 1189122
髯 16480
髴 830
髷 485
髹 3652
髻 35605
鬃 20666
鬆 726712
鬍 36562
鬓 41825
鬘 4628
鬚 17392
鬟 30782
鬢 14153
鬣 10805
鬥 334060
鬧 239623
鬨 7399
鬪 1753
鬬 673
鬯 4586
鬱 105333
鬲 5724
鬻 6197
鬼 1475440
魁 207822
魂 1494657
魃 7531
魄 319819
魅 1169005
魇 32875
魉 11164
魋 552
魍 8569
魎 11247
魏 862985
魑 15740
魔 2914932
魘 14498
魚 885891
魟 3514
魣 230
魨 5499
魮 320
魯 394117
魴 7478
魷 19955
鮃 5630
鮄 246
鮈 378
鮋 5571
鮎 1606
鮑 72758
鮒 7214
鮗 548
鮟 1298
鮠 655
鮡 1128
鮨 2139
鮪 18800
鮫 8770
鮭 25516
鮮 952636
鯉 32333
鯊 35701
鯒 5236
鯓 1923
鯔 6670
鯖 12526
鯙 297
鯛 15243
鯡 7733
鯤 12070
鯧 7449
鯨 52361
鯪 6922
鯰 14430
鯱 816
鯵 5386
鯷 5845
鯽 11095
鰂 7429
鰈 7158
鰍 10938
鰐 803
鰓 13185
鰕 857
鰧 238
鰨 6537
鰩 6708
鰭 16582
鰯 462
鰲 15660
鰹 8824
鰺 745
鰻 23101
鰾 11418
鱂 5212
鱇 1335
鱈 12495
鱉 13394
鱒 9531
鱔 10397
鱗 39193
鱘 8448
鱚 1724
鱟 8464
鱥 461
鱧 7429
鱨 5028
鱲 1827
鱵 255
鱷 27433
鱸 12136
鱺 7015
鱼 3768330
鱿 58034
鲀 14895
鲁 2416933
鲂 11164
鲆 12979
鲇 16053
鲈 34365
鲉 5418
鲍 400729
鲎 11729
鲑 20265
鲔 7190
鲗 5288
鲛 14082
鲜 3964711
鲟 26082
鲡 6567
鲣 5816
鲤 132505
鲨 130359
鲫 47748
鲬 4789
鲭 7300
鲮 6836
鲱 8498
鲲 50272
鲳 9438
鲶 38433
鲷 11266
鲸 200193
鲹 5812
鲻 5082
鲽 5454
鲿 4947
鳀 6097
鳃 20906
鳄 117976
鳅 38465
鳉 5699
鳌 125766
鳍 43938
鳎 18464
鳐 8271
鳔 6707
鳕 17425
鳖 44553
鳗 32074
鳚 816
鳝 33541
鳞 179271
鳟 13234
鳢 6688
鳥 374332
鳧 7390
鳩 16611
鳳 266728
鳴 172030
鳶 16318
鴇 7802
鴈 2270
鴉 56842
鴎 527
鴒 5846
鴕 16337
鴛 23749
鴝 6835
鴞 6724
鴟 7846
鴣 7959
鴦 22794
鴨 136282
鴫 558
鴻 186166
鴿 50958
鵄 492
鵑 24085
鵙 685
鵜 11744
鵝 108166
鵞 593
鵟 1387
鵠 10150
鵡 17471
鵬 130869
鵯 6867
鵰 5559
鵲 22470
鵺 736
鶇 7181
鶉 13476
鶏 898
鶘 10881
鶚 8921
鶥 5223
鶯 39538
鶲 5470
鶴 94308
鶺 5625
鶻 9011
鶿 6906
鷂 7738
鷄 12969
鷓 7659
鷗 28679
鷯 6869
鷲 12365
鷸 8374
鷹 104934
鷺 23187
鸕 7945
鸚 18368
鸛 8147
鸞 15278
鸟 1280642
鸠 43296
鸡 2466842
鸢 28995
鸣 942774
鸥 95870
鸦 186683
鸨 13576
鸪 25234
鸫 6757
鸬 13839
鸭 515664
鸮 9690
鸯 52591
鸰 5788
鸲 7456
鸳 56478
鸵 38145
鸽 228198
鸾 39752
鸿 829430
鹀 5524
鹃 79700
鹄 45333
鹅 456554
鹈 43106
鹉 56705
鹊 87483
鹌 26574
鹎 5754
鹏 1185532
鹑 45060
鹕 44131
鹗 15012
鹘 17263
鹚 9735
鹛 6876
鹞 14381
鹟 5233
鹡 5347
鹤 441324
鹦 60836
鹧 20240
鹩 9396
鹫 22759
鹬 11622
鹭 83166
鹮 7117
鹰 601188
鹳 14001
鹵 34427
鹸 534
鹹 82211
鹼 50170
鹽 326102
鹿 861876
麁 886
麂 18970
麋 25195
麒 194631
麓 142212
麗 1126534
麝 53900
麟 389882
麤 3441
麥 427445
麦 1713668
麩 17016
麴 10478
麵 701819
麸 34936
麹 2224
麺 1374
麻 3174212
麼 3503244
麽 417611
麾 44288
麿 2259
黃 1641119
黄 15834272
黌 7720
黍 29830
黎 1791848
黏 463965
黐 2571
黑 10556008
黒 21143
黔 207480
默 2483298
黙 1067
黛 240836
黜 15655
黝 54235
點 8313086
黟 8304
黠 12378
黥 3091
黨 2503531
黯 94757
黴 33740
黻 2815
黼 4421
鼈 3250
鼎 952256
鼐 9903
鼓 3550974
鼠 1193275
鼩 1586
鼬 14544
鼯 2852
鼱 494
鼴 7261
鼹 10797
鼻 1401731
齊 631716
齋 59501
齎 6523
齐 3653272
齒 292261
齟 7615
齡 508336
齢 2729
齣 22322
齦 26484
齧 11075
齬 7850
齶 5707
齿 1153144
龄 2470073
龈 73287
龍 1545935
龐 160705
龑 2319
龔 32819
龕 12514
龙 9026390
龚 180739
龛 24723
龜 207336
龟 393506
龢 6242
龸 2
꧉ 0
﨑 1378
ﭖ 0
ﭘ 0
ﮏ 0
ﮐ 0
ﮟ 0
ﮧ 0
ﮨ 0
ﮭ 0
ﮯ 0
ﯽ 0
ﯾ 0
ﯿ 0
﴾ 3
﴿ 3
ﷲ 2
ﷺ 43
︰ 132798
﹐ 134177
﹑ 140346
﹒ 16700
﹔ 43450
﹕ 44784
﹙ 9845
﹚ 9682
﹝ 96965
﹞ 95347
﹣ 8283
ﺍ 0
ﺎ 0
ﺑ 0
ﺗ 0
ﺟ 0
ﺭ 0
ﺮ 0
ﺱ 0
ﺳ 0
ﻣ 0
ﻦ 162
ﻧ 212
ﻭ 4
ﻮ 0
！ 34789183
＂ 136860
＃ 35467
％ 1493843
＆ 87731
（ 51493105
） 57197005
＊ 61911
＋ 214656
， 1522017264
－ 1206246
． 2311579
／ 1021762
０ 82620
１ 811498
２ 630649
３ 344836
４ 260642
５ 275267
６ 174486
７ 116689
８ 134544
９ 108227
： 178951315
； 43071467
＜ 62127
＝ 63011
＞ 95872
？ 29771086
＠ 19757
［ 219813
＼ 9840
］ 108358
＿ 55637
ａ 73305
ｂ 152709
ｃ 53766
ｄ 37242
ｅ 24560
ｆ 21600
ｇ 24860
ｈ 28020
ｉ 27107
ｊ 23048
ｋ 23077
ｌ 13540
ｍ 34010
ｎ 18797
ｏ 36878
ｐ 25941
ｒ 18494
ｓ 68951
ｔ 35124
ｖ 23941
ｗ 14415
ｘ 33085
ｚ 2942
｛ 11200
｜ 219083
｝ 11649
～ 1269448
｡ 61702
｢ 70633
｣ 71446
､ 71454
･ 75103
ｰ 11429
￥ 187026
￼ 2375
𩽾 4
𩾌 4
𪨶 1
𫖮 6
𫚉 107
𫚒 0
𬀩 15
𬘭 0
𬞟 14
𬶋 0
de 202970
the 545160
in 413801
sa 97238
la 3224150
##s 5668791
of 118891
en 139027
and 147784
##e 2346710
##a 2805283
ang 36729
to 97407
##n 2505785
##i 1895175
el 42413
der 17883
un 171011
di 250027
die 8625
nga 12137
##t 3608539
на 490
on 182650
que 9372
is 168499
se 104090
den 15100
le 62314
##r 3088990
##o 32408854
ar 289156
del 22714
na 69567
##u 937139
et 261690
und 28227
for 40804
was 12240
da 185954
##en 236882
des 87765
an 63760
il 60856
as 228499
van 44097
10 18398372
je 63830
##m 5322110
by 59818
les 19681
es 186771
do 67035
una 5514
nasa 65949
2011 1571856
##y 1928185
##l 3437516
at 130604
al 127808
er 2568899
##d 4695487
og 36579
##es 250852
km 52390
##k 2812737
von 3176
du 39002
11 8583261
with 23603
2000 1883548
con 206126
per 28428
los 10717
°c 1824
##er 780725
##и 2800
av 1125030
med 13999
no 1244344
est 8544
2010 1345813
het 4425
##а 4560
och 2582
2012 2182531
dem 12489
12 12156046
por 22953
he 124152
su 45803
si 115113
som 6486
from 65902
2014 3816714
it 913880
2015 4668871
2007 1285805
20 9829409
species 655
pa 85027
that 27673
earth 9144
im 294621
##na 199873
een 919
##an 330041
ja 61960
han 22018
##ta 168772
2016 4822103
... 0
dan 33612
2009 1361204
das 13790
15 6262183
##te 433196
ni 145796
##ne 264153
ug 33443
va 51604
isbn 10142
2008 1493677
30 7520805
##е 5368
24 5235144
world 44208
2013 2203170
om 69955
2006 1018790
18 5688639
als 9369
mit 46330
his 22341
##у 3825
ka 80261
te 66245
para 22343
ha 40931
com 5421074
за 461
##h 23036980
في 89
como 6678
new 167896
##re 301196
data 216348
une 5640
##da 252833
##g 6395919
em 553125
os 112983
observations 61
14 3506074
16 4658190
au 55250
##us 218950
21 3283437
##м 3464
##c 5169357
##in 824095
par 16374
13 4519735
las 17496
در 18
panoramas 65
viewfinder 304
palibot 0
gikan 0
sie 6461
dans 2219
##on 726315
det 15112
##ni 122832
2005 691599
##ch 629196
##ia 110628
nasod 10
25 5309049
##ra 171181
##de 416510
che 47138
19 2997539
##ing 421400
је 0
life 59186
17 4032888
son 8709
yang 31597
по 776
000 803608
az 26879
2017 6291546
##ja 72968
2004 667317
so 7942384
geonames 304
ein 4321
##н 3886
##le 685343
2001 462827
til 11001
22 3769784
op 319852
се 129
od 71465
nel 1817
2002 581392
##is 322877
##z 1188676
ve 21233
war 22236
##ی 161
milimetro 0
um 39401
ne 47853
wurde 13
26 3333805
are 15071
mas 15486
della 1625
over 41939
28 2486670
fur 10670
database 5265
##os 477736
##ы 1686
##no 32657234
##ti 118246
zu 142763
من 17
september 1272
var 21465
##la 85807
23 4029812
##et 251501
catalogue 1307
ist 9101
2003 727269
updated 3935
were 3242
pour 1221
sur 11584
am 146052
be 136554
har 15707
co 4239037
##і 252
auf 1437
##do 118884
##se 420171
##о 5141
za 80983
org 128395
до 204
של 5
##ka 106187
which 27572
от 245
eine 438
or 114465
1999 399108
به 0
ii 338734
##to 262755
all 98834
##nt 222524
года 7
##ar 255039
bulan 68
this 84380
##p 4749671
mga 3530
##va 140303
##та 1304
27 2014889
##je 20563
qui 14189
##ma 635294
mot 14821
του 22
##ا 384
και 54
kasarangang 0
##т 2143
lo 201581
film 5171
mm 334896
##ed 216952
ou 19924
##ом 1798
kilometro 20
1998 428082
##х 3501
не 453
29 2865201
also 5242
one 130820
##ة 327
##я 4059
##ca 219775
first 63175
post 117936
entre 1168
finns 42
had 34806
##li 133998
sich 665
ny 54001
##ه 205
06 707121
bahin 2
из 168
po 129639
##as 166203
##b 3486929
san 48162
uk 37554
era 5601
##ce 378266
##ng 477740
nam 8737
ed 149419
##ri 65707
dos 26369
از 13
##j 879037
ur 41486
eta 22226
may 21490
во 337
roku 3646
##v 2470928
university 31506
##на 2800
1996 265877
has 60760
nach 4083
trakten 0
history 14064
enero 19
dari 535
rainfall 65
100 7869040
1997 391804
ulan 469
да 149
checklist 907
km² 124
nahimutang 0
red 183778
##ie 634701
01 1851100
31 1911064
met 31981
##ko 77357
το 56
##si 77905
runt 7039
voor 285
##sa 177030
itis 9845
foi 1442
album 2669
non 34078
cc 657157
од 34
john 85424
aus 4815
mexico 1153
system 38249
1633 3531
1990 336830
##ов 1093
##al 224876
uma 6188
bei 25511
download 23933
orrell 10
##f 3539134
annual 1514
her 25019
##ים 70
classification 941
set 72705
their 2116
who 101099
##ה 489
1995 258727
its 27219
trong 1237
1994 229951
este 8178
fra 6115
bug 138413
not 25866
dei 3440
##ke 101925
cua 1672
algoritmo 2
but 29180
##ment 222358
reading 4558
1991 171854
##к 3580
ma 89225
anaa 106
population 471
dinhi 0
bis 16535
kirk 3039
af 85793
ze 46589
after 20177
avec 345
##it 187681
1992 356480
auch 628
2018 8045812
##ي 526
1993 231956
##ki 109314
bourgoin 16
me 67441
yn 17549
bailly 133
roskov 9
baillargeon 5
paglinawan 0
50 5452406
##ci 129890
under 20002
index 447399
для 138
two 16965
##em 87936
kasadpan 0
dat 6679
gitas 4
##ו 78
ser 30021
pada 951
ir 68555
familia 316
ta 157624
##ga 205973
alla 3383
της 5
##ми 793
national 20620
##at 156292
##um 151499
đuoc 54
##mi 224860
та 6143
mais 1559
##ت 470
sua 4705
york 2875
www 3237469
men 30629
##ly 229616
man 248530
fue 4669
ulohan 0
door 3577
した 0
##ς 566
manaden 0
##л 1375
she 64460
time 65490
have 14638
city 64998
##의 36830
kalkulado 0
they 15696
##ba 261834
##с 6436
##ка 1135
году 8
که 2
##р 2394
##ur 190401
land 10597
doi 10401
nederbord 0
את 3
ligger 3
meter 3169
##ge 312157
ya 1729679
##י 83
1989 168816
##ת 189
mai 12806
##ve 137417
##ية 152
american 12888
##za 48967
esta 4600
fran 4494
dia 39054
klima 84
40 4231951
##st 238878
plus 49497
##에 24980
bir 6934
uit 2729
habagatan 0
ان 40
1980 440414
##ات 129
ho 1700349
parte 33142
press 5596
general 12416
ao 76054
din 42576
##ndo 15988
zijn 109
##el 209936
##io 102177
су 271
amb 11386
amihanan 0
##man 165959
ce 2802621
zum 2938
1988 174582
ibabaw 0
##в 5085
http 1076862
april 3538
loai 185
november 1142
##ro 1341977
##ю 2922
els 4469
saint 20573
ini 11060
mao 10985
است 8
02 1469150
serie 1018
على 3
part 35395
##w 2549728
yuta 593
state 29105
する 0
על 13
giiniton 0
hij 484
dell 17787
##ny 51694
kinabugnawan 0
kinainitan 0
##x 4027223
been 2134
county 1044
1986 238371
werd 80
school 8997
1987 151934
international 26146
1985 156891
metros 343
genus 325
978 18046
einer 38
seu 1507
other 8375
nicolson 64
sidlakan 0
ca 231293
qu 35625
1984 159592
united 31478
club 33926
##den 52199
05 910298
sulod 1
##ul 99207
##lo 141658
##me 297115
tu 60307
##ся 583
##mente 4392
##ות 43
dalam 124
ett 15222
come 34345
1970 219093
##ن 545
##ju 42347
ouvrard 3
up 248903
bisby 1
##ten 18857
ngan 261
when 21791
werden 103
mer 11375
cu 88155
mission 5181
##ya 122525
07 1667406
##の 0
tot 6295
model 100305
estado 141
oli 4525
retrieved 198
04 1195534
paris 9816
την 32
##م 463
michael 61643
dengan 84
august 2537
sciences 623
elle 14733
##ла 2980
##د 256
##ung 40310
iii 58416
durch 123
این 5
##ze 51733
1982 129693
1983 134935
sont 889
##ки 508
1981 102575
##ів 49
##ji 91763
##те 1071
был 35
sin 16151
can 61177
##ı 773
##ek 32888
jako 180
##ku 102633
dagat 5
1975 74591
month 6080
sobre 85
##ни 449
##nya 4850
tropical 1050
500 2565344
1945 72071
france 6823
##но 947
juli 1231
zur 3661
dal 5736
1979 121734
us 105445
digital 20253
into 6119
1972 76528
ingar 54
there 32262
##ر 300
during 2049
ben 42393
more 45282
απο 65
##or 215425
till 2148
##не 837
##di 147753
dunay 0
william 36483
60 3423814
pag 3350
1978 153825
1968 61793
delen 63
##om 205278
کے 0
##ak 27268
cac 22106
1960 95017
aan 1090
pero 1383
1976 85915
area 8412
map 56229
pas 9147
maria 17735
##ها 82
##ли 766
##ban 30979
##ow 87187
nicht 162
və 13
ble 18015
nay 2213
##co 474116
december 1915
nella 76
south 15066
##kan 21324
monitoring 2431
1977 73826
року 0
1974 73065
200 2419860
1973 64290
ad 358161
year 14827
##go 455975
##ho 97481
team 34453
states 1833
ng 93370
nord 10206
##ी 53
tuig 663
park 16215
tv 240934
usa 12410
##lar 31140
matag 43
1971 263602
trmm 127
kinabasaan 0
kinaugahan 0
##2 47959465
st 400170
mo 129640
music 15374
iz 12569
aux 7326
climate 1609
при 287
oder 356
later 1095
##か 1675
με 86
einem 49
genomsnittlig 0
nan 35788
anos 199
durante 112
untuk 51
nahilalakip 0
kahaboga 0
you 144155
را 50
region 12092
sind 1393
uber 131254
tres 1548
landet 4
08 1310710
bi 194709
ginkuha 0
havet 1463
थव 0
jean 23876
years 1514
dels 1102
##ts 256662
out 73015
##ان 302
north 18060
##1 6021606
due 7895
ei 73618
sus 53347
paul 47474
suba 1445
anvandare 0
algoritmen 0
algoritmer 0
1969 69208
lsjbot 0
att 31611
hojduppgifter 0
что 678
wird 49
most 7249
32 1091461
uska 6
##ler 56100
1644 8569
adalah 32
##ва 1037
35 1388696
ziren 1
км 20
cover 11032
ki 60233
art 63092
only 17872
koppen 47
david 70873
geiger 171
peel 1515
1967 50331
##то 570
hess 1029
quan 19754
##ha 108422
london 19753
lake 8570
09 1019125
hini 144
three 13794
80 5619176
robert 32297
03 713823
bu 141988
lui 1204
##ren 50215
fan 40337
finlayson 67
hulyo 0
hydrology 26
5194 458
gikuha 0
1950 197623
januari 28
45 3286659
west 24735
##ns 183511
vi 157131
about 100677
##д 4348
65 705436
elevation 638
agosto 38
voi 11605
1962 66020
1944 36645
delle 1352
की 3
band 13202
##을 16247
version 8475
than 5973
##ा 89
1965 82956
ete 3647
##ir 96445
ye 64770
river 6791
alle 2720
subspecies 12
са 137
godine 4
##3 28602315
final 12541
fu 79413
он 144
его 54
familjen 4
oktober 207
1966 63294
الى 6
juni 5257
1964 67831
some 11698
що 40
ban 32681
##cio 11426
ہے 0
##ل 352
##sen 34806
ngc 6389
##sta 34566
##ь 6536
jest 454
second 9421
where 43832
kada 917
lalawigan 2
##cion 4392
between 3371
familie 39
song 13095
inga 1600
##jo 167218
ginhulagway 0
##lla 32928
nu 43288
tai 31608
##0 12522208
1961 55462
და 0
##tu 57759
##nu 26896
как 314
kan 18946
league 3232
series 7166
einen 36
wie 1696
piu 544
или 58
would 2799
ke 58681
ses 14349
##ם 36
1941 43227
washington 5971
waray 8
huvudstaden 0
grand 20576
##ik 25791
nakalista 0
mes 45359
sumala 3
1940 47812
asteroid 227
300 2040180
##های 44
##ల 8
1939 45483
##п 2242
##des 100428
90 2320569
1963 63842
grande 1974
##ria 18384
james 69444
70 2561203
framraknat 0
400 2027457
から 0
##wa 79120
sono 6681
kay 6909
со 408
đo 544
comme 3551
##be 123585
با 44
rehiyon 5
peter 40956
##ter 161427
charles 25279
made 16178
hans 19753
rio 10897
high 64598
ved 932
##ou 90860
##да 509
slaktet 0
میں 1
##न 87
him 6400
pro 191202
company 15517
tahun 87
##am 139209
##ма 791
millimeter 1486
anche 113
##ine 118185
group 27558
division 1239
eller 418
kallaste 0
kwadrado 1
##ky 58301
##tes 39807
varmaste 0
arsmedeltemperaturen 0
blev 110
medeltemperaturen 0
beskrevs 0
deux 414
##rs 168013
density 1212
##년 12249
bronnen 3
vun 273
george 26807
ab 181999
##ը 15
##г 2572
district 4281
##ben 42302
او 17
##ske 4931
##ти 534
ano 9160
underarter 0
forma 3069
1958 111105
33 1579047
##tion 314972
##ski 34964
estados 60
đau 103
された 0
vom 667
nguoi 236
wurden 11
године 2
noten 198
day 43490
##이 53848
modis 1636
##ен 257
##cao 22000
referenties 0
bo 48475
hapit 17
nie 4039
then 36139
gran 7078
##ers 118669
##ov 28029
##4 12620624
place 11776
1956 83084
nalukop 0
##un 109012
##ina 70421
ook 1286
dapit 0
sao 10161
tour 23731
long 47554
đa 3708
##ра 741
1959 68244
listade 5
34 665940
air 150674
##го 1497
और 4
tien 1807
cette 136
genomsnitt 0
best 44115
america 2917
przez 1
1943 32233
torraste 0
arsnederbord 0
regnigaste 0
my 205735
36 2079971
sebagai 5
##ssa 24898
love 62380
gli 8212
sud 9968
##ry 201530
born 3055
li 164902
##от 1207
unter 462
such 11171
india 4516
invanare 0
union 8246
##gi 70634
kvadratkilometer 0
నుండ 0
1948 55628
used 2391
solo 19875
##ł 352
##ste 34173
house 34841
pe 329002
##ب 228
##zi 56820
1942 41982
##ных 344
##ic 200956
##que 37220
1957 63564
radius 4705
##ska 5669
central 10184
nahimutangan 0
hoc 5972
radio 10902
##는 21035
hat 53127
##rt 137850
lungsod 127
1930 136239
known 1404
1920 65588
##il 135228
ci 138599
ten 53018
rock 16009
tanan 35
1954 56895
dhe 2155
##س 355
gihabogon 0
kinahabogang 0
##land 82177
##ion 180474
англ 20
unidos 52
seine 560
family 253082
berlin 4187
##ן 69
museum 3004
##ot 169677
00 2667849
dass 1413
name 109159
while 12903
##nte 16844
tawo 15
guerra 111
bat 82601
people 9702
pakigbingkil 0
will 29955
sedac 32
##ो 36
society 1992
τον 20
tra 16873
martin 17079
ko 51349
average 1692
##و 233
vor 4792
base 19340
##dos 10129
1946 86803
##ok 68584
να 45
naam 328
##mo 234549
##скои 299
##ig 31498
college 6530
president 2452
##ista 4513
1955 66845
##nia 15196
てある 0
##ita 21671
iv 74159
santa 10392
care 14380
##vo 62293
many 7864
##ного 311
1938 47149
का 20
کی 5
thomas 26945
pod 17826
lan 43715
cho 20861
these 12734
1953 150653
zen 44258
##ton 85704
dit 7009
##ut 52755
nacional 160
##র 245
bij 1820
##ii 78378
ai 900530
##res 62936
july 3009
1949 155137
1918 35728
through 7472
information 7299
season 3107
1952 68443
egy 314
british 19439
kao 9681
point 16313
הוא 0
merupakan 4
hoa 3173
##ר 63
##id 347791
##ն 57
##zione 519
но 279
##les 68885
##5 5547498
від 17
##ии 884
single 11433
ile 3540
richard 29755
oxford 5203
44 1304794
canada 7707
via 18138
##нои 345
we 247877
##das 26208
oleh 450
یک 5
1947 46555
##nie 21785
any 19545
##ica 20930
##ш 1077
после 50
1936 41021
age 9977
march 3791
##6 7278696
đong 460
well 35051
desde 175
##che 60342
38 2724036
##ні 64
june 5151
thanh 6598
inom 102
go 222432
game 145234
mar 57087
bien 1597
として 0
metro 15420
prima 3206
cm 487322
live 93815
east 18057
##ken 26508
##ского 196
public 50236
ning 8979
που 5
には 0
##nen 8259
being 2957
##ea 97074
##त 42
##iu 21038
sau 6037
apres 451
records 1342
them 19198
noch 399
στην 0
mars 9849
niini 6
before 6939
became 391
1937 55294
37 1340663
soort 6
των 7
pp 777175
including 8519
##ку 680
nao 12596
һәм 0
##은 16068
##가 33856
creek 523
##ol 144677
video 47346
village 3234
##gen 40982
tambien 73
original 11308
एक 9
waren 131
sein 712
##ين 99
##berg 34107
provincia 341
1951 49458
show 94483
##ի 65
indonesia 1441
europa 6588
number 8483
koji 1046
top 341295
cerro 405
vol 27505
jose 8581
##cia 52888
home 89800
fa 73557
social 19450
##га 1252
##ty 293035
dr 154106
##nd 161003
island 2936
total 17417
october 1379
jahr 114
ut 74317
##vi 135492
oraz 117
service 136009
##ан 1249
black 67380
година 90
football 3809
end 62596
both 9762
against 756
star 42782
eerst 0
##로 13476
cung 531
##ner 62710
также 78
award 1313
hadton 1
##ои 833
station 2396
##th 260882
ali 69855
насеље 0
42 971291
list 53760
nhung 338
##ныи 480
won 3706
populasyon 0
four 10858
##7 10510763
stato 304
uno 4544
1933 39536
##he 442396
re 174084
nur 5960
як 6
thang 2157
january 974
##nes 28539
##lle 31205
media 30299
census 330
roman 3445
##ning 39857
ex 257716
densidad 0
sebuah 0
hi 154571
64 1273255
##を 0
##ada 29257
local 30693
##ल 45
##ون 129
48 1792707
times 89069
italia 1098
center 46649
σε 32
1935 41257
fost 354
են 0
##ہ 71
king 33516
##ে 138
open 128394
39 2217686
को 5
под 254
modern 8105
1934 34396
##ные 447
##に 0
ఉననయ 0
στο 15
festival 8886
سال 58
για 1
де 2880
1919 43016
andre 24980
work 25177
pay 111978
nos 17104
since 7441
seit 501
sakop 0
vuonna 0
##ל 156
##скии 430
sidlakang 0
##ს 16
##న 10
kilometer 65
suo 11233
##ado 10185
nombre 13
##so 173039
през 4
1914 31217
century 4233
dalla 265
##9 5349455
byl 750
sous 1703
##au 41714
##ble 121892
what 84529
amin 1964
##nde 20068
if 231447
volt 2150
ては 8
radie 216
don 19259
like 25980
##tt 125769
fait 115
centre 2544
louis 41534
premier 5339
##한 19923
ale 15311
##ant 24359
41 644638
##vat 3582
nom 9889
dopo 2813
##8 8431835
1932 35403
1929 41115
その 0
##ida 17270
ubos 26
nem 5711
##र 98
##ll 135769
lac 685704
hasta 264
tre 15860
commune 1199
43 520056
55 2249090
1928 47713
##zo 36021
##q 2447131
major 11501
espesye 0
hogy 6
real 37317
##lt 148409
##lu 117358
casa 6679
##ть 881
primer 1233
kabanay 0
##は 1117
until 1596
however 4879
##cu 115574
joseph 15096
hun 5804
##der 91039
historia 135
ειναι 19
chi 68485
اور 2
##них 93
##ски 178
line 298733
cui 8476
wa 117907
1917 28763
47 534287
royal 17521
600 1211466
gia 15916
ont 10373
government 5730
##ə 781
##pa 357244
##ית 57
1931 44782
##pe 256516
##tas 15359
75 807217
cup 11953
##ز 175
##ent 78045
##mento 11323
abril 76
early 3826
contra 1011
ogsa 85
association 2739
encyclopedia 270
ay 22147
##len 33737
vao 229
pri 37971
naar 104
deze 565
ఉంద 0
##ite 90676
τα 147
seiner 21
take 15331
##are 50426
komon 111
gilay 1
talagsaon 0
itandi 10
now 38399
1924 26952
town 4000
была 10
roce 422
##ist 58482
עם 3
sowie 34
news 52127
##з 2474
cong 17672
worden 106
ing 25514
##य 49
##ца 227
##를 8382
gepubliceerd 0
области 6
және 0
wetenschappelijke 0
##ა 79
عام 0
1927 38461
##と 0
##du 126082
california 6256
đe 1847
##ad 284399
して 0
white 102975
zwei 474
main 24843
program 9853
science 35498
vid 5957
thuc 1545
sem 45144
spesies 1
januar 44
gada 233
##nych 308
geldig 1
hill 7645
niya 308
hall 7249
становника 0
1922 28762
1925 30160
pierre 11407
back 25418
kahenera 0
1921 41652
ia 76425
power 78032
1926 28490
zeuden 0
sul 6323
##ai 112806
52 532810
##нии 286
hatte 166
го 640
##by 246854
##ش 207
site 55227
anni 1779
sistema 276
##hi 186772
##ger 108392
meg 10196
anno 3790
kinadul 0
році 0
primera 646
dakong 139
46 616664
51 1284567
đoi 177
last 30845
china 191853
gihulagway 0
jahre 12
##ದ 3
released 522
aber 2568
кхузахь 0
same 4352
1912 36119
juga 110
wala 335
##ス 0
##men 42874
based 15141
kingdom 3879
గరమం 0
called 3207
있다 21
##lich 2685
sig 16135
party 36955
patag 1559
##mu 45610
1923 24122
کا 12
##ck 220538
dar 15148
seus 436
fc 152053
partir 53
old 25731
bagian 3
siak 215
february 793
##nik 6346
ra 86648
то 195
karon 358
pagka 16
following 845
ga 230943
nalista 0
##ным 220
ville 2945
provinsen 0
кӏоштан 0
natural 6447
##ien 8364
cd 395348
meme 5687
played 281
australia 7205
journal 15929
##zen 41902
został 0
##ны 280
##ies 579192
している 0
49 1311672
nun 1697
##ian 64542
book 117649
было 11
italian 1030
##ischen 201
diese 98
principal 53976
rader 111
##ия 305
##ная 271
khoa 47
thu 9999
##ло 387
tinh 8166
##ert 30274
several 747
ду 73
##ст 690
law 9565
##에서 6163
etre 667
zwischen 38
henry 14094
1900 82609
stanovnika 0
##ere 24039
mi 155934
800 738321
1910 33582
##son 140145
ic 718461
quando 178
##ন 121
దూరంల 0
##ana 70481
cap 36964
young 18844
lang 19236
56 509650
##ում 39
english 46212
khong 4139
church 2583
dieser 29
see 40666
##ach 31677
antonio 7287
1913 22552
##ు 4
οι 54
hon 9177
##ire 34390
nome 5020
tri 38231
vo 56083
cada 1119
##ron 38614
##ische 1098
##idae 1068
naselje 0
##ке 210
culture 6131
54 1137510
##ᆫ 39400
premiere 5752
kini 211
pentru 24
był 0
italy 1505
bay 11974
smith 10494
great 16979
khi 1689
ikke 11
время 20
jan 25191
##ко 283
اس 57
efter 38
##ura 26576
women 10890
juan 7952
##ι 3009
##еи 493
vez 269
net 374226
niet 255
были 45
numero 498
off 42053
form 21261
eines 202
##ru 40655
enligt 1
ಮತತು 0
insee 810
##ет 484
februari 24
research 12611
director 3226
nje 187
use 16553
дар 11
opera 66757
small 61938
##ع 182
etait 30
terrangen 0
namngivna 0
former 1103
degli 49
##ک 46
##ف 133
##bi 72223
wordt 302
habagatang 0
##て 597
routledge 339
each 5893
1915 24584
madrid 1609
nei 9589
television 503
##ের 70
punto 248
role 10708
pais 639
##ted 153886
roma 2651
bbc 89319
cambridge 6776
ngay 154
##ды 228
narheten 0
death 3499
street 5964
web 484855
##ну 177
##ini 72724
vat 8765
fin 26342
150 962519
##ud 22783
nova 37653
##ata 30067
ans 36538
country 9677
##sk 31350
england 1345
marie 9849
water 16715
سے 0
izd 117
التي 0
што 4
коды 0
play 59469
member 8817
road 7040
leur 329
europe 2170
đen 154
maar 172
dont 4422
##val 70291
##rio 37282
##ನ 9
wat 5411
record 10434
etter 290
japan 22954
hai 24635
##ige 4911
واقع 0
53 1021717
jeho 275
##ри 360
depuis 35
##으로 8961
bungtod 0
##im 90229
nog 3321
##rd 74855
1911 32509
regia 66
ਵਿਚ 0
kasadpang 0
norte 805
marine 3021
tom 70502
84 272440
так 50
##ле 492
климат 0
production 3839
##cht 11152
myos 310
##dor 12863
christian 14704
vida 2755
daniel 21517
##ene 14039
punkten 0
order 16739
عن 4
село 7
found 4128
mei 34969
little 16025
##bo 505253
pela 675
##nin 17455
finale 584
atau 64
olan 283
mark 67898
700 865466
zona 478
pdf 254672
debut 292
према 0
##ley 54226
1916 24454
hogsta 5
58 2821369
prema 706
##tte 15591
##му 805
centro 966
augusti 9
francisco 2433
kabungtoran 0
special 11579
57 513786
edition 3608
ele 12033
olarak 3
seva 594
##ம 41
##ych 12573
kunze 23
kg 130402
##ks 89650
τη 20
donde 226
utc 29987
jo 33356
tambem 33
эвла 0
saison 162
tidak 43
بن 32
##он 699
capital 10653
pre 71169
tan 21393
wever 31
##ling 52650
##ے 44
culham 14
office 117349
popular 2839
side 11478
##क 137
1905 36471
present 1655
xa 26235
ciudad 407
1908 30361
##υ 2472
مع 22
cuando 75
##ları 96
##lik 4094
musica 1410
##ار 254
##ник 197
internet 221053
sentro 74
же 97
third 4700
59 1143177
five 7247
good 38133
frank 20049
games 10423
fr 80035
##sti 16822
##ova 9343
##ran 96759
omgivningarna 0
この 0
thi 14043
nell 1063
kondado 0
big 92919
##б 4232
karl 12886
1907 26411
برای 0
##য 95
itu 12107
thuoc 259
insecta 86
studio 16968
fut 4776
##chen 54643
night 7191
gegen 68
##கள 12
development 2779
project 34714
plants 844
##era 32182
##dae 6769
stadt 360
februar 36
near 3492
##ier 26286
nr 38241
online 60325
##ова 201
##ון 36
down 15125
بعد 5
province 5441
jahren 5
##ej 4353
##nda 18903
around 1763
phan 3431
grupo 478
institute 3220
ong 3485
ky 52833
xix 2683
##ice 79321
force 10514
ainsi 105
##gan 45478
berg 3866
pelo 383
##са 923
european 7620
manga 1948
french 5025
τους 2
##स 139
uz 19446
eds 7014
##ق 182
western 13569
animalia 2318
located 868
شد 0
eerste 48
##ven 31539
six 7905
just 33239
налази 0
##tor 113208
##сы 169
ersten 27
##ius 14233
##ס 35
noi 5311
onder 82
##han 85788
بود 0
german 2542
andere 33
##nje 2282
ces 56363
way 29123
また 0
120 2777755
##lan 60407
1906 21705
nad 7879
##க 52
иого 0
alors 231
held 620
jego 283
championship 235
mat 318788
هو 34
було 9
##ى 1775
professor 1839
1904 36242
##° 224764
story 9059
1909 24018
ili 8135
another 4214
adolah 0
##gu 51183
##tus 12028
large 9421
began 738
##ee 131875
##ד 73
##ская 292
children 4513
##zy 66030
jr 81536
left 41702
because 4905
army 1474
##ци 380
був 0
asi 43185
arts 5611
ac 986725
pebrero 0
hunyo 7
telah 12
mae 6180
havia 13
families 212
edward 13146
том 6
като 6
год 99
awards 1138
autres 48
ingles 95
primo 2278
##ја 488
##ב 96
##া 182
aussi 1001
95 1375967
zeit 920
lee 33115
novembre 8
##ux 63344
didziulis 0
unha 350
##cy 147785
decock 10
lors 128
abucay 1
##과 17056
control 15237
##cie 14245
named 1269
##ц 3787
ایران 3
##bu 128850
far 19936
भाषा 0
##ui 106521
bang 15250
trung 1073
africa 1525
85 1673659
bio 97962
match 12952
menjadi 14
sy 103424
comuna 715
##ами 74
mayo 2564
prix 697
##ei 113896
##сь 289
dam 7888
##ин 609
xx 297777
services 5448
##lor 22323
liga 1864
##ano 31994
global 42205
onde 1328
sen 14163
mu 106523
населения 0
##ła 130
desa 1143
id 819248
kom 3599
alexander 15943
62 1136637
##де 476
##ರ 6
##dan 35236
ils 3130
presidente 273
angeles 477
##ique 11569
poblacion 17
##다 21643
building 5071
mayor 950
##ın 165
##도 20008
did 11957
lugar 75
tim 80920
##ker 51125
field 84708
##nak 5030
##ці 76
banda 7523
##ue 125231
иогӏу 0
names 11162
moi 4351
super 87864
reference 10463
88 601893
carlos 6574
##tan 39470
ez 38494
tam 14306
seg 7833
##ска 222
bureau 1196
bukid 28
plan 10236
word 336874
sto 23976
simon 16256
episode 1424
72 1491107
lai 19222
could 1714
tempo 2845
mort 4572
disyembre 0
##고 27281
anna 20212
בשנת 0
دے 18
dla 2139
##ting 69165
að 5
##ч 2290
col 12186
mountain 4057
vu 19439
##ato 17173
##ua 56349
рф 36
ba 84728
education 3818
км² 0
court 4345
юкъа 0
fire 27649
এবং 0
built 1804
##క 7
##ego 6485
##ques 35240
within 2030
cerambycidae 12
egalement 19
habitants 1
##tar 54594
గరమంల 0
это 226
##ija 2709
250 565355
पर 18
segundo 103
iki 2088
##ور 66
said 17781
##ls 139809
type 106017
##ции 811
despues 59
essere 20
drei 394
##tta 18698
civil 1841
##ок 639
jedoch 6
head 48371
theatre 853
##we 102142
tubig 23
##dir 38120
##liche 490
position 12060
их 31
ket 5894
ordo 532
francais 286
##jos 9225
##zioni 576
##이다 3675
books 7927
partie 17
chinh 247
binon 45
ela 6394
durant 2466
brasil 321
lam 25975
##mann 23227
viene 8
ich 11781
quoc 216
barcelona 1694
86 1252086
##ди 592
##ville 16176
##ական 35
iran 931
sea 24574
##ப 50
nhan 2656
took 601
82 4183618
leta 1579
nature 31738
mentre 15
##је 79
lanaw 65
segun 55
siecle 27
66 487506
##יה 32
carl 19009
along 1812
##ᆯ 35841
이 28725
coleoptera 94
##ido 10575
latach 129
##ском 146
volume 4401
friedrich 2129
##ты 1088
department 4714
wahrend 53
mary 20752
##su 165713
atlas 15143
deutschen 43
oslo 1514
1903 23111
published 1087
россии 20
adtong 0
##ның 1
##נה 29
99 867566
zo 28134
let 39968
diptera 47
##ների 6
tren 1733
business 29618
##ン 0
million 1515
bad 11566
huvudsak 0
63 360845
habitantes 1
היה 1
mens 2233
pado 186
##sch 46933
##jen 16614
էր 0
etwa 53
67 433220
still 4115
første 0
blue 48305
beim 377
joka 107
human 10086
medyo 10
brown 8158
##сти 479
پر 18
santiago 1370
apan 505
دارد 0
या 1
##sche 13882
され 0
mal 8878
council 1656
##burg 10883
##van 40081
planet 17131
1000 2130752
##də 32
members 12508
##лі 115
یا 1
anh 3000
variansen 0
denne 185
questo 76
gamay 234
temps 169
где 107
##ש 101
famili 36
trois 239
ηταν 1
через 17
##rat 15987
об 374
96 643654
##ane 24111
##ј 124
saluran 3
orang 364
car 78204
plant 4493
free 97508
epoca 45
player 6881
##ang 99912
italiano 148
tem 6867
1901 22999
community 4933
very 11738
##ק 45
##kin 32520
61 440431
terletak 0
##को 20
federal 4353
teil 77
nhat 4445
##nim 2731
puis 61
все 118
dung 1759
##하는 9290
mereka 7
piano 2285
##ros 36203
hadde 9
pel 3295
pop 80325
жана 1
##서 21460
diakses 1
costa 6529
##ico 35594
jones 5463
81 2302152
kuh 652
nha 3887
segunda 66
##ret 37759
jack 38584
97 2202616
##ње 19
##ð 529
own 2688
##ris 34901
otros 7
dai 24034
tym 953
green 36419
regional 1529
gan 41221
##ства 299
##ат 242
ссср 12
vers 840
اے 0
היא 0
два 37
1902 26633
98 1265183
##ove 26318
how 37139
luis 3367
obra 135
##є 145
received 833
pays 1388
dort 203
ter 11999
todos 547
68 385809
sant 1127
byla 579
##lichen 394
83 378734
loro 858
った 0
zich 321
##ای 53
ihre 27
served 109
كان 5
bila 2183
##ك 404
1890 20341
##मा 19
##ం 6
##ao 87500
etc 151284
##ер 625
##ye 106056
metal 8628
frances 1416
mundo 347
されている 0
##pen 40724
того 1
##త 5
##ند 107
ее 32
nhu 9226
chicago 3821
studies 597
again 1819
indian 1558
##use 32160
һыу 0
satu 957
живело 0
לא 7
departement 41
fou 4011
##dy 94521
mehr 797
##jas 6261
texas 3334
sam 54071
fueron 7
##gt 94373
76 481945
heeft 36
pmid 287
đai 1527
airport 2797
##ima 44020
kann 849
kam 5880
marco 9611
lat 9214
##ು 11
design 19651
hier 1547
##ף 10
marzo 534
nas 64772
include 9932
93 2088748
sonra 0
eu 1576026
qua 8959
francia 215
meer 1102
hien 1839
про 6244
##اء 28
населення 0
##ade 18368
amerika 45
late 8361
led 1057632
78 333430
bank 15947
גם 1
academy 2301
##ర 8
##ile 37604
fort 10330
##nas 17716
##ara 26500
nalazi 0
##nym 1231
##ಯ 8
esis 104
##ise 21925
##ح 99
important 8861
му 65
spater 8
kelas 33
##ન 8
espana 306
bao 32806
periodo 146
хуьлу 0
dall 761
92 1174901
universitat 1034
##ari 12833
wieder 74
tout 2030
##nek 1702
##rum 29036
albert 12707
##म 108
those 1358
##ure 60197
sang 6057
tak 3801
stand 7630
##ט 51
died 739
jej 866
spring 66769
##인 15904
ما 16
па 133
також 0
##ში 5
vart 457
##tti 16254
tiene 202
##లు 0
ktory 1
##ем 787
##one 157206
todo 4940
magyar 164
71 283268
buvo 8
make 26581
##ation 52095
antes 72
website 5280
case 23612
він 8
##ino 34879
ва 205
##nja 2557
##ity 132246
##గ 3
yr 6630
како 27
dette 0
engleski 0
73 381715
taxonomic 15
висини 0
##nih 915
74 392085
77 478454
##ою 24
williams 12408
##ль 639
ایک 4
##uk 21007
filum 2
musical 2277
route 19147
##nej 887
##ського 2
##하고 8389
class 146283
##ಕ 10
port 18476
contre 146
space 119996
haar 835
asia 23864
##ния 221
although 4330
##leri 936
sido 374
надморској 0
municipio 67
91 2435397
##іі 39
1898 28124
pristupljeno 0
##ului 52
##cji 351
##와 8231
##ate 54343
##lin 88220
##ах 174
mis 19170
hotel 32153
هي 4
lost 5658
annees 23
##ᆨ 38691
насељу 0
walter 6205
##ство 306
##α 19189
argentina 460
vier 343
economic 3203
romania 848
magazine 2480
##ого 317
arthropoda 104
##sten 6560
буенча 0
##ء 124
##했다 2972
premio 173
##ную 221
minister 221
69 363769
dvd 317086
political 1717
##mer 58807
над 40
ti 146441
##ি 171
nueva 289
##ие 350
##lis 51559
бассеины 0
avant 2650
your 26227
body 41737
ottawa 991
##sky 18279
arte 22981
round 7637
run 28618
##ном 164
час 0
lain 613
##ских 157
ako 2996
##지 33133
##ג 44
citta 791
87 2094575
областан 0
##lig 12915
ara 13032
900 260582
##issa 2850
לאחר 5
1897 13366
sir 38713
ate 7926
στη 2
cidade 49
especie 8
##ah 45876
1896 15785
##ver 194196
even 4373
points 4278
される 0
##ceae 1365
##ν 1560
language 11300
##ія 68
##их 215
thompson 2137
##ber 82813
face 131954
max 143943
heute 30
sai 16265
##ele 46803
father 1813
wikipedia 36817
peut 292
volta 1155
kun 6346
act 48477
1899 18792
jsou 689
victoria 12074
koja 53
си 403
89 981666
icin 1837
villa 11571
israel 3145
eshte 2
among 1380
different 862
full 26132
marupokan 0
tambe 41
mr 147026
latin 3027
according 11002
johann 1865
jusqu 38
##iert 514
##ன 25
##ф 4636
1895 19302
##ena 17006
##ני 47
ende 1428
windows 580801
importante 8
##ח 77
tanggal 7
##zu 52811
##ج 132
tenia 2
right 27698
chung 4633
##ito 12371
##ड 34
article 57813
next 42739
seinen 5
але 34
மறறும 0
jaar 120
##nom 4937
##ksi 3524
##ਾ 14
politica 18
caso 1813
gold 20614
days 4260
##ју 27
title 382704
نے 0
review 13296
##nti 29488
chu 36908
anys 771
##nce 134311
monde 2156
##ive 47205
comune 389
wilhelm 1203
аса 14
##bol 26535
munisipyo 27
##nis 15540
ਅਤ 0
taas 281
##og 117861
tva 3807
groupe 657
distrito 98
wo 49097
store 14978
као 4
twee 5257
има 3
شدهاست 0
انگلیسی 0
werner 1748
##ту 317
##ите 244
fine 11698
equipe 110
##sel 25238
terra 6211
seinem 4
##aan 3925
dove 2771
ilə 1
kayu 221
під 5
##ms 231472
iucn 5053
نفر 1
jak 2558
##inen 5520
##하였다 4344
election 400
थाय 1
##ais 8688
bill 24558
боиынша 0
##ys 127985
##ա 110
##ня 303
##ল 96
##ham 58815
military 1843
habia 47
અન 0
##ев 496
southern 3642
forces 370
##ж 1391
ju 99530
79 281735
94 287899
##ის 11
நாள 0
##per 205272
causa 385
##ә 87
light 30868
guerre 45
##coes 451
##mas 40847
##ono 26075
northern 2878
đinh 670
дәүләт 1
australian 2991
short 15967
##ona 30429
##ена 973
држави 0
bet 473326
much 2030
leon 7597
min 109216
agus 319
##age 56484
collection 6715
once 4582
1889 18272
mount 14341
theo 21561
##vu 29677
ਦੀ 0
internacional 114
network 16386
ως 9
tema 656
lu 431812
دی 13
tal 5716
included 697
##wy 34854
##ге 197
tanto 235
בין 1
venne 37
luc 107064
які 6
##sko 22785
##ят 254
jacques 4175
##ici 12525
ari 11225
html 887601
periode 32
##sia 20265
1880 25629
##ル 0
або 6
dies 632
support 68351
##pi 141087
##ով 9
fel 4833
suite 2081
titre 70
##ore 48768
copa 2558
oster 1365
lasang 3
##ras 24150
izan 166
општини 0
sunt 2957
##yn 68091
হয 0
110 477940
mindre 51
grandes 393
була 4
##ित 15
ידי 1
##vel 87479
course 21316
style 91867
mundial 18
liegt 4
##ट 20
cultural 1914
##ᆼ 38882
bereits 17
##ர 32
aastal 1
сахьтан 0
germany 3618
hy 58577
takze 2
plaats 5
level 50594
hay 6075
plusieurs 21
nelle 106
украіни 2
lokal 95
##ि 55
official 3883
pedro 5797
sans 29400
scott 18061
##lı 179
##מה 18
##ds 243846
register 6123
##ium 37062
лет 31
secondo 142
##ین 45
fins 1052
թվականի 0
portugal 374
films 854
##sse 19336
truong 361
після 2
##net 186676
1870 15350
board 5538
tras 1967
dezember 15
##лы 153
francois 4693
ilk 484
##ді 19
сша 18
kabupaten 14
republica 2207
municipal 237
మరయు 0
often 551
temporada 10
departamento 59
lieu 276
zuen 12
##ын 109
report 7484
##lia 41740
erste 93
dann 503
##ға 4
thoi 837
στις 5
##нда 54
quatre 590
ildə 0
ray 49568
vice 4741
##ati 14314
movie 7123
date 33972
partido 430
kanada 112
који 0
juo 319
histoire 241
##ை 12
code 143717
storre 7
##сть 242
adam 15908
parti 1759
bas 23332
konnte 1
بين 1
poder 77
##기 22499
god 15084
##kt 43763
##кі 85
τις 1
cual 281
using 4310
савезној 0
summer 12696
puede 45
presente 5
без 60
##ता 24
alan 16146
works 13414
standard 9110
##ல 25
##ых 193
sport 23370
instituto 292
eran 579
امریکا 0
nuoc 198
joe 23279
construction 1372
сахьт 0
##ᵉ 14
students 1396
##let 59549
career 3065
vii 5600
songs 1183
sia 8817
##या 23
marz 784
три 61
described 805
tersebut 1
get 137815
##ության 9
period 1490
minor 8038
##ford 33537
1886 13658
பாரதத 0
front 8354
nuo 1756
scene 2548
action 49310
isang 70
kabukiran 0
##ide 61678
viet 2972
역 376
verlag 138
race 3569
##tet 7846
1885 11610
ին 1
1894 12697
vien 967
wilson 6652
##ам 221
##ves 21513
##isch 3362
yo 58251
##het 32777
수 4359
##ira 10286
zone 8370
ovat 549
کرد 0
police 7779
##mus 67375
poi 7787
deel 100
##נים 22
monte 4726
without 3298
##chi 77862
tro 8071
koje 38
##스 8337
maj 6414
areas 564
harry 13017
##uri 40902
##ges 30769
battle 13381
индексаш 0
material 6931
deutsche 2891
ham 42918
които 3
vaxer 0
μια 17
##ক 244
##od 110984
##kom 6250
1893 11603
##ft 185709
eo 37762
meyer 1705
או 18
более 27
కందరం 0
1892 13570
tipo 687
sol 12484
pagkainila 0
##fa 248214
sub 69034
1891 12710
##ring 44713
թվականին 0
qe 32102
ultimo 296
بر 39
alto 3343
qual 15842
gemeente 593
##τα 228
##ত 35
utan 70
hilabihan 0
##ць 36
##igen 4452
которыи 75
буиынса 0
##ال 1930
##rn 127671
میشود 0
##schen 1062
##ներ 11
##ungen 390
شده 0
sulla 307
ktora 5
##iva 9820
##ಲಲ 3
avril 813
между 42
##ಗಳು 0
thuong 2060
seka 618
نام 3
##وں 3
roi 13722
nakon 8
##ام 109
може 0
miles 5231
##ное 210
خود 0
##ani 38700
ihm 630
##يا 121
انگریزی 0
человек 29
columbia 5054
deutschland 372
##ча 218
sempre 67
trade 11674
labing 12
##лар 62
xviii 204
dien 688
centrala 668
library 7163
##ം 13
guide 6378
она 43
##bar 100826
campo 580
beste 609
##las 13454
нииса 0
bestar 117
gant 1966
manuel 2051
kim 30237
подацима 0
##ong 99474
русия 2
thong 1427
moved 1020
##ию 296
sitt 298
лелаш 0
##tos 31324
##ト 0
rang 3946
130 292837
1888 23689
ktore 7
cao 54030
##ային 12
किया 0
ihr 587
xvi 6341
otto 4617
nationale 720
prince 9568
були 1
aquest 69
##iem 6431
hvor 12
##ens 21699
aquesta 1
는 5344
alta 5891
##ende 3044
født 1
similar 1603
vattendrag 0
##ськии 15
health 12244
##ala 23586
##اں 16
mare 1644
تا 74
hoi 1731
ag 461449
##య 8
kot 9114
##able 37445
##ша 297
nebula 1567
empire 3260
lord 4816
master 63348
never 5535
##eg 56617
jorden 18
hop 10942
square 18047
##ο 2121
##tic 37067
jackson 7805
selected 10615
etats 12
tous 4022
##uje 571
sports 19987
##ese 87274
##ната 21
##ser 176729
##ete 9659
php 301254
rei 27106
fino 885
елга 0
##цы 112
bol 2052
vita 10833
moze 183
chinese 33768
fall 4647
##ੀ 7
iko 6858
الذي 0
hot 47166
##ков 163
padre 110
geraadpleegd 0
arthur 7088
management 3852
аз 48
nara 4203
##ਰ 17
quebec 749
##лық 11
عدد 0
##ним 54
lange 1407
allen 8428
##urs 16058
##ده 27
bar 23821
glesbefolkat 0
##ும 3
afrika 124
##어 22674
тои 3
established 729
आह 0
##ਨ 23
kumbang 0
file 47526
является 21
vaster 106
##aren 17437
те 107
која 0
chile 755
##ula 15679
##це 309
selon 268
##ց 21
came 1484
juin 82
daha 640
johnson 9530
autor 3611
##ները 2
nordvast 0
جو 52
##ել 20
##ע 108
##rie 21988
phat 2140
##tis 30032
ary 2382
narmaste 0
##ան 61
chris 33858
integrated 3146
##ал 186
common 14725
محمد 26
هذه 2
despres 6
осіб 0
vum 203
hand 11030
status 21128
##sh 204730
jazz 6665
professional 5083
half 5250
##че 364
ru 50217
stone 7383
gemeinde 59
हो 4
один 44
punta 596
neu 19121
motor 5125
middle 8686
eesti 36
##يد 116
nar 18187
##yi 78382
##ismo 4752
اینگیلیسجه 0
various 297
##ps 384451
agua 446
##rea 125519
సమప 0
##ede 14289
##ట 2
##lər 2
written 6088
دا 46
dio 43215
fois 49
1878 8402
mismo 21
jesus 3415
लिए 0
##ী 63
##nan 27999
miejsce 18
##ња 17
questa 133
study 7201
##하여 11853
jakarta 825
mac 386421
anti 15970
##ᆷ 37151
وی 5
место 10
marca 1170
##sı 99
maja 787
##ht 373242
##nta 29974
tuong 3652
performance 10640
##ff 165574
##ły 36
anderen 1
##ത 8
##ern 19473
##rna 65654
structure 4247
##ськоі 3
##eri 25743
##nza 5104
##ali 39839
page 98283
##ym 33038
##си 742
1883 10646
##се 691
forme 548
им 56
track 100416
hospital 1996
fi 176830
circa 622
vagy 4
ਦਾ 0
##tik 2619
##ция 257
1887 10472
michel 8370
##tra 202362
##ғы 9
medal 1236
actor 4350
munchen 182
##ги 656
##за 1346
tudi 192
mutta 64
valley 1507
##사 36817
primeiro 60
janeiro 16
##jan 15868
walog 0
kuperad 0
foram 94
chien 937
##िक 22
##ग 698
hang 11899
oficial 15
ok 243412
##bus 60603
inc 155031
making 3561
##ი 58
girl 10828
papa 11770
famille 88
ana 25929
fler 138
etat 201
produced 483
##ши 189
haben 72
nouvelle 227
mike 33827
vil 2418
canal 14545
##ster 34295
platz 207
vie 12927
##po 177164
paulo 1756
samhalle 1
##ket 42251
##ние 262
sve 1928
عليه 0
yılında 1
##los 17726
liste 1979
having 2477
metres 11
kirche 66
کو 12
eastern 1545
dag 6138
##ika 7328
drama 2622
##ں 4
giovanni 2514
dins 263
##dd 130817
##ът 7
они 46
norr 383
wikimedia 1085
भी 0
##ix 65222
heinrich 1024
given 8704
##cija 100
tussen 5
cross 21766
married 172
із 2
lebih 4
ultima 3104
teams 2841
seperti 46
living 6011
##field 57805
junto 170
philip 7910
together 1802
##cs 187615
steve 29267
sun 121157
alt 198541
elso 327
హకటరలు 0
##ба 399
ktery 2
##ી 2
kapunawpunawan 0
bob 99145
##も 0
##tat 12121
##ac 237139
virginia 3288
taylor 11058
jos 5584
heart 9081
##би 674
##sis 27070
1860 22752
##eni 11012
##ag 55335
policy 5509
varios 114
muy 909
sadana 29
##ez 24778
memiliki 3
aj 25004
##ey 75809
altri 531
morte 154
went 4207
##hu 165492
##nın 24
primeira 67
cinema 7316
1884 10650
every 5019
programa 157
xi 114068
started 650
yra 266
##த 19
dapat 83
forst 209
queen 11879
كانت 1
canh 767
160 378977
superficie 0
##rin 17944
stata 1307
annee 171
bahasa 228
regione 79
toi 2311
militar 19
nordost 62
mesmo 13
islam 881
vai 6493
anne 10482
করে 0
##nost 937
оьрс 0
syahan 0
google 719780
inwoners 0
иылға 0
nhieu 84
binh 1312
loi 2423
futbol 210
jamfort 0
##nos 5492
זה 4
become 823
nebo 197
weer 199
##ң 56
ganska 1
ovanligt 0
nama 1421
teatro 530
1882 15191
##ры 201
##ым 112
1881 14122
minh 1235
signifikant 0
committee 954
##된 6050
##vy 28337
により 0
sky 120234
poblacio 0
russian 1430
akan 560
dabei 112
стал 14
##ина 428
##line 151011
victor 10357
forekomst 0
ep 180674
1848 9059
##ami 26429
##ਲ 9
tao 33188
russell 6058
stad 5925
sei 13043
private 13424
##ના 1
##ா 39
quale 28
##gar 30229
##ше 189
jim 20956
color 256100
altres 3
против 11
champion 4511
uefa 4447
florida 1698
##ios 96879
rose 20356
extension 6851
jane 11405
##rte 7767
قرار 1
konnen 21
##ط 50
camp 8494
##द 73
ort 5724
release 8072
lub 4985
stati 2411
corps 207
ktere 6
billboard 4847
publishing 437
##되었다 2626
janvier 36
bac 14474
siglo 31
180 371447
##heid 1711
վերցված 0
change 9185
dance 3320
marc 18765
oscar 6092
##nosti 207
nin 6157
institut 1073
avait 52
ihrer 1
toppen 10
railway 464
nen 17660
##ા 7
##ಲ 4
140 242453
away 1582
sera 1965
##iste 1830
##tia 15912
kepada 3
technology 9632
source 22275
tran 3351
damit 40
universidad 563
republic 4499
societe 1086
около 10
1871 9245
seven 7609
avoir 128
##mis 23577
هذا 3
communes 10
cultura 120
##ntes 1980
##ld 80773
uso 1930
roger 11880
ouest 137
ft 99320
ஒரு 0
fer 9164
##ncia 14742
ενα 15
якии 2
septembre 13
octobre 12
##nika 1020
quien 65
cerca 53
однако 35
comte 710
##cos 40908
##gang 7718
реестры 0
sos 18773
omradet 0
đao 1118
pulo 122
complete 5530
छग 0
modo 1836
lap 13867
dictionary 2538
##મા 0
ohio 1054
pape 562
origine 260
gov 122228
1st 3261
marso 220
##ale 32544
bez 1874
junior 2866
только 40
##cja 1752
suas 84
##자 18833
यह 4
ima 54545
azərbaycan 18
wien 385
zituzten 0
salah 1014
polski 120
ss 321650
##tie 7644
lead 7344
historical 691
nouveau 275
##fe 240238
chef 3915
כי 16
kota 2827
след 10
encuentra 15
##ി 28
henri 2991
##ком 496
entertainment 3577
hanh 3823
frantsesez 0
viii 3018
##ತ 7
мен 43
abinon 0
##က 75
саны 0
katika 21
jawa 359
января 0
eric 29381
euro 15406
##ela 29341
шп 3
term 20692
##ell 20109
equipo 22
storsta 6
lag 7871
इस 30
##им 495
francaise 23
bil 4127
section 13752
mellom 3
mother 5499
россиин 0
##osa 13534
cast 5594
##isme 1203
##rne 28976
pres 4323
canton 2646
##ciones 506
##ൽ 5
##ಗ 7
tay 10812
##ಾ 9
buenos 413
##mes 43804
mine 15574
##ingen 2700
julio 1102
##tz 34496
##리 13374
đat 147
років 2
poco 4882
samt 2710
neue 589
commission 834
##נו 22
##ss 347718
lady 37375
шеран 0
حيث 1
mieu 45
persones 1
fifa 34790
1861 719225
peru 1303
федерацин 0
##יים 2
cas 38244
systems 3072
##nn 55775
1879 9567
##rar 42135
ihn 176
іх 0
1864 8494
suoi 33
##اد 78
##ните 22
##ard 40093
1857 6386
време 1
autre 72
ging 635
armee 66
anu 5130
cruz 1574
мексику 0
double 22898
malaysia 2506
ass 15784
dy 2474957
etta 259
код 5
unit 19962
них 2
lietuvos 20
plu 8263
##σε 95
nuevo 143
1876 11241
foundation 3668
created 4903
today 6707
alfred 5708
start 38118
few 1333
maart 48
సంఖయ 0
chief 3505
состав 17
그 7623
##ων 112
spisak 0
ainda 11
##қ 23
syn 38727
dua 13480
unis 4799
##hen 86819
win 292008
aires 166
aos 3355
##mos 26658
hong 14131
regiment 41
##ια 277
beiden 10
zuten 1
boston 5633
aven 6431
our 9737
staat 167
##స 10
franz 2810
stage 7479
##tel 25148
жылы 0
lewis 4821
phu 3036
ol 95277
##ille 6597
amihang 0
software 11064
kong 9752
jahrhundert 61
ella 14306
fast 51457
mario 7552
robinson 1887
huvudsakligen 0
african 1132
##lta 5154
ഒര 2
##ose 34972
francis 4779
regionen 0
sede 1732
korea 3841
1800 206763
kasagaran 0
##jon 20764
bajo 335
juillet 5
range 5306
وچ 0
##ding 136502
contro 236
دو 13
##cha 152586
ademas 66
here 13050
eit 1802
woman 6234
conference 1647
##ви 453
dakbayan 1
septiyembre 0
pendant 122
##ությունը 2
tony 28749
phap 2818
text 197149
territorio 4
pho 10126
tong 28408
##व 49
pola 2762
zweiten 1
##nego 2204
##owa 10909
moment 3384
soder 273
transport 2060
##ными 119
przy 93
eglise 106
##skiego 22
mange 2695
klub 616
katalog 29
kwa 3749
города 4
nije 50
##ism 20366
baldoti 0
lifayelas 0
test 33705
russia 1502
##ties 20461
independent 2515
guitar 2652
##ول 84
##ціі 13
campeonato 49
воины 0
##ella 14591
##ging 23177
##dt 149720
##ため 0
biography 349
regie 5454
aunque 30
##ноі 10
##illa 13952
momento 203
##ados 740
1873 9203
hit 18212
vir 8949
1877 231965
ذلك 0
eren 353
decembre 2
hanno 163
##cus 48449
tarafından 0
ua 46367
francesco 2197
ora 8655
1863 9091
##cke 9425
##iti 17250
miguel 3288
announced 60
ford 14894
ada 37636
1875 12193
nobiyembre 0
있는 44
sound 13452
##ют 281
##rer 149000
negara 109
wife 1282
seorang 9
##ಸ 16
nazionale 16
##tura 4075
dende 83
1865 17749
##cije 11
##zie 4402
boy 18607
1810 14058
return 37085
etxek 0
đang 2580
channel 15697
interior 1303
kde 7273
##ру 1100
working 4992
person 4733
##هم 15
##ться 92
founded 328
cau 3346
##ско 204
upon 818
##мен 169
jednak 1
це 45
##ram 73917
pere 1582
amsterdam 1261
##nog 3065
hau 2735
austria 1083
という 0
tang 16019
##ил 236
континенталан 0
duke 5309
1867 10734
##iro 16106
val 18594
islands 596
##ור 12
leader 12829
gang 6985
##ாக 4
polo 46876
skulle 8
manera 6
sama 5239
cours 166
لا 67
cote 2700
##ман 131
था 0
tako 413
సకరయం 0
namen 2023
johannes 1860
zealand 278
titel 83
further 3439
tiempo 129
xiii 796
commons 2366
estat 232
amor 1567
##ous 23873
japanese 15137
##ында 2
1868 11961
rowniez 0
##elle 6947
stesso 0
pertama 14
##rus 34196
golden 14160
ere 3191
##iv 25392
##dır 377
mans 3120
##ett 10629
consultau 1
##ті 18
worked 179
weitere 9
naselju 0
bere 2135
britannica 97
века 2
##ava 21970
thai 3409
event 23581
universal 7634
especies 1
vs 281229
patrick 12676
wrote 243
evolution 3155
##llo 107177
phong 553
##lli 37526
stephen 17709
revolution 3737
1850 24409
aout 52
recorded 302
khac 25
bola 676
gen 28218
politico 3137
nguyen 2915
xvii 355
125 172867
lista 1367
лараран 0
микрохаамаш 0
italiana 53
ann 12186
oro 4753
personal 8511
joined 94
barat 256
##ज 60
кӏошт 0
##cher 32945
1872 10631
wales 894
##zia 4821
competition 1282
##cje 256
aircraft 423
ji 243278
##대 19514
baldotu 0
nations 251
##zer 38876
seria 217
##idad 861
dello 296
yon 5728
daerah 40
tarde 86
georg 6085
xiv 2481
##ор 478
##tive 29826
##시 21680
dead 7863
1859 6992
##თ 20
actual 758
octubre 21
carolina 1356
##nus 6562
santo 2494
gibt 51
قبل 0
canadian 3153
deutscher 180
1866 11530
viec 58
##niu 2296
diesem 6
sendo 310
low 36267
future 12704
تے 0
novel 9464
##dia 49486
waar 45
1869 8509
linea 2499
wilayah 27
##ण 78
hem 9097
##ություն 34
августа 0
notamment 20
possible 420
раион 17
წლის 0
vsak 5
garcia 873
units 507
lei 17665
brian 17957
omkring 0
когда 75
شهر 3
pred 6575
##est 44591
though 1172
##ili 14294
erhielt 8
hymenoptera 46
sent 4131
petit 1953
superior 1539
1500 700063
kozott 1
101 367728
1862 10837
medical 7002
ant 16579
machine 7727
##kat 11085
##rol 26023
dessen 12
consultado 9
##ਕ 7
miss 25389
arten 65
سنة 30
dias 972
geschichte 60
homes 6333
него 2
active 22532
neben 34
gruppo 508
##acion 711
generale 1076
put 14045
##ses 23564
training 3239
đoan 1187
andrew 21926
στον 0
##وا 108
##دا 153
sydost 0
classe 393
확인함 0
##ola 28024
xii 1052
##א 65
operation 4084
##nica 8535
कल 3
filme 273
giao 655
grad 5982
returned 105
catalog 5778
1874 9184
fernando 2834
ги 58
pot 11988
mon 25111
##ora 56101
##een 15336
current 12988
platt 933
zusammen 23
xv 10391
##ons 76063
##ło 208
##nou 7780
sv 65603
##тар 5169
angel 12136
ulohang 0
pode 182
##টি 27
אך 0
others 2799
sekolah 59
ludwig 1585
سی 25
musik 359
2nd 2376
##ான 6
##ー 5229
molto 454
##haus 6353
より 0
dc 238421
اما 5
##ih 24914
##una 13061
outros 15
lien 1088
##եր 42
##eur 15424
которые 113
alguns 12
disco 14514
porto 2928
био 7
rights 2845
てあり 0
##ente 3556
encore 2430
мая 4
ہیں 0
ayisyen 0
creation 2057
faire 342
tant 1208
##yo 292717
##ника 64
##oi 30042
systema 780
sydvast 0
enpresak 0
corporation 959
##し 1922
ecole 1368
format 7572
empresa 42
ly 78627
որ 0
рус 49
male 2655
rome 2306
siendo 6
londres 18
leurs 41
となる 0
россиискои 1
regio 151
موقع 1
giai 1665
##ые 174
inn 25226
##lui 4232
انها 3
##ich 21741
bridge 7086
week 3102
##ম 84
besar 32
fylke 6
paises 2
##fer 46990
revista 63
##ля 1050
dark 13095
depois 60
ही 1
ensemble 766
geographical 184
inte 6412
kad 3656
eng 9450
かある 0
##ве 716
##wood 37175
punkt 42
meksiku 0
барамера 0
עד 4
estos 26
##via 23130
medio 388
elected 57
chiesa 201
ix 41525
branch 3451
aveva 215
은 7688
visini 1
kas 12013
peu 519
bylo 177
##tre 39800
कि 6
##ando 13151
primary 5013
##ori 31271
энциклопедия 2
elizabeth 9577
apos 1179
gmina 1
এই 1
##장 13609
masa 6191
hanen 24
eus 1560
##ி 21
huyen 263
davis 3557
institution 518
##lus 40264
dentro 20
##ay 131401
##па 277
##ير 43
##ો 10
نیز 0
gas 13972
бассеин 0
oko 2114
шиила 0
##ವನನು 2
growth 3324
fox 73773
ఒక 0
의 24320
##מים 12
kanssa 1
##op 245317
sinh 424
len 30228
gab 12121
ordre 136
https 363542
erano 17
coast 1478
rat 7087
flere 0
dva 2232
##feld 10389
##gh 166058
stars 5357
##ел 142
mitglied 1
gol 3554
secolo 44
considered 59
στα 11
град 6
altre 26
genre 242
##ння 11
continued 170
шыв 0
##ін 194
իր 0
jersey 1788
ente 899
তার 0
তিনি 0
puerto 959
secara 6
##ске 153
шш 8
hett 519
ese 6895
stagione 1
##skim 303
beach 3206
করেন 0
example 47648
hade 440
まて 2
titulo 12
mint 5344
seguito 1
భూమ 0
celui 46
##ləri 6
grace 18220
##ngen 1787
##원 9427
كما 5
##ють 2
homme 706
temple 3147
##tek 21082
menos 19
norsk 220
tez 1784
##ме 755
республики 3
pacific 7189
##ու 49
ба 196
раиона 0
colombia 395
##ција 36
##dad 7542
estaven 0
ek 15343
##ре 1042
timur 331
kommunen 2
entry 6173
veel 261
elements 1967
principale 35
kang 8846
opened 1296
mondiale 65
pan 47188
गया 0
tokyo 18239
##lio 7258
##ク 662
##isk 7859
##한다 6561
रप 1
disse 686
##jac 30266
sad 7576
episodio 29
となった 0
##ската 2
##don 55091
##ila 14685
جمعیت 0
##ivo 3450
##نا 145
bass 5202
##bb 109484
##set 73058
luong 1494
wolfgang 2271
prime 28993
ise 11281
іі 4
posto 768
##ך 22
wild 9231
tieng 131
テレヒ 0
must 4940
##يات 33
شہر 0
idea 24409
cosi 2649
tweede 33
zivelo 0
claude 3776
##гу 441
nadmorskoj 0
beberapa 3
##asi 14724
zituen 0
##ciu 703
##ду 445
##স 178
too 11962
ona 4048
भारत 60
##רה 18
##ർ 28
segle 12
##tica 23627
została 0
tutti 196
ligne 327
theory 2296
artist 3563
podczas 3
марта 3
##кои 363
vista 19275
espanol 618
##nı 66
##ар 1220
available 2433
##iques 687
francesa 132
δεν 0
##bach 8219
winter 4493
рәсәи 2
phai 303
should 3541
οτι 11
stanovnistva 0
##ση 50
brother 3692
note 99296
publication 759
maior 29
##met 42463
otras 12
##ム 912
kui 5658
sehr 163
##ota 25139
כל 7
105 268768
issue 5650
##чи 310
jedna 4
result 5868
বারো 0
boi 4144
##ման 13
##dur 11849
internationale 1134
tego 568
miller 4044
nın 17
roy 8652
##mia 23042
##ما 107
lalek 0
יותר 0
kecamatan 19
mil 15493
senior 2721
##lse 7447
genero 167
tuvo 138
kaominina 0
kod 7387
playing 2833
estan 157
##ır 181
situe 38
##ыи 294
bot 36522
gobierno 13
##hus 11666
##kim 12239
help 28351
wide 3686
fishbase 25
থেকে 0
moins 15
navy 2346
ernst 1860
##ral 38480
formula 4310
zunachst 0
carlo 3416
fils 319
editions 455
##သည 1
chart 4163
key 117011
blues 8150
একটি 0
села 5
ton 6211
child 7371
этого 10
bernard 4531
sjo 1074
##יו 34
##uta 8080
była 1
rey 2429
##յան 12
tina 6722
sale 9255
بتاريخ 0
enrique 1254
##ү 68
fevrier 6
administration 1143
tieu 313
libro 143
##երի 6
##tal 80802
تم 3
##rono 6922
chateau 8180
член 58
soit 872
negeri 59
cuenta 34
sat 56114
dog 10672
##ında 9
##יות 17
cet 19101
##kou 14595
hacia 5
ред 12
hockey 996
мм 16
##వ 14
##her 102785
##san 67736
##tak 4224
kontinente 0
wenn 860
реки 1
##lige 384
##if 63668
sydney 5593
##fi 607023
##い 0
publico 250
##вання 6
##து 3
##ット 0
varias 7
joylashgan 0
susan 8475
keine 55
dupa 95
direction 2516
estaba 7
hag 3783
##pan 117528
iku 9377
lepidoptera 79
##ების 0
energy 9965
factbook 24
##ские 184
computer 15956
stadium 627
sex 28118
yw 9723
##itat 1194
##ր 155
players 466
mesto 71
##vano 1190
##해 13391
pol 39541
schools 505
による 0
bekannt 7
große 13
daughter 476
coach 21735
princeton 2506
##eren 15458
две 22
##ಗಳ 0
originally 150
pr 3273410
していた 0
reino 2302
##ness 66978
وقد 1
tatbefolkat 0
nivel 53
##heim 6661
dipterorum 0
mid 24945
170 180748
части 2
##يل 131
museo 664
1830 16732
limited 9839
girls 7388
##च 51
mientras 62
##ου 135
бил 8
sons 1514
била 2
##یت 27
бар 47
bilo 272
ch 107184
alex 29128
todas 94
jalkeen 0
##ז 42
##во 1515
himself 167
ku 93273
bruce 9912
##nts 29750
appeared 400
##ero 21717
##رة 53
zuruck 7
does 1548
justice 2854
москваца 0
khan 3444
pakistan 377
##կ 18
formed 627
само 14
##dores 512
box 43199
nang 3009
దవర 0
budapest 536
developed 647
этом 25
fe 102677
rosa 5884
cinco 449
mere 831
##ик 145
##rde 15031
vuoden 1
pennsylvania 475
##ில 4
yari 3842
ball 16403
##нан 198
##ement 9503
##اب 138
عبد 10
##ಗಳನನು 0
currently 1388
provinsi 23
##ая 131
##ின 5
წელს 0
auto 136059
stockholm 3926
vung 277
##owe 10385
thay 583
кеп 0
organization 1898
process 11503
places 949
##owy 717
ireland 612
grup 26
104 226326
##eta 27221
theater 590
furono 5
spanish 1315
regions 1421
##לה 51
contemporary 963
##డ 5
də 19
alcuni 4
##nar 21994
csak 14
102 1099868
tard 967
novo 3600
bell 14631
forest 3935
diego 3530
donne 205
##аи 280
spider 7755
kaumahan 0
manager 6644
sm 2674485
mest 248
##сті 13
celle 755
chan 18851
иовха 0
еще 20
georgia 2924
township 149
##erte 3363
across 1118
نسمة 0
delstaten 0
deren 96
elles 793
boys 2253
dois 225
rural 629
decada 28
labon 250
##ean 18764
##யில 2
എനന 0
gordon 6251
character 3360
stor 2544
ки 79
##ije 471
##get 59204
quelques 32
kako 200
lett 2150
##ias 9067
bade 466
менен 0
addition 212
hollywood 3052
##ae 29981
orden 103
dago 485
sverige 392
categoria 14
##ович 97
##hin 34624
yer 1777
joan 4312
embargo 35
##oni 17280
zif 1013
центр 11
custodian 43
noruwega 0
events 4283
##ult 88711
население 2
aby 1977
minutes 396
samuel 6560
anhianhi 0
##ய 20
ohne 73
kali 3917
negli 229
##מות 7
##ую 146
ての 0
milano 1509
հետ 0
money 28049
##ments 28633
blir 8
това 29
##트 3056
bai 78807
industry 2940
cuatro 47
normal 73478
nagy 156
##ય 4
खः 0
signed 53849
##상 14424
ihren 2
cat 84153
lon 5164
tap 16656
##게 6594
1840 19571
sohn 394
sue 7163
student 4457
##այի 35
recensement 1
тому 3
magnoliopsida 80
nicolas 7762
andra 1098
traves 97
##נות 5
garden 3202
ialah 0
##oa 67638
##sion 41824
molupyo 0
ivan 24153
##werk 1373
nafar 8
##тан 270
mycket 4
##ська 35
декабря 0
##మ 4
##aja 2845
##ија 47
ger 6692
notes 4609
universite 1234
illinois 1104
schon 770
կազմում 0
tamien 2
leben 142
banyak 13
samo 1433
##ద 5
castle 4403
##ص 134
##жи 374
obec 767
editor 9892
less 9679
albums 319
че 162
douglas 4463
orchestra 642
ante 5813
##ces 92713
đay 53
aholi 45
наи 18
obras 42
##ct 185239
##hl 28334
fase 443
diverse 226
##cka 6628
##tto 23042
formation 353
##ված 4
appointed 46
anthony 14131
prvni 2
esa 7586
##ની 0
ebenfalls 6
tale 1296
drzavi 0
patedik 0
werk 402
obefolkad 0
doctor 4679
cause 2103
singles 1228
mod 120454
exemple 25
close 13231
hemiboreal 0
##का 57
plaza 3958
##wan 67302
##kel 9951
##적 5999
historic 410
byen 48
##kow 2685
##ין 18
pelicula 5
##rak 8788
silver 14895
2009an 34
lower 2548
bija 294
করা 0
##ків 4
industrial 5806
##ք 9
tho 4957
basis 1316
gruppe 43
##ात 3
численность 0
prvi 11
rue 2948
июля 0
ın 8
##sto 29386
dom 25657
dna 206134
алып 0
movement 612
laut 734
honor 5631
coupe 11556
##할 3605
ibn 988
bahwa 1
##ана 150
governo 26
sta 23004
puo 177
cum 4431
ancient 2153
gradova 0
sense 9564
devient 5
এর 2
##ض 22
personas 136
seconda 173
سطح 0
daily 26408
ӏа 0
##τη 134
って 0
orthoptera 28
##회 4515
topon 175
कथ 1
đieu 104
popis 72
esto 930
##чно 68
1858 7506
ltd 38035
אשר 0
market 21732
##vas 13663
הייתה 1
##ս 66
##она 2013
quella 46
setelah 2
attack 1923
anderson 5494
κατα 29
##מן 13
##ను 0
اطلع 1
videtu 0
への 0
lunetu 0
moderne 126
zm 13722
hinh 117
xuat 189
##bile 51928
dieses 104
##erd 4591
##ই 72
iso 558187
food 17540
##یر 27
taken 498
##menti 10414
federation 1030
vise 1010
unica 1497
##kas 11493
##لی 80
##ες 63
politique 45
##мі 35
##aria 1980
foreign 7521
self 32609
pertsona 1
##ார 10
##скан 13
##лык 29
wieku 3
##부 19832
##gas 19320
antara 133
##ર 10
жер 6
ਇਕ 0
debido 18
nba 445955
majd 77
chuyen 211
principe 121
champions 576
captain 4350
disney 15347
तथा 0
gun 18900
المتحدة 1
##owych 6
составе 0
pages 8676
donc 1338
##nto 20397
##eti 7442
kawasan 104
220 306243
##ß 904
##ское 141
neuen 225
storia 54
roberto 4506
georges 4587
##دة 14
350 924373
particular 340
свою 1
talet 17
cara 7928
hard 17130
campionato 77
enw 514
decide 378
уже 40
ani 15298
2007an 25
sine 2134
khu 2498
##ث 125
object 20353
mondo 620
##ста 1212
##ない 0
##һы 9
features 2543
municipality 132
seen 671
##ҳои 1
mezi 176
##ји 15
కూడ 0
ktera 3
##ningen 209
mix 44241
##ო 63
decision 1090
religion 408
мемлекеттік 7
situada 2
генерал 2
kommun 125
##η 2206
operations 1300
ground 2876
lingua 371
##nal 39993
##リー 498
peak 4010
eight 2786
##عة 16
estas 146
اک 0
համար 0
rugby 499
mann 5773
ole 126908
октября 0
komt 76
memorial 1619
hamburg 609
##zio 2696
##ған 1
remix 6202
vascular 357
bzw 243
edo 2681
havde 0
##чки 66
erst 126
##ൻ 9
##তে 23
diversos 12
мира 5
senere 11
proprio 38
##чка 55
leipzig 196
ancora 23
befindet 0
tich 1660
allem 147
ontario 1660
massachusetts 882
howard 5577
годах 0
##art 55770
との 0
పబడన 0
nich 4517
によって 0
ישראל 21
parts 1025
июня 1
##ott 6452
paso 592
karena 302
walker 3754
pueden 8
##ার 34
##isi 9059
tournament 210
өзен 0
##ته 8
geen 222
vocals 58
milan 2122
terme 417
ја 16
organisation 222
otra 112
##din 32187
fodd 30
##sc 96662
microsoft 185750
##nden 2688
זו 1
##vis 49225
##min 213900
michigan 1220
##tur 39200
prize 377
متحدہ 0
##ული 10
1856 7660
متر 3
##bel 21121
##bia 20936
сентября 0
romana 245
leo 17633
kilometers 35
torre 1377
ver 11432
gar 47919
franca 285
duas 37
свои 8
throughout 105
principalmente 11
1854 6528
lifayels 0
toda 3489
need 12317
saat 516
aver 1586
kommune 33
einige 18
##зе 513
##ына 49
240 183150
kilometres 5
tengah 25
proceni 0
barbara 3401
حتى 2
##же 753
tae 3335
regular 3355
tid 14733
lima 1796
##dal 15077
sold 13426
porte 1145
сан 49
##way 260846
##ит 338
tijdens 9
##led 113891
федерации 0
##wał 6
conservation 328
dj 144037
opp 219151
##up 171849
franco 1583
grote 209
cuoc 193
ins 81595
территории 0
madre 144
concise 195
moon 14181
unico 2627
tierra 399
anak 598
##heit 3143
##lari 2847
##ови 945
##skiej 8
##ген 124
##면 10284
часть 19
blood 4837
##ਤ 2
jeden 10
groups 2235
bon 12058
##less 37029
cach 958
arab 90940
fm 131454
largest 819
dir 8972
urban 9783
carrera 1208
gdzie 3
други 1
##վել 0
tag 67784
surface 37694
##ラ 1750
затем 15
deur 98
1849 6099
performed 2102
soviet 180
arena 3527
##ச 32
##ро 8523
##ਦ 4
##iin 3911
gave 549
##іи 15
porta 1566
##ших 68
oriental 1387
situee 9
##り 0
##ები 3
sammen 83
shows 1333
нем 23
train 4227
இநத 0
phia 261
beide 70
wegen 370
oa 102445
simple 11579
luego 30
जो 0
##ante 8247
среди 16
directed 914
got 37782
सन 38
##liga 2475
oblast 17
bin 29406
sistem 129
##ров 514
cargo 1545
1855 9017
deep 40311
norra 24
venezuela 561
valle 1434
الله 170
थासय 0
projektu 0
وفي 0
edicion 10
moore 3345
##лары 4
kemudian 10
##տ 44
##чна 32
##zne 2772
includes 1907
secret 9226
letech 3
individual 1694
tat 16098
semi 12635
ob 56650
algunos 7
##sie 5706
christopher 15772
hal 6398
presenta 74
arasında 0
fick 156
papel 19
bronze 691
frankfurt 1017
være 0
analysis 2802
##ವ 8
чтобы 165
dira 1345
っている 0
synonymic 0
female 1056
##bas 32582
vardır 0
nato 2364
results 2584
##º 5047
tham 1973
manchester 7139
oktubre 0
##maan 781
##ск 381
عنوان 0
trinh 265
forsta 174
103 255922
fourth 697
selbst 114
frente 70
تاریخینده 0
view 68056
mexican 1202
##bles 9827
vila 828
cinq 184
großen 28
catherine 5075
famiglia 22
survey 14676
label 42705
округу 0
coppa 475
415 33379
engineering 4714
điem 6
にも 0
norman 4209
singer 1087
##mar 134867
##ρα 370
апреля 0
##ზე 1
catholic 500
toronto 3164
pat 14059
##ени 141
defense 2525
rok 3749
countries 1017
estudio 124
стала 0
centrale 496
zbog 2
før 6
##aa 152818
klimatzonen 0
##بة 16
telepules 24
серед 3
brothers 686
1852 6603
##യ 32
##യം 2
ռուս 0
करन 0
greek 1001
##tore 92576
##zas 2117
lot 7502
ад 63
##my 127248
charge 4440
security 11181
وجود 0
##sson 6098
##گ 218
problem 1936
##ał 27
вид 21
membre 17
##ən 169
above 2045
trouve 23
##ute 25665
designed 1674
адам 0
quindi 17
begin 14369
##any 18588
نوں 0
##ली 10
saveznoj 0
apenas 2
години 0
##에는 2984
ریاستہايے 1
##وم 140
##jes 5193
gabriel 4263
abinons 0
nove 878
youtube 169539
regiao 11
julius 1909
області 0
stanley 5404
sotto 84
teoria 7
kevin 23314
##ਸ 17
##प 70
##یی 21
langau 10
پس 3
##ला 19
reserve 2343
biet 1114
αλλα 1
##leg 11768
quello 9
ciutat 53
cai 30076
фон 15
ring 7265
mau 15263
הם 0
sedan 858
nachdem 24
producer 2375
تحت 1
##kar 12918
ran 14782
##ಾಗ 0
harper 2673
بیر 2
behind 1016
фр 50
##ща 156
115 160947
đuong 794
##적인 1919
##aire 2398
adunay 0
basa 1358
tol 5444
według 0
##ların 13
##чен 53
kunne 21
##red 53534
##jat 1088
officer 556
elections 191
augustus 367
maggio 35
baby 77818
cia 24442
थी 0
publica 604
lopez 1270
size 214857
statt 142
کہ 0
##сі 52
begann 1
اول 1
legal 4261
levy 776
##ec 311046
##tum 8828
111 281199
##taan 473
lane 6519
ಒಂದು 0
despite 831
##مة 19
##car 103787
chua 999
3000 1267772
وهو 5
haute 1111
verso 324
##ове 176
##mat 46750
sydostra 0
##rsi 10856
##ٹ 26
dunia 116
determinado 1
philippe 5502
mesta 46
zij 4051
ucun 9
nuovo 125
شهرستان 9
##зи 614
##xa 89567
##тер 248
उततराखणड 3
##zh 116313
bekend 6
ever 24792
##ала 65
##フ 0
ap 255223
наук 0
musique 75
tegen 67
pels 123
arrondissement 184
##ню 74
gioi 4582
sri 5353
altra 534
مثل 2
##מי 37
خلال 0
months 230
সালে 0
##수 23089
##tzen 413
cele 6583
##ری 32
##ган 227
##nice 3028
##קה 19
клуб 2
108 364899
vec 5359
vanaf 6
##tin 39746
##лен 92
quanto 195
जाता 0
complex 2609
3월 74
eventually 215
checklists 17
##dar 25851
##ides 5936
marina 3438
##డు 0
##ха 381
कर 11
भारतया 0
weg 11990
call 56718
##lag 4800
##დ 18
wall 13061
istanbul 679
imperial 1952
gora 697
##oja 1704
##ата 59
diferentes 3
##ности 96
##лу 555
##מת 12
maurice 2578
##وب 55
към 0
आणि 0
valencia 954
nation 2198
titan 8678
burton 1269
sierra 2800
##ins 144558
leading 3686
drive 15498
1851 8192
##ful 53361
107 240445
ogni 46
clark 5428
ইউনিযন 0
lado 559
taun 383
nummer 12
تعداد 0
##oon 25523
siden 344
killed 199
finland 472
mind 14763
ноября 0
sultan 972
##gia 10071
##wi 137796
##લ 1
##ans 25911
settembre 0
##σαν 26
trabajo 12
##and 238006
##ლი 21
190 197151
quali 2072
mise 1251
వదయ 1
sala 3682
##yan 37591
panjang 6
tidligere 0
##nne 44282
statunitense 1
cel 5828
macmillan 2682
gennaio 0
##انی 22
##ود 27
selatan 2
gary 13655
fram 2133
##det 7185
которых 3
1853 8718
یکی 2
animal 2772
##isen 2126
oltre 35
ditu 510
senza 95
しかし 0
kleine 77
lawrence 4791
campaign 14712
##tique 4297
##stein 12375
بخش 1
titolo 27
##owej 6
klasse 143
##acao 252
đem 61
ieu 239
existe 10
kanton 51
##pt 198183
past 4822
uns 13960
##aza 4141
concert 1064
بالانجليزية 0
sites 3670
termine 31
prin 1189
m² 3566
raja 2918
johnny 8313
asteroide 25
hoang 995
##asa 20643
room 17726
seculo 2
truoc 494
generation 2648
wood 8390
##და 7
ferdinand 1322
irish 1280
ice 57448
така 3
##ено 60
staff 4164
##iya 5265
sp 225501
##жа 182
hebben 23
stefan 5845
##zna 1059
1ᵉʳ 0
несколько 4
grant 7219
cola 3926
##stan 16791
rest 20943
introduction 3676
rene 8394
septiembre 8
##ить 264
aprile 22
других 0
##az 12187
bagi 193
baru 703
forte 1764
bus 18710
##ται 68
bishop 1647
finalmente 4
dalle 131
racing 1528
heavy 3006
7th 946
aantal 1
upper 3285
anterior 276
ak 61865
command 10148
день 18
kr 48691
chez 1570
oeste 68
pak 5486
##드 10935
230 137893
trat 218
geslacht 0
1846 5218
suomen 94
usually 565
истории 5
##yon 13068
##ient 22110
giugno 0
matoari 0
##rade 29633
isla 1540
condado 26
nelson 4289
ned 15609
anton 3165
electric 3702
##vos 5886
ռուսաստանի 1
yeni 203
digunakan 0
##zar 10552
paper 13831
##king 68761
בית 31
##lon 27988
##cki 12396
##פה 11
москва 53
philadelphia 1291
##skog 171
барамехь 0
inoltre 12
طرفیندن 0
anderem 2
ثم 0
drie 1434
direct 19730
##zza 11527
гг 16
##కు 1
gay 17539
johan 1956
hitler 5576
##zes 2305
congress 658
##す 3118
bull 44543
ст 104
thus 1869
##uma 15799
##ום 3
##шы 40
##ος 108
εχει 1
higher 1757
мәліметтер 2
featured 820
nieuwe 116
followed 839
native 10845
junio 33
moscow 821
hann 1156
utara 15
studios 838
related 4289
cox 4943
##vin 35030
##ஙகள 3
immer 1567
##bre 33460
kanal 90
hermann 1265
##ستان 29
giuseppe 2257
censo 1543
loire 844
ради 9
##bes 33312
completed 570
##ping 40748
##ному 43
##gio 7016
ngadto 0
alpes 271
kent 4872
##מו 31
hamilton 4437
express 15939
denen 18
firma 215
josef 1592
energia 263
##לי 32
kaayo 1
##цию 134
##zenie 30
directory 2540
##ья 162
ul 97627
kelly 12275
unos 132
##oma 40167
##endo 5278
unesco 5187
##τος 57
abu 4483
##ह 147
abc 92140
годы 0
##taa 2021
graf 3784
##ским 31
##kent 2724
norge 739
##dən 5
ու 3
beliau 4
muller 2430
colorado 1355
stycznia 0
clubs 1346
##gı 53
##var 5309
tobb 46
1847 6089
##logia 598
##rit 14451
highway 1160
desember 4
reste 215
stal 2557
bod 20741
много 29
swiata 0
##των 137
montreal 2238
goal 4503
##uti 33060
##ால 6
##ires 2766
zou 4705
nou 3555
##vet 11457
image 96073
give 5854
friends 5360
vietnam 1813
dream 28844
орналасқан 0
210 159123
##خ 134
telt 120
biztanle 0
etant 26
sodra 169
##री 14
##ई 14
ancien 72
##gel 17754
##skih 59
alberto 3542
championships 30
##ovi 17081
##lat 10257
contract 3980
##sku 1615
permet 59
106 343529
encyclopædia 17
dernier 4
torneo 20
##kych 116
foar 8
eau 1547
marcus 5852
##ierte 60
persona 2267
##ется 114
hos 4624
guy 5453
##fen 39511
writing 3647
##скую 14
360 784456
##hr 74289
fiction 629
##ট 88
chuc 1016
maison 4456
1815 8575
##tico 2276
##sin 49140
importantes 7
gdje 0
otro 73
riktning 0
gunung 245
asli 815
espanola 24
##iga 7226
assembly 1843
speed 17878
gallery 8731
##ades 1641
epoque 48
author 20800
##eli 19463
##き 1377
niveau 47
ottobre 17
##usi 16437
kinadak 0
период 0
##sus 16212
ellos 26
gene 6490
##وی 43
naval 684
первыи 18
cok 2835
##enia 493
112 166298
projekt 117
better 7377
jahrhunderts 63
lenghe 0
luglio 1
खन 0
chau 6107
##ette 6221
##ats 11182
##ек 407
##る 0
tac 16309
కళశల 0
instead 1204
tej 756
soon 2561
109 271299
февраля 0
billy 8023
##ait 7083
hugo 8761
sungai 352
128 182233
inicio 20
##uar 12579
italien 22
true 116612
##nici 1342
đia 937
##נית 6
pare 836
ship 27083
iron 10587
commercial 4037
rus 1705
##ау 116
voice 12102
##ವು 4
##iz 14534
profesor 19
##ე 45
gruppen 86
primordial 103
kadar 57
frantziako 26
baden 932
pedig 75
largo 329
##nich 4851
allerdings 3
daripada 2
combat 737
finished 408
byly 16
ain 4066
reported 189
andrea 5202
##ttiin 9
##ست 163
ami 12218
oil 11004
##miento 211
1845 6843
とは 0
dave 10968
indiana 1217
szerint 0
academia 290
هم 0
##ததில 1
##dorf 4625
##ದಲಲ 0
یارانمیش 0
politik 23
corpo 598
вместе 6
degree 2513
1842 6468
##ץ 14
lokala 0
missouri 369
experience 2756
##കൾ 5
ایشلدنلری 0
ویکیپدیاسینین 0
##ama 22208
گوتورولوبدور 0
според 0
مقالهسیندن 0
molt 173
армии 0
rol 1170
साथ 1
saw 5077
##lly 21192
նա 3
stop 15327
کر 7
membres 16
nahm 195
certain 1183
hills 2454
یوخلانیلیبدیر 0
spielte 0
##פות 4
может 13
##ture 51147
nobel 940
edificio 56
ian 12623
##ение 107
stat 5885
اتے 0
ata 11392
dicembre 1
gian 3653
##бе 591
##erne 2982
executive 2869
amt 11760
bau 7740
trang 397
раионе 0
erstmals 1
platsen 0
funf 999
135 127806
alice 14727
awarded 39
død 2
porque 94
zde 315
##צה 9
##רים 1
било 0
least 769
know 7200
atas 626
folk 1681
muito 19
##구 13758
ուկրաինայի 0
fikk 52
succes 11
##mon 44503
##நத 3
either 1480
てあった 0
minnesota 910
tika 1158
##гі 58
britain 893
terre 1796
##well 50619
associated 1306
stuttgart 516
получил 5
remained 23
mode 17472
inter 34257
wcsp 81
##cne 5242
##nder 17146
strong 142313
pl 79538
stoleti 3
##ries 24943
topographic 26
daar 79
второи 11
город 30
publications 561
able 3032
americano 362
dazu 179
ala 11337
##esi 21347
##дан 177
##վում 2
championnat 78
kimi 8247
1844 8245
##mit 43164
cases 1305
##elt 7539
##nju 2554
francese 20
##ev 39379
ביותר 0
فہرست 0
годзе 0
tau 5752
discovery 9334
deuxieme 20
belodanis 0
interno 233
كل 10
##দ 53
##cni 1458
planta 557
би 53
##adas 1020
almost 1674
ocean 10136
там 29
orde 342
gore 5857
mont 8852
bili 19915
jordan 13844
jonka 139
##ರು 0
pc 1158992
diciembre 11
##sed 21178
đuc 186
##တင 0
##ania 5499
##xe 40022
siege 461
##bau 3370
##cas 32562434
##tions 70032
hab 3113
winning 790
##до 1030
muerte 7
nederland 108
იყო 0
libre 4294
fred 8608
sc 528268
biasonyo 0
##το 198
editors 505
specie 14
ても 0
youth 4677
spain 3378
##ика 281
افراد 0
felix 3925
##ಡ 333
posteriormente 2
mejor 68
scientific 2407
obyvatelov 0
monument 672
gom 11568
##zeit 700
stories 1428
sebastian 4221
##bert 17093
beginning 348
##mal 63740
nine 10442
ਸੀ 0
schloss 592
పఠశల 0
contour 748
statistics 1605
##ues 12209
estava 8
##мы 279
esas 54
profile 15143
osob 18
nick 17387
bit 111984
##iche 3074
및 840
groot 297
goi 1743
documents 3160
##eu 24950
sr 180587
##wie 3618
hold 27353
noviembre 28
##tori 9654
век 0
tracks 514
##ನನು 0
ще 30
##שה 26
##ити 124
alte 1365
musee 1356
running 12119
baron 1778
##ец 6189
##ից 1
access 24661
hogst 3
совет 31
drugi 67
##ಮ 4
##ব 108
sina 30898
jorge 3664
قد 1
say 12387
юханшыв 0
##mt 64886
oma 5381
threatened 49
hojddata 0
flora 3998
hari 3705
##има 110
ea 91882
vincent 7634
##bra 57243
pont 1377
casi 8112
##نی 30
medicine 1499
میکند 0
gewann 0
liberal 1012
traditional 1578
etapa 13
##rad 8185
adolf 813
1837 6607
##غ 112
##zenia 22
entonces 7
##ab 117510
escola 82
added 1034
##ック 0
##amento 316
род 21
한다 231
##или 191
##ини 95
literature 595
peace 5407
ειχε 0
republik 593
genom 207
rudolf 1316
##ક 9
kind 40240
##oli 20952
marinespecies 1
##ggio 1432
1839 6350
mississippi 230
libraries 934
1814 8995
##вали 17
##usa 14713
gjennom 0
##ish 17743
jeung 37
hatten 43
nederlandse 26
mois 2046
bois 1018
livre 421
117 112084
دیگر 0
governor 506
ensuite 1529
##iden 9764
jour 903
tennis 975
distribution 1342
yu 130906
##ικη 32
involved 70
buyuk 139
##шии 65
rather 766
sherman 699
kraju 3
μετα 15
influence 2275
congo 377
##της 142
кои 7
archive 1300
mang 2867
##кии 126
turn 7557
sino 9982
##되어 4123
toen 1524
##uz 31930
soul 15332
romano 343
artists 1476
syns 178
svoje 0
استان 6
یہ 0
tamen 383
find 34477
##ત 5
1834 5887
quattro 5612
##fall 10878
samme 153
ਹਨ 0
jimmy 13135
находится 5
geografia 5
##eo 63604
cancer 3313
పరభుతవ 0
waard 2
##лер 52
которои 5
##atu 2160
want 1924
atlantic 1611
italie 61
1838 4647
1835 9514
##ческои 59
##igt 1023
paghatag 0
##ения 100
##ವಾಗ 0
gilapdon 0
cha 33993
naglibot 0
tiilan 0
topograpikong 0
tereyn 0
echter 70
##idade 317
bruno 6125
##ischer 183
engine 4396
##рі 45
##skeho 5
др 43
##dio 73828
wel 8873
مربع 1
sit 5859
sainte 1296
роль 2
agent 13470
##rse 11460
element 7912
hui 26689
см 189
grupos 83
һө 0
##ਣ 7
meta 51912
##ının 1
campus 4009
roll 7433
##vad 1780
##ении 25
##stvo 166
tower 4249
##երը 1
compte 85
menschen 40
గరమనక 0
область 7
quyen 210
##oval 862
anime 4061
phuong 1139
##sy 67011
##vne 1129
pozniej 0
אל 8
proti 181
segons 1
wadi 1578
charlie 13131
bland 332
##cı 88
##gs 135681
adalwyd 0
استفاده 0
##iske 724
##イ 0
renaissance 2027
wang 44217
bach 3050
حسب 1
##دی 39
הראשון 0
außerdem 12
##tiva 1534
godina 94
insieme 16
baker 4626
שם 0
##ція 14
##нь 733
##су 892
cine 4325
fauna 255
##sio 8916
జలల 0
mukaan 0
##ати 101
dana 6505
kalapukan 0
interview 2766
avenue 1213
kiradi 0
میلادی 27
seis 1044
practice 1645
chaque 49
##schaft 180
ему 26
##тов 207
урнашкан 0
verde 621
kinh 461
одним 9
ito 19726
நவமபர 0
horisonten 0
basketball 822
success 5914
fame 3392
vastra 27
writer 2848
conseil 140
tempat 10
logo 282217
##قة 11
##وس 74
tin 16433
غير 2
##stand 21325
wing 13682
nomme 8
benjamin 6708
helsinki 662
280 144099
نسبة 0
squadra 93
##ule 29258
questi 143
##적으로 1515
figure 6318
aufgrund 4
всего 12
eli 12131
seat 3985
napoleon 1206
outside 1598
etxebizitza 0
одного 36
cuba 7580
parish 816
היו 0
jon 16833
donald 15455
huet 130
jezik 0
##اس 134
दवारा 0
##али 114
gibi 221
##ось 49
igy 684
nuova 142
turk 745
recent 1306
ул 59
duong 1078
має 0
maio 183
めた 0
listopada 2
wies 331
ms 255510
habitatges 0
նաև 0
nes 7447
1843 5956
એક 1
tree 23900
zoals 9
##tud 38141
қазақ 3
дека 5
##nca 9120
tod 15864
##int 82695
cimu 20
amihanang 0
jonathan 11252
hohe 104
##hed 29239
ross 7845
ngoai 552
##בה 18
kwam 186
brazil 808
##나 16388
dones 32
guinea 285
ал 71
artean 37
##und 34112
##ensis 1637
##лся 98
##kiego 6
estudios 17
##zel 7880
jaren 109
artista 121
programme 735
##να 212
260 153046
brigade 110
մարդ 0
gehorte 0
ла 257
previous 2629
dame 1935
presso 655
hele 434
vladimir 3309
evidence 886
ryan 19663
provided 496
prior 1850
allo 8592
carriere 96
maydoni 1
pagina 1293
##ців 1
casti 982
tarkibiga 0
##ంగ 6
sector 861
##ει 175
passe 451
replaced 482
grund 1642
score 4348
яка 2
##لة 25
##ця 328
isə 0
თარიღი 0
capita 340
vest 3414
wrestling 300
wis 5179
ayant 176
wrzesnia 0
estadistica 7
feet 494
##worth 12171
santos 2111
nomes 39
simbad 72
12월 72
opstini 0
##чу 204
jacob 5056
##oes 9075
inizio 4
iar 4199
యకక 0
financial 6795
rolle 863
recording 830
участие 8
группы 5
123 1125545
pec 4633
ostra 127
##eva 5394
harris 3154
tiep 109
##ως 69
orbit 2097
architecture 2487
protein 1546
##дар 356
ugahon 0
δυο 0
rodriguez 627
##mine 21828
uj 4454
##λ 3319
mitte 901
electronic 4551
ویکیپیڈیا 0
situation 568
نسخة 0
norske 6
mobile 53373
cree 5650
али 27
toute 44
pueblo 141
nous 551
estadounidense 1
став 24
113 121254
tradition 454
կայքում 0
116 132801
##ера 234
##lah 4484
अभिगमन 0
1831 6385
stock 16517
##تی 21
environ 465
rom 35750
politiker 1
genannt 18
secretary 3334
sondern 39
ministro 144
этот 50
##wo 94971
untuak 0
tok 42546
surfat 3
eva 67821
##dra 26886
seme 2806
medaille 16
cell 22282
წაკითხვის 0
sometimes 1190
below 1708
muc 2614
114 140317
gray 11999
politics 1130
detta 40
danach 20
rund 869
kunhod 0
gesellschaft 217
##nse 21992
posods 0
##ール 0
gonzalez 814
##jski 44
которая 193
episodes 95
##cer 55638
##gos 8568
larva 268
estar 5435
なと 0
своеи 2
diesen 10
##tig 4543
kansas 591
##تر 39
##명 8332
4월 77
sarah 17594
jossa 29
##zet 4786
realise 20
pole 1331
delta 14693
lemesed 0
germania 72
letter 10332
##ики 272
##uan 24949
##weg 2140
especial 45
montana 520
salvador 890
##തതിൽ 1
baseball 509
etaient 4
lincoln 3225
כמו 3
1836 6009
کشور 2
##ान 32
##ines 18805
##υς 80
##കക 9
febrero 2509
1841 6087
га 130
времени 0
price 23979
viele 41
estilo 128
ost 11004
##kih 621
enn 1183
pi 141521
##хь 3
##yen 10865
oan 2334
oh 228106
iglesia 157
экология 0
apple 351179
toan 661
arizona 1616
cam 34909
going 1865
cancion 14
##נת 17
sister 1347
robin 8251
matt 17541
dok 3124
wright 2634
##రు 1
mig 7805
లదు 0
##ngan 6319
mediana 26
harvard 31
नही 0
совета 0
parliament 429
femme 431
##ary 24274
##ap 637016
##τες 11
etudes 163
voce 435
##ことか 0
##dom 43312
1812 10632
tienen 10
450 259759
aphia 1
batalla 8
cities 2446
við 8
keith 7492
byt 5467
##ら 0
classic 7709
##ब 44
search 32163
taxdetails 0
##ակ 17
##אי 57
length 12472
けた 0
ty 40977
##kus 5426
editorial 1619
tetapi 7
namun 35
landkreis 22
##nio 4116
whose 1544
greenwood 384
kampung 319
previously 135
##ಟ 5
setembro 1
dues 151
flight 16351
##ना 12
additional 1859
3rd 3397
pass 31451
होता 0
에 15265
apollo 14611
systeme 558
cambio 38
alem 376
relations 299
interest 1500
haut 835
##コ 364
##ande 15134
duc 2628
oldu 79
scotland 834
##har 66636
ايضا 0
なお 0
oliver 7954
adams 4583
история 104
rhestr 0
danh 1214
outubro 8
lagu 705
anglais 50
##rik 3486
praefecturae 0
##ony 9137
##nut 10736
##전 12651
frau 1943
270 116621
##see 106950
##ին 7
svensk 25
omdat 17
academic 2609
##श 36
jason 26257
1833 6283
##ized 7460
esse 982
anul 78
nuclear 1129
sabuah 0
presence 534
##zat 961
gehort 1
mtv 16029
rapport 108
tutto 254
menor 130
александр 88
aki 57671
haus 1929
##ському 0
##ਆ 7
##כה 9
தமிழநாடு 1
kreis 172
##shi 65009
cape 5776
provide 2047
graham 4065
1832 6446
erik 5125
febbraio 0
##τ 1524
vera 7036
mass 6110
##ლ 60
##vic 52542
temperatura 7
##essa 7063
ενω 3
asian 8416
kunst 483
japon 289
август 2
える 0
victory 1825
skal 211
##ється 1
כאשר 3
issues 1477
smrti 45
sw 142393
gouvernement 30
quasi 503
conquest 443
cependant 35
parents 1012
tog 7159
##mm 1684248
рік 30
##kiej 7
##pp 844335
בו 1
đi 39
تاریخ 3
##like 31688
plays 2739
10월 69
આવલા 0
opening 1804
1600 213982
agli 230
troch 91
##pel 13258
nye 840
##dade 1046
որը 0
във 0
##zt 21888
##kov 21366
muhammad 1602
andy 22385
##ран 519
##smo 14202
لم 5
##သော 0
trova 80
outras 3
solar 11098
које 0
1820 15280
##ør 371
dod 6837
introduced 78
nastepnie 0
pictures 2083
jeu 335
kw 50165
herbert 2620
##bin 38981
##stva 271
assistant 1535
zero 22173
いた 0
provincie 9
polsce 0
##לים 9
sara 9486
אחד 4
scale 7483
деревня 0
انه 2
##aux 2526
بعض 0
вони 0
121 197398
##ਜ 11
всех 2
feat 4169
مشارکین 0
له 0
estate 1390
##ೂ 8
gwefan 0
7월 68
##از 80
##ніи 2
##ಂದ 4
move 10951
రహదర 0
##ター 174
nombreux 3
bilan 58
rad 12541
аст 22
mehrere 1
blant 54
двух 6
qiladi 0
novi 1559
indrindra 0
quest 9722
tales 774
placed 921
selv 214
##lles 2010
collins 1525
fatto 98
##əsi 7
##ун 232
republike 3
kasagbotan 0
owned 4999
fight 2889
dansk 276
городских 0
##ort 54050
राजय 4
##ева 69
link 84668
udalerrian 0
lieutenant 331
parc 1869
הברית 0
##чы 43
ken 29936
ministre 38
wolf 7206
##its 24103
gustav 1222
##ार 21
##hn 50734
produce 6309
##ила 184
##ив 457
huong 1236
այն 1
hoac 463
122 93677
##port 143969
1793 4344
istifadə 1
departament 0
frederick 1926
##ema 37108
توسط 0
means 4086
lines 2824
namn 90
onun 186
protection 1478
clan 2969
##ден 138
##אל 24
taking 808
upp 1253
##lem 15815
approximately 123
##μα 350
fernandez 453
afin 507
##یه 23
plata 297
тем 12
miasta 4
##оі 12
morgan 7630
есть 25
այդ 0
conditions 782
алматы 1
bulletin 856
abitanti 0
gjorde 0
##pu 117076
pie 4207
tallet 2
phase 4831
عشر 1
bezeichnet 1
##ਮ 4
heritage 2283
proces 38
##تا 75
deres 29
##dı 48
##ial 28646
towards 527
encara 9
seines 18
genere 73
##фа 274
##jar 8657
број 0
comun 18
biasanya 0
##يم 111
orleans 226
##σια 99
##tro 74611
engelsk 37
religious 368
bisa 405
##יר 14
##amente 77
bird 6951
welt 614
##ਟ 9
rata 729
3d 1205736
pazdziernika 0
đien 121
##lie 13364
##ᆸ 22624
ll 39350
aasta 101
pt 257403
##kem 6770
##pus 19290
##row 28256
czerwca 0
##nsa 11659
peninsula 436
taman 1147
церкви 0
にある 0
stark 2260
figura 78
portal 9418
administrative 642
famous 838
egyik 0
kamen 497
155 74637
joao 902
grudnia 0
entao 9
##azione 104
##سی 38
перед 42
##ती 4
edwards 2648
##isa 37777
##кс 537
##tivo 542
118 158096
drug 1236
epi 11446
##లను 0
##ян 447
delhi 588
бұл 0
127 80446
effect 3359
яких 0
##вала 13
права 6
లన 0
##بر 72
tavakilian 0
##gne 12479
##ік 6
successful 456
##tiin 447
gare 3690
podle 30
lea 6906
morris 2375
piece 2229
##sos 7171
hms 3778
cesar 1141
orange 10308
750 172426
##more 57163
##ೕ 1
##ain 34884
stated 325
1821 7708
osa 6087
##hy 74681
میباشد 0
##ნის 15
buildings 748
klein 1424
espece 43
samen 65
rise 4778
اهل 7
friend 3957
literatura 26
font 494478
tas 10472
trieu 147
##पर 56
##owego 6
charlotte 6053
##פים 5
escuela 54
plans 368
себе 1
letzten 0
климатан 0
مدينة 8
##kia 2687
ուկր 0
##borg 4933
##zni 364
9월 84
pulau 813
##ക 38
reached 230
##দের 105
taona 115
##く 818
##iere 4525
한 3887
issn 6499
##פת 11
prof 5783
perez 642
mana 5012
##িক 33
insgesamt 2
były 0
محفوظة 0
tinha 125
##iana 3543
pablo 4250
cantante 8
svenska 226
polen 120
americain 34
property 11662
jewish 371
gebied 0
problema 94
listed 327
##isten 2541
souvent 4
էին 0
thought 1937
originale 467
inside 10227
mempunyai 0
certains 79
بھی 0
##ое 632
villages 168
noin 789
аб 137
##цыі 7
corte 3191
siguiente 7
млн 7
составляет 4
always 7014
ocksa 11
##nski 1063
palgrave 98
##hausen 1069
निस 0
lp 238062
##xo 46924
brought 242
fuhrte 0
##cal 103089
brand 34460
река 7
table 25220
##ვა 5
##sal 20296
paz 1324
وهي 0
principales 4
hung 3478
##ður 153
бу 91
126 104383
mari 4558
124 86747
economia 104
##film 28601
meses 29
ellen 4706
comite 103
##kte 1798
होत 0
##istes 232
centrum 255
przed 14
bugnaw 0
eles 429
##uit 9398
деҳа 0
##rata 2471
između 0
##ட 11
obce 5
metu 90
жизни 0
maakt 6
americana 3522
##cida 1091
jordbruksmark 0
раз 109
camera 7869
##vik 4468
mor 9643
weiteren 0
##sing 40302
##۰ 20
##lijk 152
аьхка 0
##house 75952
voz 530
maps 5161
changed 712
bayern 244
dragon 14655
westen 752
فیلم 8
качестве 2
rusia 17
дел 4
toujours 42
jadi 223
altro 230
מספר 1
continue 11582
morning 17399
tenien 0
konig 129
gebiet 5
soll 382
##কে 85
christmas 2624
vision 13639
str 63928
ketika 15
##から 0
jeff 24932
especially 2848
##ρ 2485
zegoen 0
кој 0
rate 10552
novembro 2
było 0
быу 6
##vio 18247
scored 168
notre 1388
popisu 0
mesa 1510
##cions 47
raymond 5047
##చ 3
kin 18495
##という 0
школа 5
##தது 7
##hip 39754
##jak 2928
decided 73
aa 249098
οπως 2
તમ 0
##iska 781
fritz 1504
##لا 131
straße 50
andreas 4295
medieval 252
luigi 1397
pilot 4478
mile 2103
host 32625
##dre 41866
##jem 609
##hon 20753
vilnius 211
massa 2721
steht 24
distance 1446
##ово 213
כך 0
kedua 5
##вал 93
turno 980
chat 14539
folge 70
##zan 8332
također 0
filmen 6
desarrollo 18
##bili 20619
deja 928
##ников 39
1825 10574
sommer 584
faritr 1
basic 11469
sør 32
5월 59
danmark 806
##זה 19
##ast 40803
##ował 0
інших 0
pietro 800
besteht 0
людеи 0
jeune 97
familiak 0
travel 21432
##dig 6791
featuring 420
##тор 273
regime 80
экз 2
sing 8522
##گاه 2
անգլ 1
цього 0
119 133715
toutes 33
близько 3
ro 98815
crime 1247
##њу 3
##sme 59677
kiba 1422
родился 4
उततर 3
multi 32961
cabo 1140
falls 362
##ნი 22
##ать 131
##esa 17587
1200 399613
lipca 41
##νη 134
орден 9
corso 408
##בר 24
airlines 358
maggiore 48
##ione 2334
##ナ 1873
145 73505
##شت 15
##pes 12240
mientres 0
stewart 2710
1월 46
oz 12360
##ciju 37
parque 679
goals 294
extra 10497
kur 4085
##דה 10
##yt 38152
paolo 2600
жалпы 0
azonban 0
obci 2
##ª 465
##み 2648
quand 200
##მა 18
seconde 228
aller 1516
anders 1603
##lte 9604
zurich 867
dato 855
praha 250
soc 86237
وكان 0
oblasti 3
required 3668
1829 4784
republika 872
kane 3647
##gue 7153
coma 14901
название 12
վրա 0
ਇਸ 0
jedan 4
wind 79208
articles 5432
##nem 4238
##nna 9982
mostra 36
##out 205044
feature 6597
doit 15823
variety 2211
jours 19
ph 208027
##del 43513
pasa 741
##یل 27
pierwszy 0
οποια 0
##iji 11036
alter 8242
6월 110
industria 59
kon 7057
чи 118
##タ 1702
terdapat 3
itself 190
001 141225
sierpnia 0
छयलिग 0
##ep 175264
enpresa 0
hanya 380
##цев 50
fact 2423
1700 110232
##ських 0
udalerri 0
laura 8084
artikel 42
hizo 63
cela 1236
இது 0
اي 33
##вав 35
actualmente 5
ruolo 0
##ney 26125
8월 74
kort 307
mellan 1042
hommes 21
meksiko 2
winner 3449
worms 515
demi 3382
holland 1631
occidental 277
impact 5271
shot 7097
silva 2344
auteur 38
magic 31605
వయవసథ 0
система 30
ambos 57
phil 13744
129 70598
##ρο 250
##zed 19913
democratic 1162
allan 2004
companies 380
שלו 0
##nun 5568
стали 19
rafael 2894
##cho 87614
1828 7206
ის 1
##chten 342
hijo 100
առաջին 0
lived 2436
##ոն 33
deutsch 632
автор 9
calciatore 0
freedom 4572
ihrem 8
moun 302
meeting 3045
##бы 390
##ccion 251
fishes 61
aid 6928
כדי 2
zudem 5
khoang 27
parks 2824
pitkin 12
##vani 5210
nho 624
обь 4
##wany 615
pauly 241
ofte 75
tanom 12
deu 2339
marshall 4212
##fu 155865
uc 108454
agency 1389
##ਿਆ 1
##maa 3380
invece 1
riviere 220
##하게 2623
runs 803
الولايات 0
lives 3658
valor 503
##ват 61
##정 18343
doch 476
##kog 1727
1806 8272
##sz 18919
czasie 0
сам 27
##чних 2
144 71429
##した 0
poeta 74
matches 1376
##ets 17802
wisconsin 503
comics 929
##teur 892
oldugu 0
generally 578
##nger 12467
тој 0
kerk 184
bong 2461
##רי 20
duo 17982
##yle 19516
##ול 8
##ib 32599
perancis 0
##يی 12
virus 2473
вона 0
insect 324
ім 11
5000 950389
finales 26
##സ 27
hits 3268
մասին 0
sources 1742
location 14873
serta 508
міста 1
mayoria 4
miami 2436
##neho 578
##સ 8
175 73591
bakı 9
##০ 4
gemeinden 1
assim 199
nᵒ 0
лат 4
ministry 1289
kunnen 12
nyaeta 0
broj 12
##jska 77
##ches 12403
##sar 13333
134 63721
kai 30921
هر 2
राजयया 0
wars 971
##ಕಕ 3
##кан 2673
дом 27
significa 37
##० 10
складу 0
birds 739
##گی 20
اكثر 0
##یا 58
##νο 123
दग 1
имени 2
anfang 49
санкт 48
donna 9788
например 51
##keho 772
tuli 2735
##ення 5
relasyon 0
batang 165
##town 18397
unique 4397
##ving 19722
activities 893
perche 181
steven 14659
##فة 12
मधय 1
vel 2342
forum 12951
circuit 1586
populacao 0
సరఫర 0
быть 17
між 7
highest 335
societa 2249
бо 118
ih 79678
дорад 0
которого 6
buom 53
provincial 184
subtropikal 0
franklin 2526
tennessee 393
chemistry 1005
##ак 453
##θηκε 5
##ある 0
dutch 2136
##θει 14
behoort 2
arnold 3573
significant 376
##llen 8112
amerikaanse 4
vocal 4194
##ᆻ다 2588
##aban 1161
aujourd 137
eugene 3069
kurt 4845
uniti 645
changes 761
pal 12302
things 2241
blanc 3283
##jet 16168
sollte 7
veces 4
umogon 0
##ာ 60
##وية 13
ktorej 0
figlio 20
մեծ 1
тұрғындарының 0
tuttavia 2
##гы 22
nhien 91
olivat 13
authority 1012
##чного 22
nello 88
catalunya 304
2월 78
ucb 3406
##ア 1494
springer 3023
hieu 160
playstation 28264
##onia 4316
##tol 16398
termino 79
θα 11
##jne 1600
seves 39
znajduje 0
murray 3235
voe 761
##eve 7420
hours 927
##скаи 10
universidade 127
lago 1708
arbeitete 0
ingen 1773
##vanje 10
dean 8672
بلغ 0
đanh 67
131 67992
##ними 35
volgens 10
deal 20315
faq 13712
phim 207
##cat 53078
fish 8059
schließlich 2
zaman 219
##քի 4
imperio 47
##цу 937
informacion 10
##た 0
گیا 1
pieces 405
weiter 24
##ност 37
init 14727
سن 5
раиону 0
bizi 127
noong 21
##rung 1602
входит 3
troba 4
fille 524
carter 4451
##keit 4919
geboren 6
##lja 1085
elisabeth 1380
##라 17710
forca 459
eeuw 5
##лов 255
jerry 18129
locuitori 0
truyen 118
sola 3887
nat 23308
saka 2531
##erde 3198
##ური 10
loss 3576
attended 41
##logie 687
чем 33
takes 1065
kwietnia 0
իսկ 0
milli 4183
বা 24
##неи 191
##мо 1103
##och 15331
fand 1596
alcune 0
commander 1858
11월 63
dela 3682
taiwan 19133
imdb 8425
notable 143
##ნა 7
affairs 104
##כים 2
mali 9067
pana 9697
ev 85318
bezocht 0
তারিখ 0
hrvatske 0
nahe 118
mag 22150
income 1639
miejscowosc 0
##нето 60
##եց 1
##ming 36782
millions 358
storm 9719
challenge 1900
alliance 2807
kennedy 2188
govpubs 0
melbourne 2271
origen 369
##itas 2097
kina 891
vilket 2
изд 15
##ческих 78
lucas 9156
istiqomat 0
гө 0
nee 6902
kuitenkin 0
##부터 1817
کیا 0
##лись 31
επισης 1
জনয 0
joue 763
vuong 171
часто 11
132 74992
##zka 1695
nota 2526
amely 46
##cen 7298
ইংরেজি 2
cost 33446
oft 3851
##ए 75
publie 6
##etan 2026
אותו 0
##bal 46053
audio 12308
##rice 20659
retired 119
##வர 4
менән 0
##kos 7565
되었다 156
##цію 1
##чных 69
##ρια 65
beccaloni 0
lies 1649
advanced 14736
rhone 702
concept 6219
julia 14012
droit 120
critica 32
enfants 158
##rada 6089
##רות 13
##imo 11556
##sci 10920
##ются 62
franse 35
переписи 0
რომელიც 1
1824 5431
каталог 16
sony 70801
##wer 36437
133 72659
tochter 2
physical 4271
kuin 42
golf 7872
parties 124
коли 3
extragalactic 9
bandar 1039
defeated 16
##ол 207
alebo 4
antoine 1993
martinez 878
1802 11220
filmu 9
مارس 5
##hoz 335
poland 1240
яке 1
##nge 22410
bersama 18
##овои 83
java 275596
##wyd 586
##तर 35
studierte 0
whom 970
warner 2132
quebrada 43
fir 6740
eru 738
tete 1727
fo 69832
##پ 234
vote 4636
##ели 71
##ことを 0
einwohner 3
araneae 26
jam 13496
með 4
cut 18830
##num 37122
engl 981
במהלך 0
##lne 5658
meksika 0
##skych 11
languages 1100
##カ 3648
##ιο 99
ung 2655
thien 3265
theme 16796
comets 81
pelos 131
multiple 2943
utama 23
152 58769
brasileiro 6
част 16
##아 30070
lyon 1092
mediante 10
stadion 68
viena 11
##ныя 7
মানলেহা 0
1826 4924
closed 1516
तिथि 0
muchos 17
resto 750
##ओ 7
poden 52
value 81058
##pet 46348
grade 3425
olympic 1093
fjarilsart 0
kien 1146
produccion 3
jana 1510
числе 0
conde 2233
человека 4
##യിൽ 0
уггаре 0
##ಾದ 2
words 5094
##вы 810
biblioteca 90
đon 24
##ления 115
1789 6899
그는 515
campbell 2939
ramon 1763
tecnica 87
себя 1
##nosci 49
asteroids 49
если 193
hingga 9
данным 0
yeu 495
##lde 6726
##ales 4559
##τικο 17
##rent 28308
##մ 28
##ward 33671
1818 17033
kamadan 0
##ulo 5260
1813 6351
##yu 116906
lite 12222
beyond 19417
##რი 10
##elo 13767
##нт 93
kurz 638
група 4
ktorych 0
dau 11480
##మన 3
poste 613
##ase 41867
kinder 1158
stations 228
##ology 28070
sota 525
palace 2498
alexandre 2102
ابادی 0
fellow 2881
muun 41
##ნ 18
##py 72321
##vala 1520
sexual 839
работы 10
לו 7
##ust 34081
puntos 16
tijd 23
margaret 4060
аьхке 0
inseeren 0
infatti 0
norden 150
সংগরহের 0
##ине 118
##aca 20986
ds 198965
##ligi 1650
##ər 55
froese 12
dapek 0
trai 659
mille 2075
terminal 5308
##larda 53
oregon 1605
prison 724
руск 3
hemiboreala 0
##ције 4
ranking 1881
pham 740
powiecie 0
##てある 0
dona 1170
края 4
warren 5791
hu 44684
phi 11164
সাকষরতার 0
intentions 21
##elijk 219
##مان 53
classes 41437
##hez 2680
platnick 1
tarixi 0
##ん 3150
этои 4
gegrundet 6
koln 144
œuvre 19
seizoen 15
khoi 400
ilay 103
panama 1148
##eda 25939
jerusalem 364
split 6754
րդ 0
fiind 9
##ಳ 4
sagolsagol 0
astronomical 82
иван 49
fosse 108
commerce 4292
##ət 47
##tine 6339
datos 134
pubblicato 1
##ового 33
jejich 3
##noj 442
##ksen 736
galerie 982
городе 1
comes 428
wojny 0
alternative 2586
մեջ 0
hrsg 68
horse 1985
tranh 85
cosa 1399
essa 464
имеет 6
lau 7158
##ieren 350
dunya 83
населенных 0
comedy 619
##κ 1616
ਨਾਲ 0
strane 3
##tina 5101
cafe 18196
بودهاست 0
##նում 0
allowed 663
juz 1070
pesar 20
boreal 67
fora 3507
diverses 10
primi 267
mg 212073
##כת 6
turner 2385
##મ 4
##льного 48
istituto 417
iowa 950
edad 157
sg 106045
##ву 414
evante 3
واي 0
rica 490
colonel 551
nunca 20
##isia 394
##non 29487
chemical 2830
складі 0
##ಾರ 3
##vre 6569
sinds 9
sita 1653
##eron 9122
ملی 1
hace 89
##ᆺ 17942
sci 74803
hindi 324
voir 191
contains 712
gebruikt 2
why 13900
esti 756
minute 1240
##ո 40
grazie 152
julie 5918
হারহান 0
136 71144
beat 11479
##nga 16401
ahol 544
look 39747
##တ 28
factor 2845
greatest 374
basen 237
langs 935
outcomes 57
ime 21011
##nant 2688
barry 5265
##ped 17924
content 131809
##bury 7539
##нд 277
dollar 1647
sechs 116
mano 3129
##မ 35
ingkang 0
totale 190
compania 33
##히 4654
పరథమక 0
##sat 14314
ancak 6
склад 3
effet 26
letters 902
energie 341
можно 28
territoire 17
##bt 86413
initially 75
##uda 7101
работал 0
luna 6664
populations 64
rolling 2704
ից 0
مرکز 3
projet 419
մի 6
##ндә 2
fet 11619
vain 644
weekly 6280
tij 869
##for 192008
##сон 32
application 16179
1790 7847
nhl 4780
fantasy 2576
edge 26839
фильм 4
seul 392
uss 5552
##acio 296
pozdeji 0
##화 14057
##льных 89
годов 9
##iri 12503
대한 73
##licher 158
terms 3442
նրա 0
lidz 21
##erung 166
##rz 9893
nhac 126
کار 6
wraz 1
czesci 0
unternehmen 17
בן 2
##jer 6155
において 0
##군 6120
vlinder 7
bee 11434
perennial 87
153 50750
##rek 4391
##iel 8405
interesse 16
militaire 5
troisieme 18
pusat 46
matthew 9452
##பபு 8
clube 370
nez 579
scoble 33
احمد 9
137 81864
тӏуьна 0
باك 1
страна 12
card 16691
tomas 1984
meilleur 104
mezvalora 0
muassa 0
mini 114695
older 408
музеи 18
149 60342
evans 6032
deeds 327
sociale 556
rundt 0
##rian 5127
read 35734
ఇద 0
tuyen 130
##ление 72
dale 2655
ресеи 0
jpl 1444
##riu 597
especialmente 14
##ণ 8
atp 27291
igual 26
139 73913
castro 1093
territory 298
##ート 0
##skom 60
steel 9921
tel 27112
block 56278
мн 32
kultur 312
earlier 131
lepindex 1
charts 352
##ef 156944
##ு 42
haber 431
##ул 55
mart 4325
##ес 497
##లల 0
loma 832
##ech 31968
numbers 1421
##ড 61
rady 63
##ому 65
##थ 17
##shire 1729
192 70471
rules 1924
##tidae 149
stil 1060
đac 2816
##wana 1817
madonna 2877
crisis 470
##ара 72
doua 188
める 0
gift 5368
mua 2705
savannklimat 0
##nel 25630
##ചച 2
millones 6
denis 3473
ended 333
##चया 0
ridge 1037
alba 3701
ktorym 2
republique 407
##ical 28539
しい 0
##ccio 1157
आदि 0
productions 197
##bor 25496
grado 137
##wych 86
##ము 5
##را 76
1801 11524
luz 1342
geographic 347
зі 1
##eno 12130
око 9
constitution 455
create 19443
##kie 5555
nim 6575
290 260369
gilbert 1928
##tein 14127
memoria 47
となり 0
##gy 57041
programs 902
tropiskt 0
##း 47
##ких 49
wobei 14
##чі 1
roberts 3919
adabinons 0
egin 173
finally 3035
dates 1152
زبان 0
владимир 51
##seg 4670
##ði 121
герои 4
##۲ 34
premiers 168
##ও 265
##주 15953
##nz 23691
philosophy 1370
punk 1920
bergen 539
##ovy 470
مشين 0
chairman 3865
br 545795
sk 165382
##une 12238
##না 51
wayne 3334
sean 13884
எனற 0
1816 5790
##თა 5
##wski 3806
liverpool 1005
##까지 1478
question 5274
dina 1640
##דות 10
bevolkerung 0
همچنین 0
##ககு 4
colonia 189
tanana 49
parker 7999
1822 6162
vater 98
##eurs 628
##ını 87
kreeg 10
##ങങൾ 1
jeux 172
edhe 192
##gus 6054
amerikansk 5
jiz 10921
direccion 28
##ება 6
parmi 377
ин 159
первои 0
aragon 396
tome 3621
##ites 6336
##ію 1
characters 885
gebruik 6
アメリカ 172
##ric 27441
relacion 7
lutego 0
なとの 0
##ament 634
dire 935
diretto 5
earl 1930
problems 526
hope 7441
1일 9
ligue 1474
border 44765
##کی 32
uni 39154
##щ 1177
jay 16735
##sm 44715
##cno 3093
cuu 696
hip 30626
vara 1084
##ario 1432
mesma 18
이후 377
sanchez 1197
1016 9442
##nier 2480
जन 1
##ља 4
regno 38
visual 27016
##ஸ 5
noted 224
##ность 116
##э 2154
numerous 63
flores 282
를 9664
savanna 205
mieszkancow 0
zagreb 167
jen 6935
##isation 910
equipes 0
vuc 1176
1758 3099
grupa 22
ward 2898
словарь 1
compagnie 511
##dus 7347
types 4522
keversoort 0
propria 10
יש 3
teve 510
calcio 253
##ась 69
chr 20357
utilise 4
মারি 29
communaute 55
suden 9
overall 1127
counties 41
pinakaduol 0
directeur 36
##שת 3
##만 8176
ага 5
autonoma 7
мамлекеттик 1
1827 5718
marcel 2940
##anie 1273
menggunakan 16
mjesto 0
bd 161883
saga 2789
##ε 2977
##нов 266
##ına 48
##ტი 8
launched 147
1819 6983
fyrir 0
##یم 67
houston 1759
165 179601
lay 14147
##ಗಳಲಲ 0
##til 11279
tuc 3620
spent 183
##қа 6
суу 7
##nske 143
##אה 8
##tea 27766
participe 3
##նի 3
##성 13960
dintre 1
##וב 17
meist 28
greater 1514
conocido 3
کیلومتر 0
いて 0
##zone 40759
##nska 574
1º 78
##idos 620
blandskog 0
320 232936
##دي 68
##ір 27
squadron 107
seguent 0
already 1247
vm 64842
mexiko 0
##oje 811
moderna 530
personnes 10
protagonista 0
##bil 25787
हिनदी 27
##களில 0
tylko 6
hin 17205
##যে 134
маи 16
detroit 1240
invasion 170
صورت 0
serial 8689
chapter 9418
##치 9857
պետական 1
melhor 29
lisaksi 0
раионов 0
statistical 514
начале 1
lider 47
algunas 6
роках 0
پاکستان 2
##ър 37
draft 1719
scenario 421
aixo 58
czesc 1
rouge 4614
##են 46
138 192649
##cky 3571
185 64366
mel 11652
volkstelling 0
mountains 412
conjunto 42
ஆம 0
sung 5700
##inin 4692
##פי 23
apud 63
oggi 137
##stu 81851
##მ 17
mala 4444
aixi 784
rada 628
prend 41
personen 9
##end 39872
remporte 2
expedition 441
archived 35
##rii 4025
gerard 2659
louise 2449
num 18759
توں 0
lahir 36
dalsi 7
143 53851
деп 1
##אן 4
альбом 0
을 13037
तकक 0
reich 775
partidos 251
##aba 16217
tendo 206
fifth 778
##bahn 973
##ub 123363
##lijke 19
grave 1139
##ilor 1433
function 30239
tener 145
##zik 1400
##wania 29
estadio 272
##цца 3
erfolgte 0
conte 1268
##ులు 3
##hof 7991
tek 8376
##hes 57972
fia 8014
своего 1
منطقه 2
remains 434
specific 2339
שני 2
##ید 21
ligt 62
согласно 31
break 26398
মা 17
կողմից 0
등 1646
seite 39
goes 402
appearance 718
gut 3074
stuart 4983
wwe 35652
##ав 365
sexe 790
lungo 248
같은 256
kommt 3
deus 387
##ица 18
mrs 8683
##ijos 29
tvavingeart 0
lorenzo 1866
dwa 2388
economica 266
##istas 172
cooper 4389
20th 948
जल 9
tatig 4
austin 3439
toe 23002
origin 8469
quelle 143
##ність 3
##over 62511
ligi 109
bal 9940
1792 5225
tuy 1527
antalet 0
##וס 10
141 60345
travail 183
afghanistan 132
rule 6336
dek 2991
халық 0
##ణ 1
initial 9609
##zon 20209
146 50080
яго 1
resources 3491
није 0
mateix 0
arbeit 272
##oto 68818
##larında 2
ஆகும 0
finals 527
1817 6820
quals 13
шарахь 0
phuc 980
polonia 19
ఉనన 0
forms 2965
##fel 16866
институт 10
kara 6932
fans 14365
кроме 38
ejercito 75
##owania 0
største 0
св 66
##գ 105
commence 1485
casos 31
##yla 17400
148 93366
kirkwood 108
bem 3053
aire 992
np 128531
insbesondere 23
##քը 0
musste 4
##head 38465
##ટ 2
peuvent 12
եւ 1
brookings 678
##lerin 206
тоа 0
schweiz 41
ಹಾಗೂ 0
##iai 3939
tutte 27
metropolitan 1036
wi 537835
##ole 28127
##ovat 7650
biti 569
سكانها 0
##דים 2
союза 0
##iros 1027
##कर 25
videos 10455
пунктов 0
contact 13603
##mir 27490
##esta 14364
kesobb 1
coming 1540
##ndə 9
comarca 14
другие 2
broadway 852
##وي 46
welche 76
rico 4348
##meister 794
modelo 404
attivita 6
joint 3907
statistik 13
labor 1153
147 52509
адамды 0
عاما 0
molti 26
##jici 140
објектот 0
drzava 0
##ками 35
##zony 39
##kal 5062
podjela 0
referencia 11
##skich 12
rond 185
##ill 26474
ఆరగయ 0
done 8525
##ора 128
yellow 7336
##stadt 831
represented 114
prace 48
leonard 4205
##cker 23226
fund 3645
##₂ 1144
palazzo 1226
спб 24
##mp 235879
##ridae 143
husband 460
##ып 103
##pur 36945
habitat 607
hour 2535
भारतीय 8
##bio 32580
##ന 23
alone 1832
ел 44
ткъа 0
primeros 7
clara 2144
htm 34431
particolare 0
revision 860
таким 16
cbs 21301
negro 581
membro 57
arc 25413
fly 29456
neil 9316
diagrama 6
biografia 3
technical 3119
turkiye 1512
extended 2706
kentucky 463
##bat 34067
natur 799
##μο 1161
たった 0
##aka 9278
continental 2643
lisa 22373
separate 706
సమజక 0
##cing 20327
choi 1756
enkele 3
##stad 5968
##rta 10121
fischer 1585
##தி 12
##গ 117
temperature 1895
construccion 9
ни 100
##তা 15
##िया 23
vuosina 0
##ions 19048
knowledge 4655
eigen 524
mori 5123
misma 323
acht 122
linie 58
##ио 305
majority 320
rod 4821
селото 0
құраиды 0
agriculture 602
##ының 0
amo 35598
kasarangan 0
##선 9582
australien 4
##chaft 303
products 16417
choice 16459
##ento 9326
administrativna 0
ہو 0
която 2
petite 1671
##۳ 12
partei 16
possui 1
##진 8741
##tem 32941
marche 659
partes 9
1808 7633
scottish 1011
##dit 31638
kabul 214
sui 9990
##owany 15
##inde 30388
dich 619
conform 824
1809 9122
боюнча 0
2014년 25
alabama 412
animals 1898
tubud 1
украины 3
versi 2236
##kon 36530
העיר 6
##rı 63
hidup 34
positive 2237
ernest 2248
creative 21239
nghe 148
##жение 75
қазақстан 28
##ors 29843
##ティ 0
цеи 0
##ڈ 20
##лення 0
##zny 287
##вати 19
continua 188
serve 2105
связи 0
##ßen 188
конце 9
vivien 3265
estats 1
baglı 85
##פו 53
със 0
favor 585
kacamatan 0
##شی 23
жылғы 0
##ததின 0
142 49410
##اق 95
guatemala 203
queensland 905
actress 794
sou 9357
##ists 4078
trio 2572
farm 5136
##rem 12385
##おり 0
hunter 5438
##kai 17502
##ках 50
роман 13
една 0
##ници 15
krauze 0
marriage 611
זאת 0
vivo 150478
##af 66287
emperor 1638
बाद 0
саиты 0
فيها 0
guardian 2480
##tone 29583
filem 1570
##mistir 3
##ース 0
կամ 2
klubu 0
##ром 989
##ано 43
versione 50
जग 1
happy 34004
##مر 39
aceasta 0
keep 30214
knight 3488
##اف 35
opposition 712
##ческого 62
##erna 7233
علي 6
985 72664
duitse 4
lavoro 24
##aga 19114
minden 160
viz 3419
mam 10865
стр 55
##கம 13
bc 152617
##kor 17943
christ 3834
laatste 14
informatie 1
folgenden 0
bhi 4720
intelligence 1789
##bank 42224
1795 4802
ud 81641
idi 5206
disease 1926
1803 9045
fl 168380
studi 80
##yer 21037
allemagne 36
العربية 141
bawah 7
ومن 0
increased 646
localidad 2
memory 9360
enough 489
##scher 1463
##যা 33
braun 2275
sweet 12049
март 2
университета 0
ollut 0
kaip 236
##դ 91
springs 2378
server 47348
selle 313
riu 485
familien 31
thiet 4570
trust 11322
mata 3441
watson 7839
##iger 4470
віини 0
sehingga 9
کتاب 2
##מר 33
esposa 6
intre 710
ಎಂದು 0
alaska 1121
2012년 357
sofia 2817
##τικη 15
effects 945
uzemi 0
##чнии 10
mail 151405
ps 443858
##вои 348
meno 846
augusta 321
informality 11
oklahoma 799
sole 2502
##ator 14512
exchange 8955
perang 9
hd 374858
independencia 12
yoktur 0
platform 4008
##ρες 14
entire 1015
partner 4459
promotion 2793
##nk 46945
beezley 0
092917 0
511228 2
87237 26
0815752199 0
1403962588 0
1884964311 0
1579583377 0
##ంద 1
genera 752
selection 1985
რომ 2
domingo 351
округа 4
aikana 2
##rado 1283
towns 597
mula 924
konnten 4
##nat 7728
ataupun 1
lahko 0
##له 52
murder 578
mien 207
danas 274
участь 0
transfer 5147
tyskland 2
polska 37
serbia 593
spirit 5664
artes 890
quy 1474
##κα 270
1823 7802
linux 253058
rich 15433
cold 6674
dong 26103
masters 2416
dublin 2224
يمكن 1
communication 2679
##നന 2
olympics 138
entered 100
eyes 3595
terug 10
##can 79898
##يف 29
##lands 12648
dve 463
пред 41
chong 6131
annat 457
##uer 15058
##log 52979
mora 2204
##ությամբ 0
nicholas 5510
relationship 609
##rkan 475
quality 8922
##িত 4
##ница 47
##ities 8543
capitale 1060
##ші 10
opere 156
influencia 3
ابن 5
journalist 128
##eben 501
אף 0
eduardo 2193
##iko 5482
convention 896
nya 2097
##pun 9435
selama 288
особи 0
##ιας 10
степени 0
##eus 4144
harold 2110
operated 78
151 62793
jeweils 0
rai 5326
deve 2904
##niho 370
сын 3
2016년 25
ける 0
formar 147
something 2896
lua 11631
##ged 16923
##その 0
##యం 0
beta 31333
روستا 0
meet 7366
руси 6
われた 0
nghia 542
bereich 20
subject 4269
##vit 13555
##дың 3
העולם 0
##צר 0
##בות 3
filosofia 8
##რის 3
հետո 0
sankt 110
##cido 309
leave 4748
revue 275
##том 174
uomo 153
##జ 7
2011년 29
ससकत 15
insects 610
федераль 14
jumlah 7
molecular 2564
uses 1604
passa 253
тип 9
cuoi 102
##lage 1074
##els 27839
eye 12576
えた 0
মারির 0
##uh 22427
verschillende 1
sekitar 0
adı 7
##aci 14309
academie 230
##ники 102
joueur 14
makes 1967
##gal 15664
nintendo 12974
లపు 0
idee 769
vrijeme 0
ddr 25371
leis 1199
gebaude 3
maryland 527
##lainen 769
##ே 15
adlı 1
##ller 20415
места 0
yet 7576
prins 198
environment 2530
lloyd 7588
weil 2212
isa 28212
alten 323
linear 4056
hell 15455
##ող 4
kaksi 14
январь 1
което 4
##ос 945
acordo 5
biology 493
anschließend 16
##tua 20141
đoc 754
erhalten 1
ضلع 0
bl 64040
seasons 725
##cem 13036
##rium 4858
males 101
eden 3747
job 24150
##rato 4623
وكانت 0
ishte 0
право 14
##որ 29
bond 4951
##all 69454
##간 4731
##sza 1303
opstina 1
badan 93
sint 3554
crew 2240
starting 672
##۵ 16
лише 2
miembros 1
drums 552
##ові 18
whole 4348
##oz 22988
blieb 1
##തത 5
alatt 9
rede 6095
futebol 31
завод 3
flying 4304
булып 0
treatment 1179
toga 1482
ಅಥವಾ 0
##ель 170
angola 118
##wald 3466
bredden 0
tento 50
sjon 38
مورد 0
distancia 12
##gung 764
##യടെ 0
sales 20782
##eny 1996
##zin 5399
2010년 21
becoming 484
##۹ 28
vert 4957
##vou 3833
159 59312
##наи 118
##бу 439
तक 1
singapore 5121
expansion 818
оның 0
verwendet 0
napoli 334
زاده 0
obecnie 0
e0 17821
hernandez 333
mill 6097
العالم 0
##bos 28042
したか 0
rain 15526
након 0
##stes 1410
##mie 4449
maine 482
1811 7848
ingelesez 0
comic 4706
##chte 797
situato 81
##скага 14
লোক 5
##zott 249
races 109
##iendo 262
volgende 4
nemet 106
##৫ 32
##lık 66
barn 1058
torres 752
жаңа 0
гз 2
valt 680
inglaterra 3
биле 0
##צ 18
##ics 41890
problemas 2
arroyo 141
guest 7327
schmidt 1810
tinggi 13
jerman 5
byli 1513
fill 8458
##gte 5005
नाप 0
##gon 17169
treba 39
cal 24073
texte 658
2013년 1014
truc 462
##pis 10192
bli 16082
blanco 432
##eria 30560
municipi 361
luuk 39
таких 12
##ध 19
istwa 0
dick 6259
ri 39962
জন 0
subsequently 115
loc 11099
figures 397
elementos 7
##enie 841
##izacion 50
##며 5305
altitude 335
voitti 0
تھا 0
domenico 591
bobby 5172
critics 135
июль 0
##ees 8222
##ude 9924
##শ 63
kalibonan 0
##ann 42484
coa 7499
caused 463
156 59914
hecho 65
carta 513
browser 5137
wechselte 0
##ndan 1742
anggota 0
weeks 259
passage 536
##ულ 4
sull 1937
مجموعی 0
ron 11841
##ското 1
focus 13853
około 0
##yr 23411
byc 1761
marta 1262
altura 221
miglior 5
тата 0
государственного 0
mostly 296
permanent 1183
##lıgı 13
serra 945
अपन 0
اب 23
##ುವ 3
##mont 27079
##حة 78
##ncy 11719
particularly 1068
zerbitzu 0
medlem 1
gap 23464
apie 732
reviews 963
##aar 3309
##lingen 380
kata 2967
##pia 8454
##dat 7076
prozent 18
##ющих 54
##ual 22303
eddie 4728
batu 1351
gmbh 592
latino 293
miasto 12
suisse 391
kommer 114
cos 103165
novela 241
परव 0
##щи 213
niz 638
##sas 36794
hart 10728
outro 258
##ান 64
##اری 14
##ned 15924
blitt 17
hulle 128
అన 0
##jacy 15
proceedings 960
omgivande 0
중 2464
էջ 0
fuera 35
##nə 37
sunday 3911
شرکت 0
##uga 5999
lehen 103
ਇਹ 0
##als 27313
##ог 240
atlanta 1196
жыл 3
##osi 11073
lawis 63
кубка 0
broadcast 1821
fem 7004
αυτο 17
programma 1134
##jsi 282
203 146778
sort 6061
frankreich 25
##רת 3
images 27796
kenya 754
##ците 0
posicion 4
valamint 0
ceux 89
##ador 532
mitchell 2962
1804 6581
bande 456
కంద 0
##ною 2
##лась 19
nl 46445
banks 2204
אם 4
##ள 9
veya 17
нью 5
##кого 81
først 0
##seen 1879
zavatra 0
##৭ 11
الا 23
casu 8285
studied 54
jalan 3787
response 7724
walk 7602
sejak 2
arms 1783
しており 0
##tio 6505
denn 251
toc 22691
aleman 29
torino 242
developpement 15
maximum 2437
##pin 53816
innerhalb 72
ukraine 486
portugues 114
##wane 1361
fuhrt 0
comenzo 2
##ич 336
##dag 7411
sociedad 176
154 50198
meaning 1305
##ує 2
منها 0
##iku 2045
めて 11
lloc 40
ubernahm 0
##ike 17819
лаьтта 0
168 148195
##ಣ 8
staten 449
болып 4
resistance 1038
##טה 9
##ус 960
بازی 3
dus 3413
gilt 1454
kishi 164
ecuador 148
baino 8
kings 9722
frankrike 3
wagner 1188
##ियो 4
situat 13
labour 1154
harrison 2924
##znych 4
ایالات 1
paling 16
muslim 801
edir 148
dor 8359
tung 3305
fighting 1674
##ssen 3618
itt 5404
erreichte 0
##has 66176
##وز 54
zones 321
##rze 1163
vienna 1242
nekoliko 0
רבים 0
##pas 25283
##لي 70
royaume 31
##eko 3416
متحده 0
##tation 21643
##৬ 23
hannover 389
entrada 8
yera 235
##vali 13040
cand 4758
method 8113
termasuk 2
1807 7010
individuals 701
##λια 32
##۱ 39
син 407
enquanto 20
presented 231
abraham 1383
##umi 28265
learning 7761
unido 445
##рана 17
честь 0
sund 3074
forced 554
##vni 888
შემდეგ 0
basso 196
##joje 13
সংগহীত 0
пад 11
larry 15731
miatt 1
carmen 2867
longer 404
darauf 17
sik 2934
miedzy 12
canyon 1881
galicia 275
velmi 1
strada 241
julho 0
processo 428
1805 9127
besonders 11
nego 1149
melalui 0
רק 2
verein 76
северо 17
هستند 0
##нын 26
##န 40
polish 899
physics 1288
minangka 29
estacion 56
salon 6482
николаи 35
tours 3123
##ար 71
sma 26738
weltkrieg 5
##었다 2709
dock 59988
maakte 5
бас 7
mannschaft 18
##ξη 101
##list 67505
holy 2840
##nze 1490
dun 8413
sien 1985
hanet 47
општина 12
2015년 22
dice 2723
motion 9245
ancienne 56
hora 643
lama 3106
diversi 384
utstrackningen 0
primarfaktor 0
함께 32
##ικα 78
might 713
giam 1010
llego 12
primarfaktorn 0
الاول 0
hojdkurva 0
museu 397
framraknad 0
##ије 10
##ering 16895
chance 2102
##sce 8446
masodik 0
##cina 2521
1794 3917
vua 199
trans 44090
##ಯನನು 0
wanted 705
rob 12324
##rina 3672
##iidae 85
lalat 107
##зі 51
nombreuses 1
##nosc 166
##ені 9
##imi 8179
##вање 2
noen 166
estes 111
##jena 207
supported 828
product 140559
##бург 13
napr 183
critical 3318
воина 7
osten 135
alfonso 939
تقع 0
다른 198
trial 3838
##owym 6
ժամանակ 0
models 19793
soccer 1411
культуры 3
houses 954
tzv 145
isabel 2412
roland 6711
fair 11363
filho 19
core 55536
dennis 6134
gano 597
kill 9289
жатқан 0
##నన 7
##ones 11911
vengono 5
nigeria 235
passed 148
interes 28
tarihinde 0
belle 4919
azt 1667
verschiedenen 0
##rk 58624
camara 117
supreme 14808
dezembro 4
cook 1045410
terry 8246
##лин 217
##שים 6
osterreich 26
guitarra 11
##oso 12058
leaving 1133
##यो 2
ralph 10768
очень 27
##ost 26569
versions 242
yil 4329
equipos 3
19th 337
kaiser 1678
площадь 17
defensa 10
diversas 4
canto 322
referred 427
мәгълүматы 0
οπου 2
perry 2544
##olo 29051
또한 1206
keer 559
##۴ 11
##৩ 11
esempio 3
alleen 39
mabibilngan 0
лишь 6
##bare 1927
workers 1510
##위 9822
instrumental 472
sovietica 0
tiga 543
grey 5284
##ores 5794
##ικο 31
pet 98203
diri 333
bp 77738
muzeum 247
##vam 2061
zweite 2
foot 27015
miejscu 0
##μη 117
ina 22994
##vana 5362
bulgaria 169
inggris 0
statistiku 0
llamado 7
pouvoir 27
sveta 60
eingesetzt 2
bare 3236
laurent 2892
navnet 70
akademie 76
muss 711
##лно 61
157 44320
##ær 401
baten 5
spesso 4
نوع 2
##ikan 780
##ас 342
தமிழ 16
кыргыз 36
##пи 593
drzave 0
##ロ 4182
hughes 750
##დან 0
devant 223
fik 789
беларусь 10
serving 481
housing 900
signal 5530
junho 45
biri 178
nhk 22170
recht 63
preis 226
davon 33
кочe 0
raz 26417
dallas 2041
controle 1010
shakespeare 1638
kjent 0
##في 171
kerajaan 22
alpha 126484
##lə 40
গননা 0
economy 1411
facts 4205
##ime 49166
punt 105
ceske 56
thailand 1698
روی 0
##skie 519
shown 1783
##тель 115
अगरजी 0
ot 64731
voix 17
##ello 5980
##10 5730613
zavod 24
##чке 13
langue 92
talk 23214
elite 6883
##வு 8
tribunal 92
##lərin 0
horien 102
railways 93
famuls 0
empreses 4
##mel 24609
##лан 163
lodanefa 0
##zeni 1153
nouvelles 43
resmi 21
inglese 31
##ttu 1876
aga 14019
მისი 0
cualquier 8
одна 8
corona 2410
sens 3759
##یس 11
ejemplo 3
위해 5
incolarum 0
henrik 1042
representa 27
##אר 49
arið 0
gewahlt 0
##நது 1
##તા 0
ಇದು 0
napriklad 0
militare 6
##oko 5375
leven 756
exito 29
rail 3334
korean 2712
publicado 6
##۶ 17
201 169523
grada 115
nghi 769
bush 4978
белоруссин 0
330 182675
tall 1744
##മാണ 0
##tott 351
lor 18218
##² 12123
##нні 7
அலலது 0
167 39629
materials 1540
попису 0
cricket 470
provinz 14
كرة 0
importancia 2
existence 173
##inger 9064
##gun 17842
visa 55661
sarajevo 128
##yd 26133
judge 1421
fisica 8
increase 670
translated 454
meister 716
##λο 72
##зу 292
rumah 230
##ded 32873
wei 112673
##tare 2867
safety 5276
ngu 2294
тиклем 0
थन 0
உளள 0
larger 391
халыҡ 2
julian 5295
mixed 2397
speelde 0
principios 0
entstand 0
episodi 129
broju 0
alemanya 1
errichtet 0
ongeveer 2
resultado 61
themselves 53
troops 51
##σει 34
##eld 11808
poor 1602
##ಾನ 4
166 48306
때 668
##tok 38601
abd 3887
kiss 12537
tərəfindən 0
##վեց 0
##of 489674
lanka 187
possono 11
##aro 30616
reports 883
ezt 1626
vizier 14
sonora 350
##ыя 21
##რ 30
からの 0
europea 61
couple 1322
noe 1847
مشتمل 0
comercial 32
schule 64
domaine 1531
indien 159
yaitu 9
пам 6
ஊராடசி 0
juego 20
kulle 34
##৮ 16
edizione 18
##rant 9935
##ttaa 316
provides 365
однои 4
danske 267
nancy 6632
##lum 11783
jer 4999
161 39458
watch 28494
בה 1
raised 383
んた 0
##gin 22234
avea 50
hindu 629
##ката 34
##קים 0
jules 1476
karriere 6
##zada 7793
sergio 3320
cuc 5541
##eten 582
appears 427
தமிழக 0
bakarrik 0
1798 5201
##vil 12282
jogo 67
##ıs 58
муниципальных 0
tenir 25
tommy 9836
##ың 3
اثر 0
##۷ 4
studium 282
bataille 62
giro 1197
gomez 747
vis 13198
##tische 135
politician 69
##nji 5093
macht 59
uruguay 137
beispiel 14
##elijke 14
225 1102022
toimi 5
##inu 14475
##عب 41
jotka 0
recherche 58
##호 10518
hoe 2104
aparece 0
##ьного 102
およひ 0
capo 780
description 50144
emakume 0
rispetto 1
##dni 1348
typu 8
stan 13732
##ження 3
205 123983
организации 8
##ющии 55
classical 951
ағыл 0
##ческие 56
vaxtlighet 0
bruder 167
leopold 577
بۇ 19
volte 9747
##нского 80
##taja 333
##lni 755
##nic 22420
република 544
kdyz 4
planeta 342
158 62364
mwaka 23
seda 737
udział 0
##wr 141689
composed 120
armada 556
masih 31
##hat 108429
הספר 0
rick 14853
carabidae 8
richtung 5
dessa 122
##леи 66
burg 2227
boeing 2204
nfl 13498
bergig 0
nave 5396
glass 8031
##zado 202
legend 3379
##ელი 7
limite 174
##עה 5
##kk 69057
##скі 70
##gut 4114
sampai 26
salt 6140
यकव 0
ricardo 1877
frederic 1738
mk 64244
##λη 222
פי 6
aktiv 63
helt 228
mely 60
formal 3040
##ье 150
rencontre 17
##ति 11
dorf 155
osoba 7
nhiem 82
intr 1434
puesto 6
chanson 262
परभाव 0
##oda 31193
##ються 0
##kka 5390
methods 1574
singh 2231
noir 639
arabe 150
travers 271
పరవటు 0
ਲਈ 0
हा 2
##larının 1
הראשונה 0
құрамына 0
cars 10510
successo 7
##ћ 5
##κη 49
ছিল 0
sangat 38
##aje 1073
##ved 13451
medicina 12
pois 355
seguinte 0
giorno 30
millionen 4
550 167346
yels 20
beautiful 3954
2009년 20
##ization 14649
բնակչության 0
##ode 50606
abad 451
femmes 50
kasnije 0
fields 1795
##sberg 2080
daher 26
felipe 967
аумағы 0
163 107026
مرکزی 0
fez 756
##bs 92823
##ologie 6692
demu 531
##mise 2645
seventh 281
það 0
##uja 1386
##ction 90630
ships 408
serien 14
forward 8494
##iet 7846
klimatet 0
posod 7
##동 9570
книга 26
##дин 93
acid 3515
##tien 1631
pequena 4
المدينة 3
organizacion 48
قدم 1
##ਗ 7
aret 1823
##овых 31
دیر 2
kate 17367
bolivia 188
березня 0
##кою 1
##льно 53
failed 10199
باشد 0
दिया 0
##ще 164
gdy 1177
tercer 8
lomanefs 0
abinadons 0
asoelol 0
baldot 0
نال 0
академии 0
ним 1
canon 21225
voms 36
nothing 4384
nghiep 162
egypt 2630
adabinoms 0
pai 15919
carriera 99
##اج 48
mujeres 66
##teen 4283
tysk 19
##jana 1724
therefore 1434
fit 33512
cadre 140
profesional 16
##нг 166
pocet 0
moral 778
sept 1471
universita 244
ikinci 4
giua 21
produzione 7
##дә 19
##ote 35951
сезон 4
naselja 0
rahmen 7
##وان 29
ley 3655
boli 1893
طول 0
principio 5
##יד 13
ગામમા 0
##تها 1
##들이 2182
quang 1064
##xi 70163
danny 8090
##стеи 45
##בי 43
nearly 362
damals 2
थायया 0
##tii 1636
##ং 261
укр 34
1799 9288
##بية 82
erschien 0
retour 56
illa 582
manual 1862
feb 2397
furent 3
spielen 6
##ುತತದ 2
##ческии 48
##unu 1741
picture 4051
natomiast 0
mercedes 12380
philippines 362
##eb 52486
tanah 278
##gd 48816
sulle 96
1791 4686
##eres 5598
2019 9722298
heat 8900
gmt 9032
たか 0
allemand 22
emma 11429
ശേഖരിചചത 0
##rate 18821
jabal 126
##lada 1017
##нен 133
##ень 105
бір 1
binnen 52
##kes 16188
##cek 1567
mi² 4
clear 19855
##luk 4130
udalerriko 0
entwicklung 23
minas 580
residents 258
##schap 179
skład 7
kebangsaan 4
unite 1998
movimento 115
pena 1361
metatra 3611
##국 9317
punika 3
belgique 16
##сында 2
পাসিলাঙতা 0
haavon 0
voyage 1085
##нал 184
oglu 3
newspaper 701
қарор 0
poesia 29
##ява 13
alain 3804
поради 1
bachelor 1358
4th 1135
info 97711
##फ 24
##ющие 47
navn 178
illustrated 168
становить 0
derniere 8
##ҡ 14
atraves 30
palacio 385
における 0
incluso 16
myohemmin 0
##ө 216
luke 6688
##zki 3230
##лении 39
##ե 74
##ську 3
##제 17030
waarin 4
##τικα 36
attention 5202
##кова 39
chen 24170
reed 2785
breve 178
##oc 138581
marques 618
##ене 899
образом 0
edgar 2098
##zug 583
##jaca 89
##gg 69573
proceso 28
magnitudo 0
##५ 81
direkt 66
##כל 10
##cta 8849
впервые 4
ponte 999
بین 1
##מד 8
##icus 1215
##сен 95
пол 86
##gli 19013
172 1057690
bile 309
grands 2003
1400 139172
situs 48
jogos 6
finden 33
##uru 3697
frauen 201
ligg 76
ebbe 63
دهستان 1
moving 2008
##조 14495
buch 987
##ीय 6
بـ 0
##kiem 168
bestand 14
jahres 29
##rni 29240
юго 9
catolica 13
res 37470
mapa 873
разом 0
berliner 331
walay 8
##but 46971
says 3299
milieu 25
albumet 0
##нің 0
rap 23283
होती 0
metri 433
mehiko 0
connu 248
1797 4293
nederlands 77
##back 83511
twenty 2050
bestaat 2
boyuk 7
porifera 12
##கக 24
##ಲು 0
guillaume 1410
##жен 146
cukup 2
espanya 65
##eto 18697
مجلس 4
fleet 1133
brief 10546
মধযে 0
##വം 2
mellem 9
ноҳияи 0
namnet 8
kung 2026
##ира 101
kembali 11
##mek 2384
maritime 616
pink 19325
ecrit 8
партии 5
krieg 108
нового 10
धका 0
districts 22
##єю 0
ferrari 4611
##чни 14
اخذ 0
176 47859
nachadza 0
gizon 1
verder 309
164 38884
##isti 4015
communications 873
دریا 5
hero 14051
##lit 8437
жители 2
##шие 43
##வை 2
behem 112
грудня 0
silla 89
ditamukan 0
etienne 818
ars 6172
##৪ 19
##late 101715
technique 258
gemeinsam 5
##ij 4622
vann 1260
evento 153
eri 3264
garde 639
##yk 21275
chapelle 269
thap 1603
iraq 369
गा 3
applied 3319
believed 42
##この 0
##ാണ 0
roles 436
हिनद 3
када 1
##тын 24
laquelle 2
##tera 7702
##лии 83
birth 1069
vittoria 235
##vaxtart 0
##iers 3558
##כות 3
vært 0
162 49452
##rede 3609
ونسبة 0
##lista 1705
##מית 11
ابو 34
beijing 82404
mainly 253
момент 0
##dis 103981
instrument 1351
successivamente 0
biztanleak 0
##вся 16
##ями 67
##スト 0
crown 5555
polos 762
##cznych 3
latina 287
bucuresti 9
turned 550
amour 979
후 1114
##ري 45
бутт 0
soldiers 176
chuong 100
میتوان 0
lid 8576
colin 6363
peso 292
dobe 280
onu 1995
infantry 68
224 1020520
lenga 52
dix 919
told 1254
synopsis 406
amore 1288
diger 49
زمان 0
newton 2653
##ont 45343
##dung 1365
##ува 73
lagi 258
insekto 0
resultat 10
dakota 1479
профессор 10
hp 194742
또는 1245
agit 552
fusion 10871
locale 2150
##や 0
роки 0
שנים 1
naglangkob 0
собои 0
nazi 507
521 28826
##ings 57652
secondary 2318
195 306166
сезона 0
claimed 50
infanterie 8
##нин 48
##כי 10
policia 26
pgc 14269
##ут 214
latter 110
##دن 28
tur 6233
levels 1546
##platz 1104
chang 31363
##rka 2209
colonial 487
aun 1444
hudson 2761
##ston 8497
179 33596
가 8391
##ад 328
##oka 11994
すると 0
lance 5142
##шка 46
своих 0
##നം 1
construit 1
tercera 2
linh 923
willem 797
##con 387430
beaucoup 64
ambiente 376
назначен 2
##juk 2318
##straße 311
gorə 0
##ması 98
apa 13589
группа 12
##од 563
##rel 34742
##ум 107
##alt 31288
tank 3921
##nsis 4624
laguna 1246
trien 730
asya 99
gate 8817
##тон 119
arm 65262
##ім 38
conflict 690
saj 2079
stessa 3
##می 87
floor 2283
grandi 630
##נס 10
mbc 14943
bato 302
gloria 3181
stort 102
##uro 16875
offered 60
##сці 26
##лом 121
dresden 492
activity 15199
##etta 1390
independence 493
sortie 56
округ 1
vicente 437
##yang 27989
کاونٹی 1
ronde 502
savo 1356
ordine 17
##ivi 15104
helped 338
##ance 15262
##oro 17738
شامل 0
##oy 36858
hugh 2988
##стве 57
округында 0
##ovic 3552
##ван 75
почти 7
stade 200
baza 1875
isola 1093
##сем 153
والتي 0
archaeological 95
teki 88
cio 53085
таксама 0
217 51542
##geschichte 184
kes 7043
مصر 15
rev 22151
때문에 52
##ခသည 0
regina 1459
approach 984
pessoas 3
aynı 0
##tad 4796
andres 1607
nepal 465
##zzo 3071
donnees 5
raison 70
германия 2
##ві 93
ubicado 7
aproximadamente 1
##ാൻ 3
kdy 281
habe 291
phoenix 7026
##ела 39
acquired 305
federico 1140
##cada 2819
##kap 6882
##dne 15038
граф 3
catre 46
החל 0
amateur 390
stelle 133
coi 3004
белән 0
биләмәләрендә 0
abans 5
erroldatutako 0
archives 547
252 150325
206 77970
educacion 10
##ვის 0
##من 130
##ated 8644
2008년 18
177 128409
##दर 14
otte 157
2017년 11
##ણ 2
republican 172
##grafia 75
facebook 796162
railroad 359
exemplo 2
lille 540
169 47950
власти 9
місце 0
afrique 66
sweden 765
##ուն 14
саит 24
##rier 7840
grammy 420
##vanja 147
##ното 2
karel 589
くの 0
1775 5938
##वी 37
##يية 29
celebre 61
arean 648
jeji 5
etxetan 0
##ук 247
annet 398
##icu 4227
कमाउ 0
##пе 659
##ючи 25
1796 4750
nhau 26
ən 15
sebelum 3
trata 29
seattle 1677
эти 28
##ᆻ으나 1568
queste 297
ait 13487
oedd 0
derby 845
##zuje 8
##шки 23
καθως 5
hoy 1311
origins 2447
##hold 30153
##σεις 20
##band 21696
##ndi 25884
##rra 14074
account 11491
##jn 10498
650 164750
объектының 0
реестрында 0
արխիվացված 0
utah 1059
gouf 509
lorsque 29
tell 7910
життя 0
indica 220
gara 1317
bowl 733
256 112978
eksentrisitas 0
renda 196
##чении 19
##일 15517
latvijas 24
miał 0
##mıstır 3
##լ 64
بشكل 0
cuales 3
##ois 6380
erneut 0
##js 69084
kar 9362
ਵੀ 0
##ಂತ 0
nada 1082
projects 5095
##atan 2205
joachim 1172
oppet 1
##vaxter 2
##לות 7
properties 3628
importance 148
けて 10
pequeno 19
environmental 3102
triple 4485
##نے 16
scarabaeidae 1
دوره 5
vezes 1
boris 5358
دور 8
##ular 15503
manner 413
となっている 0
einsatz 13
guard 3499
اخرى 0
venus 6865
fivondronan 0
##idas 1382
зв 28
##անում 1
guru 1998
wurttemberg 162
carried 167
يتم 0
consists 33
hen 22572
dagli 22
##یان 12
lucky 10384
engineer 2184
##лена 13
##ћи 3
##sag 12147
হিসেবে 0
213 69218
որպես 0
publishers 323
##nud 1950
argent 1748
##ligt 173
warszawa 82
235 172275
եղել 0
##ας 40
campos 326
quel 264
futuro 522
baie 458
senator 423
eduard 551
pasukan 3
risk 8434
escritor 8
##vie 11118
castillo 342
giorgio 6248
օրիգինալից 0
шамасында 0
podem 7
onda 438
##키 2835
senare 0
##nii 1977
οταν 2
clima 648
techniques 313
sowohl 2
##czne 13
проект 17
মান 2
компании 11
nina 4491
pond 1058
siguientes 1
ganz 444
propia 1
книги 6
produit 9
bidadas 0
##תו 11
##eth 43865
siempre 30
даже 18
##hem 53330
центра 6
بها 3
maxima 727
##ാം 3
##tv 271735
dituzten 0
marvel 21567
quartier 131
##nka 4141
whether 1220
tamil 602
duoi 23
лело 1
##sında 5
natal 943
covered 741
182 48876
نقش 1
результате 1
##tand 18120
##bie 15207
##ура 88
##िन 18
నట 0
attraverso 5
hoat 66
gioco 57
##tischen 30
##हर 12
##lies 4019
sacaro 0
links 14419
organ 455
rare 3002
flera 0
لیے 0
allt 5842
spiel 213
barruko 0
teresa 2557
##нски 11
founder 2428
tanzania 320
quatro 73
##win 234602
##rir 1851
ikkje 2
##eau 8523
disc 21636
vinden 4
ließ 0
tots 351
##00 1747172
208 231108
##rios 1333
resume 5655
driver 7274
frere 79
այս 0
כן 0
teen 5415
save 14223
окончил 0
jun 13626
princess 4027
брат 12
angelo 1841
ayiti 5
##kaan 198
##iera 658
m³ 4131
داشت 1
##pie 11298
franzosischen 0
тим 4
debe 2870
##unda 21329
seccion 12
inferior 116
##bon 20368
pote 682
trains 436
bear 7819
##ческая 147
##ord 31964
##жу 309
universitas 738
##tif 29828
comando 169
1300 289712
topad 138
cay 10423
hawaii 1011
##들은 1204
##зы 502
##ख 21
brook 2296
laika 193
##ડ 1
##ності 3
candidate 832
compose 6542
athletic 544
croix 263
kerult 0
travaux 12
##aya 6710
oppervlakte 0
batman 2112
##uto 21357
எனபது 0
eigenen 2
##oti 21384
connecticut 260
isso 268
talent 2029
##λα 181
οποιο 0
##식 7763
zahlreiche 2
##sco 62740
bilang 25
ministerio 55
##וד 9
mudo 99
hacer 42
musicale 6
medan 238
българия 2
olla 268
thuy 584
cameron 2675
שנה 34
promoted 639
##ਦੀ 1
semua 15
##лось 43
romance 1094
215 76341
winners 204
[...]
