{"version":"1.0","truncation":null,"padding":null,"added_tokens":[{"id":0,"special":true,"content":"[PAD]","single_word":false,"lstrip":false,"rstrip":false,"normalized":false},{"id":100,"special":true,"content":"[UNK]","single_word":false,"lstrip":false,"rstrip":false,"normalized":false},{"id":101,"special":true,"content":"[CLS]","single_word":false,"lstrip":false,"rstrip":false,"normalized":false},{"id":102,"special":true,"content":"[SEP]","single_word":false,"lstrip":false,"rstrip":false,"normalized":false},{"id":103,"special":true,"content":"[MASK]","single_word":false,"lstrip":false,"rstrip":false,"normalized":false}],"normalizer":{"type":"BertNormalizer","clean_text":true,"handle_chinese_chars":true,"strip_accents":null,"lowercase":true},"pre_tokenizer":{"type":"BertPreTokenizer"},"post_processor":{"type":"TemplateProcessing","single":[{"SpecialToken":{"id":"[CLS]","type_id":0}},{"Sequence":{"id":"A","type_id":0}},{"SpecialToken":{"id":"[SEP]","type_id":0}}],"pair":[{"SpecialToken":{"id":"[CLS]","type_id":0}},{"Sequence":{"id":"A","type_id":0}},{"SpecialToken":{"id":"[SEP]","type_id":0}},{"Sequence":{"id":"B","type_id":1}},{"SpecialToken":{"id":"[SEP]","type_id":1}}],"special_tokens":{"[CLS]":{"id":"[CLS]","ids":[101],"tokens":["[CLS]"]},"[SEP]":{"id":"[SEP]","ids":[102],"tokens":["[SEP]"]}}},"decoder":{"type":"WordPiece","prefix":"##","cleanup":true},"model":{"unk_token":"[UNK]","continuing_subword_prefix":"##","max_input_chars_per_word":100,"vocab":{"[PAD]":0,"[unused1]":1,"[unused2]":2,"[unused3]":3,"[unused4]":4,"[unused5]":5,"[unused6]":6,"[unused7]":7,"[unused8]":8,"[unused9]":9,"[unused10]":10,"[unused11]":11,"[unused12]":12,"[unused13]":13,"[unused14]":14,"[unused15]":15,"[unused16]":16,"[unused17]":17,"[unused18]":18,"[unused19]":19,"[unused20]":20,"[unused21]":21,"[unused22]":22,"[unused23]":23,"[unused24]":24,"[unused25]":25,"[unused26]":26,"[unused27]":27,"[unused28]":28,"[unused29]":29,"[unused30]":30,"[unused31]":31,"[unused32]":32,"[unused33]":33,"[unused34]":34,"[unused35]":35,"[unused36]":36,"[unused37]":37,"[unused38]":38,"[unused39]":39,"[unused40]":40,"[unused41]":41,"[unused42]":42,"[unused43]":43,"[unused44]":44,"[unused45]":45,"[unused46]":46,"[unused47]":47,"[unused48]":48,"[unused49]":49,"[unused50]":50,"[unused51]":51,"[unused52]":52,"[unused53]":53,"[unused54]":54,"[unused55]":55,"[unused56]":56,"[unused57]":57,"[unused58]":58,"[unused59]":59,"[unused60]":60,"[unused61]":61,"[unused62]":62,"[unused63]":63,"[unused64]":64,"[unused65]":65,"[unused66]":66,"[unused67]":67,"[unused68]":68,"[unused69]":69,"[unused70]":70,"[unused71]":71,"[unused72]":72,"[unused73]":73,"[unused74]":74,"[unused75]":75,"[unused76]":76,"[unused77]":77,"[unused78]":78,"[unused79]":79,"[unused80]":80,"[unused81]":81,"[unused82]":82,"[unused83]":83,"[unused84]":84,"[unused85]":85,"[unused86]":86,"[unused87]":87,"[unused88]":88,"[unused89]":89,"[unused90]":90,"[unused91]":91,"[unused92]":92,"[unused93]":93,"[unused94]":94,"[unused95]":95,"[unused96]":96,"[unused97]":97,"[unused98]":98,"[unused99]":99,"[UNK]":100,"[CLS]":101,"[SEP]":102,"[MASK]":103,"<S>":104,"<T>":105,"!":106,"\"":107,"#":108,"$":109,"%":110,"&":111,"'":112,"(":113,")":114,"*":115,"+":116,",":117,"-":118,".":119,"/":120,"0":121,"1":122,"2":123,"3":124,"4":125,"5":126,"6":127,"7":128,"8":129,"9":130,":":131,";":132,"<":133,"=":134,">":135,"?":136,"@":137,"[":138,"\\":139,"]":140,"^":141,"_":142,"a":143,"b":144,"c":145,"d":146,"e":147,"f":148,"g":149,"h":150,"i":151,"j":152,"k":153,"l":154,"m":155,"n":156,"o":157,"p":158,"q":159,"r":160,"s":161,"t":162,"u":163,"v":164,"w":165,"x":166,"y":167,"z":168,"{":169,"|":170,"}":171,"~":172,"¡":173,"¢":174,"£":175,"¤":176,"¥":177,"¦":178,"§":179,"¨":180,"©":181,"ª":182,"«":183,"¬":184,"®":185,"¯":186,"°":187,"±":188,"²":189,"³":190,"µ":191,"¶":192,"·":193,"¹":194,"º":195,"»":196,"¼":197,"½":198,"¾":199,"¿":200,"×":201,"ß":202,"æ":203,"ð":204,"÷":205,"ø":206,"þ":207,"đ":208,"ħ":209,"ı":210,"ĳ":211,"ł":212,"ŉ":213,"ŋ":214,"œ":215,"ſ":216,"ƒ":217,"ǁ":218,"ɐ":219,"ɑ":220,"ɒ":221,"ɓ":222,"ɔ":223,"ɕ":224,"ə":225,"ɛ":226,"ɟ":227,"ɡ":228,"ɣ":229,"ɤ":230,"ɦ":231,"ɨ":232,"ɪ":233,"ɫ":234,"ɬ":235,"ɯ":236,"ɲ":237,"ɴ":238,"ɸ":239,"ɹ":240,"ɾ":241,"ʀ":242,"ʁ":243,"ʂ":244,"ʃ":245,"ʉ":246,"ʊ":247,"ʋ":248,"ʌ":249,"ʎ":250,"ʐ":251,"ʑ":252,"ʒ":253,"ʔ":254,"ʕ":255,"ʙ":256,"ʝ":257,"ʤ":258,"ʦ":259,"ʧ":260,"ʰ":261,"ʲ":262,"ʳ":263,"ʷ":264,"ʸ":265,"ʻ":266,"ʼ":267,"ʾ":268,"ʿ":269,"ˁ":270,"ˈ":271,"ˋ":272,"ˌ":273,"ː":274,"˙":275,"˚":276,"ˡ":277,"ˢ":278,"ˣ":279,"΄":280,"α":281,"β":282,"γ":283,"δ":284,"ε":285,"ζ":286,"η":287,"θ":288,"ι":289,"κ":290,"λ":291,"μ":292,"ν":293,"ξ":294,"ο":295,"π":296,"ρ":297,"ς":298,"σ":299,"τ":300,"υ":301,"φ":302,"χ":303,"ψ":304,"ω":305,"ϕ":306,"а":307,"б":308,"в":309,"г":310,"д":311,"е":312,"ж":313,"з":314,"и":315,"к":316,"л":317,"м":318,"н":319,"о":320,"п":321,"р":322,"с":323,"т":324,"у":325,"ф":326,"х":327,"ц":328,"ч":329,"ш":330,"щ":331,"ъ":332,"ы":333,"ь":334,"э":335,"ю":336,"я":337,"ђ":338,"є":339,"ѕ":340,"і":341,"ј":342,"љ":343,"њ":344,"ћ":345,"џ":346,"ѣ":347,"ѧ":348,"ѫ":349,"ѳ":350,"ґ":351,"ғ":352,"җ":353,"ҙ":354,"қ":355,"ҡ":356,"ң":357,"ҫ":358,"ү":359,"ұ":360,"ҳ":361,"ҷ":362,"ҹ":363,"һ":364,"ӊ":365,"ӏ":366,"ә":367,"ө":368,"՚":369,"՛":370,"՜":371,"՝":372,"՞":373,"ա":374,"բ":375,"գ":376,"դ":377,"ե":378,"զ":379,"է":380,"ը":381,"թ":382,"ժ":383,"ի":384,"լ":385,"խ":386,"ծ":387,"կ":388,"հ":389,"ձ":390,"ղ":391,"ճ":392,"մ":393,"յ":394,"ն":395,"շ":396,"ո":397,"չ":398,"պ":399,"ջ":400,"ռ":401,"ս":402,"վ":403,"տ":404,"ր":405,"ց":406,"ւ":407,"փ":408,"ք":409,"օ":410,"ֆ":411,"և":412,"։":413,"֊":414,"־":415,"׃":416,"א":417,"ב":418,"ג":419,"ד":420,"ה":421,"ו":422,"ז":423,"ח":424,"ט":425,"י":426,"ך":427,"כ":428,"ל":429,"ם":430,"מ":431,"ן":432,"נ":433,"ס":434,"ע":435,"ף":436,"פ":437,"ץ":438,"צ":439,"ק":440,"ר":441,"ש":442,"ת":443,"׳":444,"״":445,"،":446,"؍":447,"؛":448,"؟":449,"ء":450,"ا":451,"ب":452,"ة":453,"ت":454,"ث":455,"ج":456,"ح":457,"خ":458,"د":459,"ذ":460,"ر":461,"ز":462,"س":463,"ش":464,"ص":465,"ض":466,"ط":467,"ظ":468,"ع":469,"غ":470,"ـ":471,"ف":472,"ق":473,"ك":474,"ل":475,"م":476,"ن":477,"ه":478,"و":479,"ى":480,"ي":481,"٠":482,"١":483,"٢":484,"٣":485,"٤":486,"٥":487,"٦":488,"٧":489,"٨":490,"٩":491,"٪":492,"٫":493,"٬":494,"٭":495,"ٴ":496,"ٹ":497,"پ":498,"چ":499,"ڈ":500,"ڑ":501,"ژ":502,"ڠ":503,"ڤ":504,"ک":505,"ڭ":506,"گ":507,"ں":508,"ھ":509,"ہ":510,"ۃ":511,"ۆ":512,"ۇ":513,"ۋ":514,"ی":515,"ێ":516,"ے":517,"۔":518,"ە":519,"۰":520,"۱":521,"۲":522,"۳":523,"۴":524,"۵":525,"۶":526,"۷":527,"۸":528,"۹":529,"ݨ":530,"ः":531,"अ":532,"आ":533,"इ":534,"ई":535,"उ":536,"ऊ":537,"ऋ":538,"ऍ":539,"ऎ":540,"ए":541,"ऐ":542,"ऑ":543,"ऒ":544,"ओ":545,"औ":546,"क":547,"ख":548,"ग":549,"घ":550,"ङ":551,"च":552,"छ":553,"ज":554,"झ":555,"ञ":556,"ट":557,"ठ":558,"ड":559,"ढ":560,"ण":561,"त":562,"थ":563,"द":564,"ध":565,"न":566,"प":567,"फ":568,"ब":569,"भ":570,"म":571,"य":572,"र":573,"ल":574,"ळ":575,"व":576,"श":577,"ष":578,"स":579,"ह":580,"ऽ":581,"ा":582,"ि":583,"ी":584,"ॉ":585,"ॊ":586,"ो":587,"ौ":588,"ॐ":589,"ॠ":590,"।":591,"॥":592,"०":593,"१":594,"२":595,"३":596,"४":597,"५":598,"६":599,"७":600,"८":601,"९":602,"॰":603,"ॲ":604,"ং":605,"ঃ":606,"অ":607,"আ":608,"ই":609,"ঈ":610,"উ":611,"ঊ":612,"ঋ":613,"এ":614,"ঐ":615,"ও":616,"ঔ":617,"ক":618,"খ":619,"গ":620,"ঘ":621,"ঙ":622,"চ":623,"ছ":624,"জ":625,"ঝ":626,"ঞ":627,"ট":628,"ঠ":629,"ড":630,"ঢ":631,"ণ":632,"ত":633,"থ":634,"দ":635,"ধ":636,"ন":637,"প":638,"ফ":639,"ব":640,"ভ":641,"ম":642,"য":643,"র":644,"ল":645,"শ":646,"ষ":647,"স":648,"হ":649,"া":650,"ি":651,"ী":652,"ে":653,"ৈ":654,"ৎ":655,"ৗ":656,"০":657,"১":658,"২":659,"৩":660,"৪":661,"৫":662,"৬":663,"৭":664,"৮":665,"৯":666,"ৰ":667,"ৱ":668,"৷":669,"ਅ":670,"ਆ":671,"ਇ":672,"ਈ":673,"ਉ":674,"ਊ":675,"ਏ":676,"ਐ":677,"ਓ":678,"ਔ":679,"ਕ":680,"ਖ":681,"ਗ":682,"ਘ":683,"ਚ":684,"ਛ":685,"ਜ":686,"ਝ":687,"ਟ":688,"ਠ":689,"ਡ":690,"ਢ":691,"ਣ":692,"ਤ":693,"ਥ":694,"ਦ":695,"ਧ":696,"ਨ":697,"ਪ":698,"ਫ":699,"ਬ":700,"ਭ":701,"ਮ":702,"ਯ":703,"ਰ":704,"ਲ":705,"ਵ":706,"ਸ":707,"ਹ":708,"ਾ":709,"ਿ":710,"ੀ":711,"ੜ":712,"੦":713,"੧":714,"੨":715,"੩":716,"੪":717,"੫":718,"੬":719,"੭":720,"੮":721,"੯":722,"ੲ":723,"ੳ":724,"ઃ":725,"અ":726,"આ":727,"ઇ":728,"ઈ":729,"ઉ":730,"ઊ":731,"ઋ":732,"ઍ":733,"એ":734,"ઐ":735,"ઑ":736,"ઓ":737,"ઔ":738,"ક":739,"ખ":740,"ગ":741,"ઘ":742,"ચ":743,"છ":744,"જ":745,"ઝ":746,"ઞ":747,"ટ":748,"ઠ":749,"ડ":750,"ઢ":751,"ણ":752,"ત":753,"થ":754,"દ":755,"ધ":756,"ન":757,"પ":758,"ફ":759,"બ":760,"ભ":761,"મ":762,"ય":763,"ર":764,"લ":765,"ળ":766,"વ":767,"શ":768,"ષ":769,"સ":770,"હ":771,"ા":772,"િ":773,"ી":774,"ૉ":775,"ો":776,"ૌ":777,"૦":778,"૧":779,"૨":780,"૩":781,"૪":782,"૫":783,"૬":784,"૭":785,"૮":786,"૯":787,"ஃ":788,"அ":789,"ஆ":790,"இ":791,"ஈ":792,"உ":793,"ஊ":794,"எ":795,"ஏ":796,"ஐ":797,"ஒ":798,"ஓ":799,"க":800,"ங":801,"ச":802,"ஜ":803,"ஞ":804,"ட":805,"ண":806,"த":807,"ந":808,"ன":809,"ப":810,"ம":811,"ய":812,"ர":813,"ற":814,"ல":815,"ள":816,"ழ":817,"வ":818,"ஷ":819,"ஸ":820,"ஹ":821,"ா":822,"ி":823,"ு":824,"ூ":825,"ெ":826,"ே":827,"ை":828,"ௗ":829,"ఁ":830,"ం":831,"ః":832,"అ":833,"ఆ":834,"ఇ":835,"ఈ":836,"ఉ":837,"ఊ":838,"ఋ":839,"ఎ":840,"ఏ":841,"ఐ":842,"ఒ":843,"ఓ":844,"ఔ":845,"క":846,"ఖ":847,"గ":848,"ఘ":849,"ఙ":850,"చ":851,"ఛ":852,"జ":853,"ఝ":854,"ఞ":855,"ట":856,"ఠ":857,"డ":858,"ఢ":859,"ణ":860,"త":861,"థ":862,"ద":863,"ధ":864,"న":865,"ప":866,"ఫ":867,"బ":868,"భ":869,"మ":870,"య":871,"ర":872,"ఱ":873,"ల":874,"ళ":875,"వ":876,"శ":877,"ష":878,"స":879,"హ":880,"ు":881,"ూ":882,"ృ":883,"ಂ":884,"ಃ":885,"ಅ":886,"ಆ":887,"ಇ":888,"ಈ":889,"ಉ":890,"ಊ":891,"ಋ":892,"ಎ":893,"ಏ":894,"ಐ":895,"ಒ":896,"ಓ":897,"ಔ":898,"ಕ":899,"ಖ":900,"ಗ":901,"ಘ":902,"ಚ":903,"ಛ":904,"ಜ":905,"ಝ":906,"ಞ":907,"ಟ":908,"ಠ":909,"ಡ":910,"ಢ":911,"ಣ":912,"ತ":913,"ಥ":914,"ದ":915,"ಧ":916,"ನ":917,"ಪ":918,"ಫ":919,"ಬ":920,"ಭ":921,"ಮ":922,"ಯ":923,"ರ":924,"ಲ":925,"ಳ":926,"ವ":927,"ಶ":928,"ಷ":929,"ಸ":930,"ಹ":931,"ಾ":932,"ು":933,"ೂ":934,"ೃ":935,"ೕ":936,"ೖ":937,"೦":938,"೧":939,"೨":940,"೩":941,"೪":942,"೫":943,"೬":944,"೭":945,"೮":946,"೯":947,"ം":948,"ഃ":949,"അ":950,"ആ":951,"ഇ":952,"ഈ":953,"ഉ":954,"ഊ":955,"ഋ":956,"എ":957,"ഏ":958,"ഐ":959,"ഒ":960,"ഓ":961,"ഔ":962,"ക":963,"ഖ":964,"ഗ":965,"ഘ":966,"ങ":967,"ച":968,"ഛ":969,"ജ":970,"ഝ":971,"ഞ":972,"ട":973,"ഠ":974,"ഡ":975,"ഢ":976,"ണ":977,"ത":978,"ഥ":979,"ദ":980,"ധ":981,"ന":982,"പ":983,"ഫ":984,"ബ":985,"ഭ":986,"മ":987,"യ":988,"ര":989,"റ":990,"ല":991,"ള":992,"ഴ":993,"വ":994,"ശ":995,"ഷ":996,"സ":997,"ഹ":998,"ാ":999,"ി":1000,"ീ":1001,"െ":1002,"േ":1003,"ൈ":1004,"ൗ":1005,"൧":1006,"൨":1007,"ൺ":1008,"ൻ":1009,"ർ":1010,"ൽ":1011,"ൾ":1012,"ൿ":1013,"ක":1014,"ද":1015,"ප":1016,"ම":1017,"ය":1018,"ර":1019,"ල":1020,"ශ":1021,"ා":1022,"ෙ":1023,"ก":1024,"ข":1025,"ค":1026,"ง":1027,"จ":1028,"ด":1029,"ต":1030,"ท":1031,"น":1032,"บ":1033,"ป":1034,"ภ":1035,"ม":1036,"ย":1037,"ร":1038,"ล":1039,"ว":1040,"ส":1041,"ห":1042,"อ":1043,"า":1044,"ำ":1045,"เ":1046,"แ":1047,"ไ":1048,"་":1049,"།":1050,"ཀ":1051,"ཁ":1052,"ག":1053,"ང":1054,"ཆ":1055,"ད":1056,"ན":1057,"པ":1058,"ཕ":1059,"བ":1060,"མ":1061,"ཚ":1062,"ཟ":1063,"འ":1064,"ར":1065,"ལ":1066,"ཤ":1067,"ས":1068,"က":1069,"ခ":1070,"ဂ":1071,"ဃ":1072,"င":1073,"စ":1074,"ဆ":1075,"ဇ":1076,"ဈ":1077,"ဉ":1078,"ည":1079,"ဋ":1080,"ဌ":1081,"ဍ":1082,"ဏ":1083,"တ":1084,"ထ":1085,"ဒ":1086,"ဓ":1087,"န":1088,"ပ":1089,"ဖ":1090,"ဗ":1091,"ဘ":1092,"မ":1093,"ယ":1094,"ရ":1095,"လ":1096,"ဝ":1097,"သ":1098,"ဟ":1099,"ဠ":1100,"အ":1101,"ဤ":1102,"ဥ":1103,"ဧ":1104,"ဩ":1105,"ါ":1106,"ာ":1107,"ေ":1108,"း":1109,"ျ":1110,"ြ":1111,"ဿ":1112,"၀":1113,"၁":1114,"၂":1115,"၃":1116,"၄":1117,"၅":1118,"၆":1119,"၇":1120,"၈":1121,"၉":1122,"၊":1123,"။":1124,"၌":1125,"၍":1126,"၎":1127,"၏":1128,"ა":1129,"ბ":1130,"გ":1131,"დ":1132,"ე":1133,"ვ":1134,"ზ":1135,"თ":1136,"ი":1137,"კ":1138,"ლ":1139,"მ":1140,"ნ":1141,"ო":1142,"პ":1143,"ჟ":1144,"რ":1145,"ს":1146,"ტ":1147,"უ":1148,"ფ":1149,"ქ":1150,"ღ":1151,"ყ":1152,"შ":1153,"ჩ":1154,"ც":1155,"ძ":1156,"წ":1157,"ჭ":1158,"ხ":1159,"ჯ":1160,"ჰ":1161,"ჲ":1162,"ᄀ":1163,"ᄁ":1164,"ᄂ":1165,"ᄃ":1166,"ᄄ":1167,"ᄅ":1168,"ᄆ":1169,"ᄇ":1170,"ᄈ":1171,"ᄉ":1172,"ᄊ":1173,"ᄋ":1174,"ᄌ":1175,"ᄍ":1176,"ᄎ":1177,"ᄏ":1178,"ᄐ":1179,"ᄑ":1180,"ᄒ":1181,"ᅡ":1182,"ᅢ":1183,"ᅣ":1184,"ᅤ":1185,"ᅥ":1186,"ᅦ":1187,"ᅧ":1188,"ᅨ":1189,"ᅩ":1190,"ᅪ":1191,"ᅫ":1192,"ᅬ":1193,"ᅭ":1194,"ᅮ":1195,"ᅯ":1196,"ᅰ":1197,"ᅱ":1198,"ᅲ":1199,"ᅳ":1200,"ᅴ":1201,"ᅵ":1202,"ᆨ":1203,"ᆩ":1204,"ᆪ":1205,"ᆫ":1206,"ᆬ":1207,"ᆭ":1208,"ᆮ":1209,"ᆯ":1210,"ᆰ":1211,"ᆱ":1212,"ᆲ":1213,"ᆵ":1214,"ᆶ":1215,"ᆷ":1216,"ᆸ":1217,"ᆹ":1218,"ᆺ":1219,"ᆻ":1220,"ᆼ":1221,"ᆽ":1222,"ᆾ":1223,"ᆿ":1224,"ᇀ":1225,"ᇁ":1226,"ᇂ":1227,"᛫":1228,"᛬":1229,"ᠠ":1230,"ᠨ":1231,"ᠬ":1232,"ᠭ":1233,"ᠰ":1234,"ᡳ":1235,"ᴬ":1236,"ᴮ":1237,"ᴰ":1238,"ᴵ":1239,"ᴶ":1240,"ᴷ":1241,"ᴺ":1242,"ᴼ":1243,"ᴾ":1244,"ᴿ":1245,"ᵀ":1246,"ᵂ":1247,"ᵃ":1248,"ᵇ":1249,"ᵈ":1250,"ᵉ":1251,"ᵍ":1252,"ᵏ":1253,"ᵐ":1254,"ᵒ":1255,"ᵖ":1256,"ᵗ":1257,"ᵘ":1258,"ᵛ":1259,"ᵢ":1260,"ᵣ":1261,"ᵤ":1262,"ᵥ":1263,"ᶜ":1264,"ᶠ":1265,"ᶻ":1266,"᾽":1267,"‖":1268,"‚":1269,"‛":1270,"„":1271,"‟":1272,"†":1273,"‡":1274,"•":1275,"․":1276,"‥":1277,"‧":1278," ":1279,"‰":1280,"′":1281,"″":1282,"‹":1283,"›":1284,"※":1285,"‼":1286,"‿":1287,"⁄":1288,"⁰":1289,"ⁱ":1290,"⁴":1291,"⁵":1292,"⁶":1293,"⁷":1294,"⁸":1295,"⁹":1296,"⁺":1297,"⁻":1298,"⁾":1299,"ⁿ":1300,"₀":1301,"₁":1302,"₂":1303,"₃":1304,"₄":1305,"₅":1306,"₆":1307,"₇":1308,"₈":1309,"₉":1310,"₊":1311,"₍":1312,"₎":1313,"ₐ":1314,"ₑ":1315,"ₒ":1316,"ₓ":1317,"ₕ":1318,"ₖ":1319,"ₗ":1320,"ₘ":1321,"ₙ":1322,"ₚ":1323,"ₛ":1324,"ₜ":1325,"₤":1326,"₩":1327,"₪":1328,"€":1329,"₱":1330,"₴":1331,"₹":1332,"ℂ":1333,"℃":1334,"ℓ":1335,"ℕ":1336,"№":1337,"ℚ":1338,"ℝ":1339,"™":1340,"ℤ":1341,"⅓":1342,"⅔":1343,"⅛":1344,"ⅰ":1345,"ⅱ":1346,"ⅲ":1347,"ⅳ":1348,"ⅴ":1349,"ⅵ":1350,"ⅶ":1351,"←":1352,"↑":1353,"→":1354,"↓":1355,"↔":1356,"↗":1357,"↦":1358,"↺":1359,"⇄":1360,"⇌":1361,"⇒":1362,"⇔":1363,"⇧":1364,"∀":1365,"∂":1366,"∃":1367,"∅":1368,"∆":1369,"∇":1370,"∈":1371,"∑":1372,"−":1373,"∕":1374,"∗":1375,"∘":1376,"∙":1377,"√":1378,"∞":1379,"∥":1380,"∧":1381,"∨":1382,"∩":1383,"∪":1384,"∫":1385,"∴":1386,"∼":1387,"≅":1388,"≈":1389,"≒":1390,"≡":1391,"≤":1392,"≥":1393,"≪":1394,"≫":1395,"⊂":1396,"⊃":1397,"⊆":1398,"⊕":1399,"⊗":1400,"⊙":1401,"⊞":1402,"⊥":1403,"⋅":1404,"⋯":1405,"①":1406,"②":1407,"③":1408,"④":1409,"⑤":1410,"⑥":1411,"⑦":1412,"⑧":1413,"ⓐ":1414,"─":1415,"━":1416,"│":1417,"┃":1418,"┏":1419,"┓":1420,"└":1421,"┗":1422,"┛":1423,"├":1424,"┣":1425,"┫":1426,"┬":1427,"┳":1428,"║":1429,"╱":1430,"█":1431,"■":1432,"□":1433,"▪":1434,"▬":1435,"▭":1436,"▲":1437,"△":1438,"▶":1439,"►":1440,"▼":1441,"▽":1442,"◆":1443,"◇":1444,"◊":1445,"○":1446,"◌":1447,"◎":1448,"●":1449,"◡":1450,"◦":1451,"◯":1452,"★":1453,"☆":1454,"☉":1455,"♀":1456,"♂":1457,"♕":1458,"♖":1459,"♗":1460,"♘":1461,"♙":1462,"♠":1463,"♡":1464,"♣":1465,"♥":1466,"♦":1467,"♪":1468,"♭":1469,"♯":1470,"⚭":1471,"✝":1472,"⟨":1473,"⟩":1474,"⟪":1475,"⟫":1476,"⟶":1477,"ⱼ":1478,"ⵏ":1479,"⺩":1480,"⽥":1481,"、":1482,"。":1483,"〃":1484,"々":1485,"〆":1486,"〇":1487,"〈":1488,"〉":1489,"《":1490,"》":1491,"「":1492,"」":1493,"『":1494,"』":1495,"【":1496,"】":1497,"〒":1498,"〔":1499,"〕":1500,"〖":1501,"〗":1502,"〜":1503,"〝":1504,"〞":1505,"〟":1506,"ぁ":1507,"あ":1508,"ぃ":1509,"い":1510,"ぅ":1511,"う":1512,"ぇ":1513,"え":1514,"ぉ":1515,"お":1516,"か":1517,"き":1518,"く":1519,"け":1520,"こ":1521,"さ":1522,"し":1523,"す":1524,"せ":1525,"そ":1526,"た":1527,"ち":1528,"っ":1529,"つ":1530,"て":1531,"と":1532,"な":1533,"に":1534,"ぬ":1535,"ね":1536,"の":1537,"は":1538,"ひ":1539,"ふ":1540,"へ":1541,"ほ":1542,"ま":1543,"み":1544,"む":1545,"め":1546,"も":1547,"ゃ":1548,"や":1549,"ゅ":1550,"ゆ":1551,"ょ":1552,"よ":1553,"ら":1554,"り":1555,"る":1556,"れ":1557,"ろ":1558,"わ":1559,"ゐ":1560,"ゑ":1561,"を":1562,"ん":1563,"ゝ":1564,"ァ":1565,"ア":1566,"ィ":1567,"イ":1568,"ゥ":1569,"ウ":1570,"ェ":1571,"エ":1572,"ォ":1573,"オ":1574,"カ":1575,"キ":1576,"ク":1577,"ケ":1578,"コ":1579,"サ":1580,"シ":1581,"ス":1582,"セ":1583,"ソ":1584,"タ":1585,"チ":1586,"ッ":1587,"ツ":1588,"テ":1589,"ト":1590,"ナ":1591,"ニ":1592,"ヌ":1593,"ネ":1594,"ノ":1595,"ハ":1596,"ヒ":1597,"フ":1598,"ヘ":1599,"ホ":1600,"マ":1601,"ミ":1602,"ム":1603,"メ":1604,"モ":1605,"ャ":1606,"ヤ":1607,"ュ":1608,"ユ":1609,"ョ":1610,"ヨ":1611,"ラ":1612,"リ":1613,"ル":1614,"レ":1615,"ロ":1616,"ワ":1617,"ヰ":1618,"ヱ":1619,"ヲ":1620,"ン":1621,"ヵ":1622,"ヶ":1623,"・":1624,"ー":1625,"ㄚ":1626,"ㄧ":1627,"ㄨ":1628,"ㄱ":1629,"ㄴ":1630,"ㄷ":1631,"ㄹ":1632,"ㅁ":1633,"ㅂ":1634,"ㅅ":1635,"ㅇ":1636,"ㅈ":1637,"ㅡ":1638,"ㅣ":1639,"ㆍ":1640,"㈱":1641,"㎒":1642,"㎞":1643,"㎡":1644,"㭴":1645,"㹴":1646,"䜣":1647,"䲁":1648,"䲗":1649,"䲢":1650,"一":1651,"丁":1652,"七":1653,"万":1654,"丈":1655,"三":1656,"上":1657,"下":1658,"不":1659,"与":1660,"丐":1661,"丑":1662,"专":1663,"且":1664,"丕":1665,"世":1666,"丘":1667,"丙":1668,"业":1669,"丛":1670,"东":1671,"丝":1672,"丞":1673,"丟":1674,"両":1675,"丢":1676,"两":1677,"严":1678,"並":1679,"丧":1680,"个":1681,"丫":1682,"中":1683,"丰":1684,"串":1685,"临":1686,"丶":1687,"丸":1688,"丹":1689,"为":1690,"主":1691,"丼":1692,"丽":1693,"举":1694,"乂":1695,"乃":1696,"久":1697,"么":1698,"义":1699,"之":1700,"乌":1701,"乍":1702,"乎":1703,"乏":1704,"乐":1705,"乒":1706,"乓":1707,"乔":1708,"乖":1709,"乗":1710,"乘":1711,"乙":1712,"乜":1713,"九":1714,"乞":1715,"也":1716,"习":1717,"乡":1718,"书":1719,"乩":1720,"乭":1721,"买":1722,"乱":1723,"乳":1724,"乾":1725,"亀":1726,"亂":1727,"了":1728,"予":1729,"争":1730,"事":1731,"二":1732,"于":1733,"亏":1734,"云":1735,"互":1736,"五":1737,"井":1738,"亘":1739,"亙":1740,"亚":1741,"些":1742,"亜":1743,"亞":1744,"亟":1745,"亡":1746,"亢":1747,"交":1748,"亥":1749,"亦":1750,"产":1751,"亨":1752,"亩":1753,"享":1754,"京":1755,"亭":1756,"亮":1757,"亰":1758,"亲":1759,"亳":1760,"亵":1761,"亶":1762,"人":1763,"亻":1764,"亿":1765,"什":1766,"仁":1767,"仃":1768,"仄":1769,"仅":1770,"仆":1771,"仇":1772,"今":1773,"介":1774,"仍":1775,"从":1776,"仏":1777,"仑":1778,"仓":1779,"仔":1780,"仕":1781,"他":1782,"仗":1783,"付":1784,"仙":1785,"仝":1786,"仞":1787,"仟":1788,"仡":1789,"代":1790,"令":1791,"以":1792,"仪":1793,"们":1794,"仮":1795,"仰":1796,"仲":1797,"仵":1798,"件":1799,"价":1800,"任":1801,"份":1802,"仿":1803,"企":1804,"伉":1805,"伊":1806,"伋":1807,"伍":1808,"伎":1809,"伏":1810,"伐":1811,"休":1812,"伕":1813,"众":1814,"优":1815,"伙":1816,"会":1817,"伝":1818,"伞":1819,"伟":1820,"传":1821,"伤":1822,"伦":1823,"伪":1824,"伫":1825,"伯":1826,"估":1827,"伴":1828,"伶":1829,"伷":1830,"伸":1831,"伺":1832,"似":1833,"伽":1834,"佃":1835,"但":1836,"佇":1837,"佈":1838,"佉":1839,"位":1840,"低":1841,"住":1842,"佐":1843,"佑":1844,"体":1845,"佔":1846,"何":1847,"佗":1848,"佘":1849,"余":1850,"佚":1851,"佛":1852,"作":1853,"佞":1854,"佟":1855,"你":1856,"佢":1857,"佣":1858,"佤":1859,"佥":1860,"佩":1861,"佬":1862,"佯":1863,"佰":1864,"佳":1865,"併":1866,"佶":1867,"佺":1868,"佻":1869,"佼":1870,"佾":1871,"使":1872,"侂":1873,"侃":1874,"侄":1875,"來":1876,"侈":1877,"例":1878,"侍":1879,"侏":1880,"侑":1881,"侖":1882,"侗":1883,"侘":1884,"供":1885,"依":1886,"侠":1887,"価":1888,"侣":1889,"侥":1890,"侦":1891,"侧":1892,"侨":1893,"侪":1894,"侬":1895,"侭":1896,"侮":1897,"侯":1898,"侵":1899,"侶":1900,"侷":1901,"便":1902,"俁":1903,"係":1904,"促":1905,"俄":1906,"俅":1907,"俊":1908,"俎":1909,"俏":1910,"俐":1911,"俑":1912,"俗":1913,"俘":1914,"俚":1915,"保":1916,"俞":1917,"俟":1918,"俠":1919,"信":1920,"俣":1921,"俥":1922,"俦":1923,"俨":1924,"俩":1925,"俪":1926,"俬":1927,"俭":1928,"修":1929,"俯":1930,"俱":1931,"俳":1932,"俵":1933,"俶":1934,"俸":1935,"俺":1936,"俾":1937,"倂":1938,"倆":1939,"倉":1940,"個":1941,"倍":1942,"們":1943,"倒":1944,"倓":1945,"倔":1946,"倖":1947,"倘":1948,"候":1949,"倚":1950,"倜":1951,"借":1952,"倡":1953,"倣":1954,"値":1955,"倦":1956,"倧":1957,"倩":1958,"倪":1959,"倫":1960,"倬":1961,"倭":1962,"倮":1963,"倶":1964,"倹":1965,"债":1966,"倻":1967,"值":1968,"倾":1969,"偁":1970,"偃":1971,"假":1972,"偈":1973,"偉":1974,"偏":1975,"偕":1976,"做":1977,"停":1978,"健":1979,"偰":1980,"偲":1981,"側":1982,"偵":1983,"偶":1984,"偷":1985,"偽":1986,"偿":1987,"傀":1988,"傅":1989,"傈":1990,"傉":1991,"傍":1992,"傑":1993,"傕":1994,"傘":1995,"備":1996,"傚":1997,"傢":1998,"傣":1999,"储":2000,"催":2001,"傭":2002,"傲":2003,"傳":2004,"債":2005,"傷":2006,"傻":2007,"傾":2008,"僅":2009,"僉":2010,"僊":2011,"働":2012,"像":2013,"僑":2014,"僕":2015,"僖":2016,"僚":2017,"僞":2018,"僥":2019,"僧":2020,"僭":2021,"僮":2022,"僱":2023,"僳":2024,"僵":2025,"價":2026,"僻":2027,"儀":2028,"儁":2029,"儂":2030,"億":2031,"儆":2032,"儉":2033,"儋":2034,"儒":2035,"儔":2036,"儕":2037,"儘":2038,"儚":2039,"償":2040,"儡":2041,"優":2042,"儲":2043,"儷":2044,"儸":2045,"儺":2046,"儼":2047,"儿":2048,"兀":2049,"允":2050,"元":2051,"兄":2052,"充":2053,"兆":2054,"兇":2055,"先":2056,"光":2057,"克":2058,"兌":2059,"免":2060,"兎":2061,"児":2062,"兑":2063,"兒":2064,"兔":2065,"兖":2066,"兗":2067,"党":2068,"兜":2069,"兢":2070,"入":2071,"內":2072,"全":2073,"兩":2074,"兪":2075,"八":2076,"公":2077,"六":2078,"兮":2079,"兰":2080,"共":2081,"关":2082,"兴":2083,"兵":2084,"其":2085,"具":2086,"典":2087,"兹":2088,"养":2089,"兼":2090,"兽":2091,"冀":2092,"内":2093,"円":2094,"冇":2095,"冈":2096,"冉":2097,"冊":2098,"册":2099,"再":2100,"冏":2101,"冑":2102,"冒":2103,"冕":2104,"冗":2105,"写":2106,"军":2107,"农":2108,"冠":2109,"冢":2110,"冤":2111,"冥":2112,"冨":2113,"冪":2114,"冬":2115,"冯":2116,"冰":2117,"冲":2118,"决":2119,"冴":2120,"况":2121,"冶":2122,"冷":2123,"冻":2124,"冼":2125,"冽":2126,"净":2127,"凄":2128,"准":2129,"凈":2130,"凉":2131,"凊":2132,"凋":2133,"凌":2134,"凍":2135,"减":2136,"凑":2137,"凖":2138,"凛":2139,"凜":2140,"凝":2141,"几":2142,"凡":2143,"凤":2144,"処":2145,"凧":2146,"凪":2147,"凫":2148,"凭":2149,"凯":2150,"凰":2151,"凱":2152,"凳":2153,"凶":2154,"凸":2155,"凹":2156,"出":2157,"击":2158,"凼":2159,"函":2160,"凿":2161,"刀":2162,"刁":2163,"刃":2164,"分":2165,"切":2166,"刈":2167,"刊":2168,"刍":2169,"刎":2170,"刑":2171,"划":2172,"列":2173,"刘":2174,"则":2175,"刚":2176,"创":2177,"初":2178,"删":2179,"判":2180,"別":2181,"刨":2182,"利":2183,"刪":2184,"别":2185,"刮":2186,"到":2187,"刳":2188,"制":2189,"刷":2190,"券":2191,"刹":2192,"刺":2193,"刻":2194,"刽":2195,"剁":2196,"剂":2197,"剃":2198,"則":2199,"削":2200,"剋":2201,"剌":2202,"前":2203,"剎":2204,"剑":2205,"剔":2206,"剖":2207,"剛":2208,"剝":2209,"剡":2210,"剣":2211,"剤":2212,"剥":2213,"剧":2214,"剩":2215,"剪":2216,"副":2217,"剰":2218,"剱":2219,"割":2220,"創":2221,"剷":2222,"剽":2223,"剿":2224,"劃":2225,"劇":2226,"劈":2227,"劉":2228,"劊":2229,"劍":2230,"劑":2231,"劔":2232,"力":2233,"劝":2234,"办":2235,"功":2236,"加":2237,"务":2238,"劢":2239,"劣":2240,"动":2241,"助":2242,"努":2243,"劫":2244,"劭":2245,"励":2246,"劲":2247,"劳":2248,"労":2249,"劵":2250,"効":2251,"劻":2252,"劾":2253,"势":2254,"勁":2255,"勃":2256,"勅":2257,"勇":2258,"勉":2259,"勋":2260,"勐":2261,"勒":2262,"勔":2263,"動":2264,"勖":2265,"勗":2266,"勘":2267,"務":2268,"勛":2269,"勝":2270,"勞":2271,"募":2272,"勢":2273,"勣":2274,"勤":2275,"勧":2276,"勰":2277,"勱":2278,"勲":2279,"勳":2280,"勵":2281,"勸":2282,"勺":2283,"勻":2284,"勾":2285,"勿":2286,"匀":2287,"匁":2288,"匂":2289,"包":2290,"匆":2291,"匈":2292,"匍":2293,"匏":2294,"匐":2295,"匕":2296,"化":2297,"北":2298,"匙":2299,"匝":2300,"匠":2301,"匡":2302,"匣":2303,"匪":2304,"匮":2305,"匯":2306,"匱":2307,"匹":2308,"区":2309,"医":2310,"匾":2311,"匿":2312,"區":2313,"十":2314,"千":2315,"卅":2316,"升":2317,"午":2318,"卉":2319,"半":2320,"卍":2321,"华":2322,"协":2323,"卐":2324,"卑":2325,"卒":2326,"卓":2327,"協":2328,"单":2329,"卖":2330,"南":2331,"単":2332,"博":2333,"卜":2334,"卞":2335,"卟":2336,"占":2337,"卡":2338,"卢":2339,"卤":2340,"卦":2341,"卧":2342,"卫":2343,"卬":2344,"卯":2345,"印":2346,"危":2347,"即":2348,"却":2349,"卵":2350,"卷":2351,"卸":2352,"卹":2353,"卻":2354,"卽":2355,"卿":2356,"厂":2357,"厄":2358,"厅":2359,"历":2360,"厉":2361,"压":2362,"厌":2363,"厓":2364,"厔":2365,"厕":2366,"厘":2367,"厚":2368,"厝":2369,"原":2370,"厢":2371,"厥":2372,"厦":2373,"厨":2374,"厩":2375,"厭":2376,"厮":2377,"厲":2378,"厳":2379,"去":2380,"县":2381,"叁":2382,"参":2383,"參":2384,"叄":2385,"又":2386,"叉":2387,"及":2388,"友":2389,"双":2390,"反":2391,"収":2392,"发":2393,"叔":2394,"取":2395,"受":2396,"变":2397,"叙":2398,"叛":2399,"叟":2400,"叠":2401,"叡":2402,"叢":2403,"口":2404,"古":2405,"句":2406,"另":2407,"叨":2408,"叩":2409,"只":2410,"叫":2411,"召":2412,"叭":2413,"叮":2414,"可":2415,"台":2416,"叱":2417,"史":2418,"右":2419,"叶":2420,"号":2421,"司":2422,"叹":2423,"叻":2424,"叼":2425,"吁":2426,"吃":2427,"各":2428,"合":2429,"吉":2430,"吊":2431,"吋":2432,"同":2433,"名":2434,"后":2435,"吏":2436,"吐":2437,"向":2438,"吒":2439,"吓":2440,"吕":2441,"吗":2442,"君":2443,"吝":2444,"吞":2445,"吟":2446,"吠":2447,"吡":2448,"否":2449,"吧":2450,"吨":2451,"吩":2452,"含":2453,"听":2454,"吮":2455,"启":2456,"吱":2457,"吲":2458,"吳":2459,"吴":2460,"吵":2461,"吶":2462,"吸":2463,"吹":2464,"吻":2465,"吼":2466,"吽":2467,"吾":2468,"呀":2469,"呂":2470,"呃":2471,"呆":2472,"呈":2473,"呉":2474,"告":2475,"呋":2476,"呎":2477,"呐":2478,"呑":2479,"呕":2480,"呗":2481,"员":2482,"呛":2483,"呜":2484,"呟":2485,"呢":2486,"呤":2487,"呦":2488,"周":2489,"呪":2490,"呱":2491,"味":2492,"呵":2493,"呷":2494,"呻":2495,"呼":2496,"命":2497,"咀":2498,"咁":2499,"咄":2500,"咆":2501,"咋":2502,"和":2503,"咎":2504,"咏":2505,"咐":2506,"咒":2507,"咔":2508,"咕":2509,"咖":2510,"咗":2511,"咙":2512,"咚":2513,"咤":2514,"咥":2515,"咧":2516,"咨":2517,"咩":2518,"咪":2519,"咫":2520,"咬":2521,"咭":2522,"咯":2523,"咱":2524,"咲":2525,"咳":2526,"咸":2527,"咽":2528,"咿":2529,"哀":2530,"品":2531,"哂":2532,"哄":2533,"哆":2534,"哇":2535,"哈":2536,"哉":2537,"哋":2538,"哌":2539,"响":2540,"哎":2541,"哏":2542,"哑":2543,"哒":2544,"哔":2545,"哗":2546,"哙":2547,"哚":2548,"哟":2549,"員":2550,"哥":2551,"哦":2552,"哨":2553,"哩":2554,"哪":2555,"哭":2556,"哮":2557,"哲":2558,"哺":2559,"哼":2560,"哽":2561,"唁":2562,"唄":2563,"唆":2564,"唇":2565,"唎":2566,"唐":2567,"唑":2568,"唔":2569,"唖":2570,"唛":2571,"唢":2572,"唤":2573,"唧":2574,"唬":2575,"唭":2576,"售":2577,"唯":2578,"唱":2579,"唵":2580,"唷":2581,"唸":2582,"唾":2583,"啃":2584,"啄":2585,"商":2586,"啉":2587,"啊":2588,"問":2589,"啓":2590,"啖":2591,"啜":2592,"啞":2593,"啟":2594,"啡":2595,"啤":2596,"啥":2597,"啦":2598,"啪":2599,"啬":2600,"啮":2601,"啰":2602,"啲":2603,"啶":2604,"啸":2605,"啼":2606,"啾":2607,"喀":2608,"喂":2609,"喃":2610,"善":2611,"喆":2612,"喇":2613,"喉":2614,"喊":2615,"喋":2616,"喔":2617,"喘":2618,"喙":2619,"喚":2620,"喜":2621,"喝":2622,"喧":2623,"喩":2624,"喪":2625,"喫":2626,"喬":2627,"單":2628,"喰":2629,"喱":2630,"喲":2631,"喵":2632,"営":2633,"喷":2634,"喹":2635,"喺":2636,"喻":2637,"嗅":2638,"嗆":2639,"嗇":2640,"嗎":2641,"嗓":2642,"嗔":2643,"嗚":2644,"嗜":2645,"嗝":2646,"嗟":2647,"嗡":2648,"嗣":2649,"嗤":2650,"嗨":2651,"嗩":2652,"嗪":2653,"嗯":2654,"嗲":2655,"嗶":2656,"嗽":2657,"嘅":2658,"嘆":2659,"嘈":2660,"嘉":2661,"嘌":2662,"嘎":2663,"嘏":2664,"嘔":2665,"嘗":2666,"嘘":2667,"嘛":2668,"嘜":2669,"嘟":2670,"嘢":2671,"嘧":2672,"嘩":2673,"嘯":2674,"嘱":2675,"嘲":2676,"嘴":2677,"嘶":2678,"嘹":2679,"嘻":2680,"嘿":2681,"噁":2682,"噂":2683,"噌":2684,"噏":2685,"噓":2686,"噗":2687,"噛":2688,"噜":2689,"噠":2690,"噢":2691,"噤":2692,"器":2693,"噩":2694,"噪":2695,"噫":2696,"噬":2697,"噱":2698,"噲":2699,"噴":2700,"噶":2701,"噸":2702,"噹":2703,"噺":2704,"噻":2705,"嚆":2706,"嚇":2707,"嚈":2708,"嚎":2709,"嚏":2710,"嚐":2711,"嚕":2712,"嚙":2713,"嚟":2714,"嚢":2715,"嚣":2716,"嚥":2717,"嚨":2718,"嚮":2719,"嚴":2720,"嚷":2721,"嚼":2722,"囁":2723,"囂":2724,"囃":2725,"囉":2726,"囊":2727,"囍":2728,"囑":2729,"囓":2730,"囗":2731,"囚":2732,"四":2733,"囝":2734,"回":2735,"因":2736,"囡":2737,"团":2738,"団":2739,"囤":2740,"囧":2741,"囪":2742,"园":2743,"囮":2744,"困":2745,"囱":2746,"囲":2747,"図":2748,"围":2749,"固":2750,"国":2751,"图":2752,"囿":2753,"圀":2754,"圃":2755,"圆":2756,"圈":2757,"圉":2758,"國":2759,"圍":2760,"圏":2761,"園":2762,"圓":2763,"圖":2764,"團":2765,"圜":2766,"土":2767,"圣":2768,"圧":2769,"在":2770,"圩":2771,"圪":2772,"圭":2773,"圮":2774,"圯":2775,"地":2776,"圳":2777,"圹":2778,"场":2779,"圻":2780,"圾":2781,"址":2782,"坂":2783,"均":2784,"坊":2785,"坌":2786,"坍":2787,"坎":2788,"坏":2789,"坐":2790,"坑":2791,"块":2792,"坚":2793,"坛":2794,"坜":2795,"坝":2796,"坞":2797,"坟":2798,"坠":2799,"坡":2800,"坤":2801,"坦":2802,"坨":2803,"坩":2804,"坪":2805,"坬":2806,"坭":2807,"坯":2808,"坳":2809,"坵":2810,"坷":2811,"坻":2812,"垂":2813,"垃":2814,"垄":2815,"垅":2816,"垈":2817,"型":2818,"垌":2819,"垒":2820,"垓":2821,"垕":2822,"垚":2823,"垛":2824,"垟":2825,"垠":2826,"垡":2827,"垢":2828,"垣":2829,"垦":2830,"垩":2831,"垫":2832,"垭":2833,"垮":2834,"垴":2835,"垵":2836,"垸":2837,"埂":2838,"埃":2839,"埈":2840,"埋":2841,"城":2842,"埏":2843,"埒":2844,"埔":2845,"埕":2846,"埗":2847,"埙":2848,"埜":2849,"埝":2850,"域":2851,"埠":2852,"埡":2853,"埤":2854,"埭":2855,"埴":2856,"埵":2857,"執":2858,"埸":2859,"培":2860,"基":2861,"埼":2862,"堀":2863,"堂":2864,"堃":2865,"堅":2866,"堆":2867,"堇":2868,"堉":2869,"堊":2870,"堑":2871,"堕":2872,"堝":2873,"堞":2874,"堡":2875,"堤":2876,"堪":2877,"堯":2878,"堰":2879,"報":2880,"場":2881,"堵":2882,"堺":2883,"塀":2884,"塁":2885,"塊":2886,"塋":2887,"塌":2888,"塑":2889,"塔":2890,"塗":2891,"塘":2892,"塙":2893,"塚":2894,"塞":2895,"塡":2896,"塢":2897,"塩":2898,"填":2899,"塬":2900,"塭":2901,"塱":2902,"塵":2903,"塹":2904,"塽":2905,"塾":2906,"墀":2907,"境":2908,"墅":2909,"墉":2910,"墊":2911,"墓":2912,"墕":2913,"増":2914,"墘":2915,"墙":2916,"墜":2917,"增":2918,"墟":2919,"墨":2920,"墩":2921,"墬":2922,"墮":2923,"墳":2924,"墺":2925,"墻":2926,"墾":2927,"壁":2928,"壅":2929,"壆":2930,"壇":2931,"壊":2932,"壌":2933,"壑":2934,"壓":2935,"壕":2936,"壘":2937,"壙":2938,"壞":2939,"壟":2940,"壠":2941,"壢":2942,"壤":2943,"壩":2944,"士":2945,"壬":2946,"壮":2947,"壯":2948,"声":2949,"壱":2950,"売":2951,"壳":2952,"壶":2953,"壷":2954,"壹":2955,"壺":2956,"壽":2957,"处":2958,"备":2959,"変":2960,"复":2961,"夏":2962,"夔":2963,"夕":2964,"外":2965,"夙":2966,"多":2967,"夜":2968,"够":2969,"夠":2970,"夢":2971,"夤":2972,"夥":2973,"大":2974,"天":2975,"太":2976,"夫":2977,"夭":2978,"央":2979,"夯":2980,"失":2981,"头":2982,"夷":2983,"夸":2984,"夹":2985,"夺":2986,"夼":2987,"夾":2988,"奂":2989,"奄":2990,"奇":2991,"奈":2992,"奉":2993,"奋":2994,"奎":2995,"奏":2996,"奐":2997,"契":2998,"奔":2999,"奕":3000,"奖":3001,"套":3002,"奘":3003,"奚":3004,"奠":3005,"奢":3006,"奥":3007,"奧":3008,"奨":3009,"奪":3010,"奬":3011,"奭":3012,"奮":3013,"女":3014,"奴":3015,"奶":3016,"奸":3017,"她":3018,"好":3019,"如":3020,"妃":3021,"妄":3022,"妆":3023,"妇":3024,"妈":3025,"妊":3026,"妍":3027,"妒":3028,"妓":3029,"妖":3030,"妙":3031,"妝":3032,"妞":3033,"妣":3034,"妤":3035,"妥":3036,"妨":3037,"妫":3038,"妬":3039,"妮":3040,"妲":3041,"妳":3042,"妹":3043,"妻":3044,"妾":3045,"姆":3046,"姉":3047,"姊":3048,"始":3049,"姍":3050,"姐":3051,"姑":3052,"姒":3053,"姓":3054,"委":3055,"姗":3056,"姚":3057,"姜":3058,"姝":3059,"姣":3060,"姥":3061,"姦":3062,"姨":3063,"姪":3064,"姫":3065,"姬":3066,"姵":3067,"姶":3068,"姻":3069,"姿":3070,"威":3071,"娃":3072,"娄":3073,"娅":3074,"娆":3075,"娇":3076,"娉":3077,"娑":3078,"娓":3079,"娘":3080,"娛":3081,"娜":3082,"娟":3083,"娠":3084,"娣":3085,"娥":3086,"娩":3087,"娯":3088,"娱":3089,"娲":3090,"娴":3091,"娶":3092,"娼":3093,"婁":3094,"婆":3095,"婉":3096,"婕":3097,"婚":3098,"婢":3099,"婦":3100,"婧":3101,"婪":3102,"婬":3103,"婭":3104,"婴":3105,"婵":3106,"婶":3107,"婷":3108,"婺":3109,"婿":3110,"媒":3111,"媚":3112,"媛":3113,"媞":3114,"媧":3115,"媯":3116,"媲":3117,"媳":3118,"媽":3119,"媾":3120,"嫁":3121,"嫂":3122,"嫄":3123,"嫉":3124,"嫌":3125,"嫔":3126,"嫖":3127,"嫗":3128,"嫚":3129,"嫡":3130,"嫣":3131,"嫦":3132,"嫩":3133,"嫻":3134,"嬅":3135,"嬈":3136,"嬉":3137,"嬋":3138,"嬌":3139,"嬖":3140,"嬗":3141,"嬛":3142,"嬢":3143,"嬤":3144,"嬪":3145,"嬬":3146,"嬰":3147,"嬲":3148,"嬴":3149,"嬷":3150,"嬸":3151,"嬿":3152,"孀":3153,"孃":3154,"子":3155,"孑":3156,"孔":3157,"孕":3158,"孖":3159,"字":3160,"存":3161,"孙":3162,"孚":3163,"孛":3164,"孜":3165,"孝":3166,"孟":3167,"孢":3168,"季":3169,"孤":3170,"学":3171,"孩":3172,"孪":3173,"孫":3174,"孰":3175,"孱":3176,"孳":3177,"孵":3178,"學":3179,"孺":3180,"孽":3181,"孿":3182,"宀":3183,"宁":3184,"它":3185,"宅":3186,"宇":3187,"守":3188,"安":3189,"宋":3190,"完":3191,"宍":3192,"宏":3193,"宓":3194,"宕":3195,"宗":3196,"官":3197,"宙":3198,"定":3199,"宛":3200,"宜":3201,"宝":3202,"实":3203,"実":3204,"宠":3205,"审":3206,"客":3207,"宣":3208,"室":3209,"宥":3210,"宦":3211,"宪":3212,"宫":3213,"宮":3214,"宰":3215,"害":3216,"宴":3217,"宵":3218,"家":3219,"宸":3220,"容":3221,"宽":3222,"宾":3223,"宿":3224,"寂":3225,"寄":3226,"寅":3227,"密":3228,"寇":3229,"富":3230,"寐":3231,"寒":3232,"寓":3233,"寔":3234,"寘":3235,"寛":3236,"寝":3237,"寞":3238,"察":3239,"寡":3240,"寢":3241,"寥":3242,"實":3243,"寧":3244,"寨":3245,"審":3246,"寫":3247,"寬":3248,"寮":3249,"寯":3250,"寰":3251,"寳":3252,"寵":3253,"寶":3254,"寸":3255,"对":3256,"寺":3257,"寻":3258,"导":3259,"対":3260,"寿":3261,"封":3262,"専":3263,"射":3264,"将":3265,"將":3266,"專":3267,"尉":3268,"尊":3269,"尋":3270,"對":3271,"導":3272,"小":3273,"少":3274,"尔":3275,"尕":3276,"尖":3277,"尘":3278,"尙":3279,"尚":3280,"尝":3281,"尤":3282,"尧":3283,"尪":3284,"尬":3285,"尭":3286,"就":3287,"尴":3288,"尷":3289,"尸":3290,"尹":3291,"尺":3292,"尻":3293,"尼":3294,"尽":3295,"尾":3296,"尿":3297,"局":3298,"屁":3299,"层":3300,"居":3301,"屆":3302,"屈":3303,"届":3304,"屋":3305,"屌":3306,"屍":3307,"屎":3308,"屏":3309,"屐":3310,"屑":3311,"屓":3312,"展":3313,"属":3314,"屠":3315,"屡":3316,"屢":3317,"層":3318,"履":3319,"屬":3320,"屯":3321,"山":3322,"屹":3323,"屿":3324,"岀":3325,"岁":3326,"岂":3327,"岌":3328,"岐":3329,"岑":3330,"岔":3331,"岖":3332,"岗":3333,"岘":3334,"岙":3335,"岚":3336,"岛":3337,"岡":3338,"岢":3339,"岩":3340,"岫":3341,"岬":3342,"岭":3343,"岱":3344,"岳":3345,"岷":3346,"岸":3347,"峁":3348,"峄":3349,"峇":3350,"峋":3351,"峒":3352,"峙":3353,"峠":3354,"峡":3355,"峤":3356,"峥":3357,"峦":3358,"峨":3359,"峩":3360,"峪":3361,"峭":3362,"峯":3363,"峰":3364,"峴":3365,"島":3366,"峻":3367,"峽":3368,"崁":3369,"崂":3370,"崆":3371,"崇":3372,"崋":3373,"崍":3374,"崎":3375,"崐":3376,"崑":3377,"崔":3378,"崖":3379,"崗":3380,"崙":3381,"崚":3382,"崛":3383,"崞":3384,"崢":3385,"崤":3386,"崧":3387,"崩":3388,"崭":3389,"崮":3390,"崱":3391,"崴":3392,"崽":3393,"嵇":3394,"嵊":3395,"嵋":3396,"嵌":3397,"嵐":3398,"嵘":3399,"嵙":3400,"嵜":3401,"嵩":3402,"嵬":3403,"嵯":3404,"嵴":3405,"嶂":3406,"嶄":3407,"嶇":3408,"嶋":3409,"嶌":3410,"嶗":3411,"嶙":3412,"嶝":3413,"嶠":3414,"嶧":3415,"嶴":3416,"嶷":3417,"嶸":3418,"嶺":3419,"嶼":3420,"嶽":3421,"巂":3422,"巅":3423,"巌":3424,"巍":3425,"巒":3426,"巔":3427,"巖":3428,"川":3429,"州":3430,"巡":3431,"巢":3432,"巣":3433,"工":3434,"左":3435,"巧":3436,"巨":3437,"巩":3438,"巫":3439,"差":3440,"己":3441,"已":3442,"巳":3443,"巴":3444,"巷":3445,"巻":3446,"巽":3447,"巾":3448,"巿":3449,"币":3450,"市":3451,"布":3452,"帅":3453,"帆":3454,"师":3455,"希":3456,"帐":3457,"帑":3458,"帕":3459,"帖":3460,"帘":3461,"帙":3462,"帚":3463,"帛":3464,"帜":3465,"帝":3466,"帥":3467,"带":3468,"帧":3469,"師":3470,"席":3471,"帮":3472,"帯":3473,"帰":3474,"帳":3475,"帶":3476,"帷":3477,"常":3478,"帼":3479,"帽":3480,"幀":3481,"幂":3482,"幄":3483,"幅":3484,"幇":3485,"幌":3486,"幔":3487,"幕":3488,"幗":3489,"幟":3490,"幡":3491,"幢":3492,"幣":3493,"幪":3494,"幫":3495,"干":3496,"平":3497,"年":3498,"并":3499,"幷":3500,"幸":3501,"幹":3502,"幺":3503,"幻":3504,"幼":3505,"幽":3506,"幾":3507,"广":3508,"庁":3509,"広":3510,"庄":3511,"庆":3512,"庇":3513,"床":3514,"序":3515,"庐":3516,"庑":3517,"库":3518,"应":3519,"底":3520,"庖":3521,"店":3522,"庙":3523,"庚":3524,"府":3525,"庞":3526,"废":3527,"庠":3528,"庥":3529,"度":3530,"座":3531,"庫":3532,"庭":3533,"庵":3534,"庶":3535,"康":3536,"庸":3537,"庹":3538,"庾":3539,"廁":3540,"廂":3541,"廃":3542,"廄":3543,"廆":3544,"廈":3545,"廉":3546,"廊":3547,"廍":3548,"廓":3549,"廖":3550,"廙":3551,"廚":3552,"廝":3553,"廞":3554,"廟":3555,"廠":3556,"廡":3557,"廢":3558,"廣":3559,"廨":3560,"廩":3561,"廪":3562,"廬":3563,"廳":3564,"延":3565,"廷":3566,"廸":3567,"建":3568,"廻":3569,"廼":3570,"廿":3571,"开":3572,"弁":3573,"异":3574,"弃":3575,"弄":3576,"弇":3577,"弈":3578,"弉":3579,"弊":3580,"弋":3581,"弌":3582,"式":3583,"弐":3584,"弑":3585,"弒":3586,"弓":3587,"弔":3588,"引":3589,"弖":3590,"弗":3591,"弘":3592,"弛":3593,"弟":3594,"张":3595,"弢":3596,"弥":3597,"弦":3598,"弧":3599,"弩":3600,"弭":3601,"弯":3602,"弱":3603,"張":3604,"強":3605,"弹":3606,"强":3607,"弼":3608,"弾":3609,"彀":3610,"彅":3611,"彈":3612,"彊":3613,"彌":3614,"彎":3615,"归":3616,"当":3617,"录":3618,"彗":3619,"彘":3620,"彙":3621,"彝":3622,"彡":3623,"形":3624,"彤":3625,"彥":3626,"彦":3627,"彧":3628,"彩":3629,"彪":3630,"彫":3631,"彬":3632,"彭":3633,"彰":3634,"影":3635,"彳":3636,"彷":3637,"役":3638,"彻":3639,"彼":3640,"彿":3641,"往":3642,"征":3643,"徂":3644,"径":3645,"待":3646,"徇":3647,"很":3648,"徊":3649,"律":3650,"後":3651,"徐":3652,"徑":3653,"徒":3654,"従":3655,"徕":3656,"得":3657,"徘":3658,"徙":3659,"從":3660,"徠":3661,"御":3662,"徨":3663,"復":3664,"循":3665,"徬":3666,"徭":3667,"微":3668,"徳":3669,"徴":3670,"徵":3671,"德":3672,"徹":3673,"徽":3674,"心":3675,"忄":3676,"必":3677,"忆":3678,"忉":3679,"忌":3680,"忍":3681,"忏":3682,"忒":3683,"志":3684,"忘":3685,"忙":3686,"応":3687,"忞":3688,"忠":3689,"忡":3690,"忤":3691,"忧":3692,"快":3693,"忱":3694,"念":3695,"忻":3696,"忽":3697,"忿":3698,"怀":3699,"态":3700,"怂":3701,"怎":3702,"怒":3703,"怕":3704,"怖":3705,"怙":3706,"怛":3707,"怜":3708,"思":3709,"怠":3710,"怡":3711,"急":3712,"怦":3713,"性":3714,"怨":3715,"怪":3716,"怯":3717,"总":3718,"怿":3719,"恂":3720,"恃":3721,"恆":3722,"恋":3723,"恍":3724,"恐":3725,"恒":3726,"恕":3727,"恙":3728,"恚":3729,"恢":3730,"恣":3731,"恤":3732,"恥":3733,"恨":3734,"恩":3735,"恪":3736,"恫":3737,"恬":3738,"恭":3739,"息":3740,"恰":3741,"恳":3742,"恵":3743,"恶":3744,"恸":3745,"恺":3746,"恼":3747,"恽":3748,"恿":3749,"悄":3750,"悅":3751,"悉":3752,"悌":3753,"悍":3754,"悔":3755,"悖":3756,"悚":3757,"悛":3758,"悝":3759,"悟":3760,"悠":3761,"患":3762,"悦":3763,"悧":3764,"您":3765,"悩":3766,"悪":3767,"悫":3768,"悬":3769,"悯":3770,"悰":3771,"悲":3772,"悳":3773,"悴":3774,"悶":3775,"悸":3776,"悼":3777,"悽":3778,"情":3779,"惇":3780,"惊":3781,"惋":3782,"惑":3783,"惕":3784,"惘":3785,"惚":3786,"惛":3787,"惜":3788,"惟":3789,"惠":3790,"惡":3791,"惣":3792,"惧":3793,"惨":3794,"惩":3795,"惫":3796,"惭":3797,"惮":3798,"惯":3799,"惰":3800,"惱":3801,"惲":3802,"想":3803,"惶":3804,"惹":3805,"惺":3806,"愁":3807,"愃":3808,"愆":3809,"愈":3810,"愉":3811,"愍":3812,"愎":3813,"意":3814,"愔":3815,"愕":3816,"愚":3817,"愛":3818,"感":3819,"愤":3820,"愧":3821,"愨":3822,"愫":3823,"愴":3824,"愷":3825,"愼":3826,"愾":3827,"愿":3828,"慄":3829,"慇":3830,"慈":3831,"態":3832,"慌":3833,"慎":3834,"慑":3835,"慕":3836,"慘":3837,"慚":3838,"慜":3839,"慟":3840,"慢":3841,"慣":3842,"慤":3843,"慧":3844,"慨":3845,"慫":3846,"慮":3847,"慰":3848,"慳":3849,"慵":3850,"慶":3851,"慷":3852,"慾":3853,"憂":3854,"憊":3855,"憍":3856,"憎":3857,"憐":3858,"憑":3859,"憔":3860,"憙":3861,"憚":3862,"憤":3863,"憧":3864,"憨":3865,"憩":3866,"憫":3867,"憬":3868,"憲":3869,"憶":3870,"憺":3871,"憾":3872,"懂":3873,"懃":3874,"懇":3875,"懈":3876,"應":3877,"懊":3878,"懋":3879,"懌":3880,"懐":3881,"懒":3882,"懦":3883,"懲":3884,"懵":3885,"懶":3886,"懷":3887,"懸":3888,"懺":3889,"懼":3890,"懾":3891,"懿":3892,"戀":3893,"戈":3894,"戊":3895,"戌":3896,"戍":3897,"戎":3898,"戏":3899,"成":3900,"我":3901,"戒":3902,"戔":3903,"戕":3904,"或":3905,"战":3906,"戚":3907,"戛":3908,"戟":3909,"戡":3910,"戢":3911,"戦":3912,"戩":3913,"截":3914,"戮":3915,"戯":3916,"戰":3917,"戱":3918,"戲":3919,"戳":3920,"戴":3921,"戶":3922,"户":3923,"戸":3924,"戻":3925,"戾":3926,"房":3927,"所":3928,"扁":3929,"扆":3930,"扇":3931,"扈":3932,"扉":3933,"手":3934,"扌":3935,"才":3936,"扎":3937,"扑":3938,"扒":3939,"打":3940,"扔":3941,"払":3942,"托":3943,"扛":3944,"扣":3945,"扦":3946,"执":3947,"扩":3948,"扫":3949,"扬":3950,"扭":3951,"扮":3952,"扯":3953,"扰":3954,"扱":3955,"扳":3956,"扶":3957,"批":3958,"扼":3959,"找":3960,"承":3961,"技":3962,"抄":3963,"抉":3964,"把":3965,"抑":3966,"抒":3967,"抓":3968,"投":3969,"抖":3970,"抗":3971,"折":3972,"抚":3973,"抛":3974,"抜":3975,"択":3976,"抟":3977,"抡":3978,"抢":3979,"护":3980,"报":3981,"抨":3982,"披":3983,"抬":3984,"抱":3985,"抵":3986,"抹":3987,"押":3988,"抽":3989,"拂":3990,"担":3991,"拆":3992,"拇":3993,"拈":3994,"拉":3995,"拋":3996,"拌":3997,"拍":3998,"拏":3999,"拐":4000,"拒":4001,"拓":4002,"拔":4003,"拖":4004,"拗":4005,"拘":4006,"拙":4007,"拚":4008,"招":4009,"拜":4010,"拝":4011,"拟":4012,"拠":4013,"拡":4014,"拢":4015,"拣":4016,"拥":4017,"拦":4018,"拨":4019,"择":4020,"括":4021,"拭":4022,"拮":4023,"拯":4024,"拱":4025,"拳":4026,"拴":4027,"拵":4028,"拶":4029,"拷":4030,"拼":4031,"拽":4032,"拾":4033,"拿":4034,"持":4035,"挂":4036,"指":4037,"挈":4038,"按":4039,"挑":4040,"挖":4041,"挙":4042,"挚":4043,"挛":4044,"挝":4045,"挞":4046,"挟":4047,"挠":4048,"挡":4049,"挣":4050,"挤":4051,"挥":4052,"挨":4053,"挪":4054,"挫":4055,"振":4056,"挹":4057,"挺":4058,"挽":4059,"挾":4060,"挿":4061,"捅":4062,"捆":4063,"捉":4064,"捌":4065,"捍":4066,"捎":4067,"捏":4068,"捐":4069,"捒":4070,"捕":4071,"捗":4072,"捜":4073,"捞":4074,"损":4075,"捡":4076,"换":4077,"捣":4078,"捧":4079,"捨":4080,"捩":4081,"据":4082,"捱":4083,"捲":4084,"捶":4085,"捷":4086,"捺":4087,"捻":4088,"掀":4089,"掃":4090,"授":4091,"掉":4092,"掌":4093,"掏":4094,"掐":4095,"排":4096,"掖":4097,"掘":4098,"掙":4099,"掛":4100,"掟":4101,"掠":4102,"採":4103,"探":4104,"掣":4105,"接":4106,"控":4107,"推":4108,"掩":4109,"措":4110,"掬":4111,"掰":4112,"掲":4113,"掳":4114,"掴":4115,"掷":4116,"掸":4117,"掺":4118,"掻":4119,"掾":4120,"揀":4121,"揃":4122,"揄":4123,"揆":4124,"揉":4125,"揍":4126,"描":4127,"提":4128,"插":4129,"揖":4130,"揚":4131,"換":4132,"握":4133,"揣":4134,"揪":4135,"揭":4136,"揮":4137,"援":4138,"揶":4139,"揺":4140,"揽":4141,"揾":4142,"搁":4143,"搅":4144,"損":4145,"搏":4146,"搐":4147,"搓":4148,"搔":4149,"搖":4150,"搗":4151,"搜":4152,"搞":4153,"搦":4154,"搪":4155,"搬":4156,"搭":4157,"搵":4158,"搶":4159,"携":4160,"搾":4161,"摂":4162,"摄":4163,"摆":4164,"摇":4165,"摊":4166,"摑":4167,"摒":4168,"摔":4169,"摘":4170,"摠":4171,"摧":4172,"摩":4173,"摭":4174,"摯":4175,"摶":4176,"摸":4177,"摹":4178,"摺":4179,"摻":4180,"撃":4181,"撇":4182,"撈":4183,"撐":4184,"撑":4185,"撒":4186,"撓":4187,"撕":4188,"撚":4189,"撞":4190,"撣":4191,"撤":4192,"撥":4193,"撩":4194,"撫":4195,"撬":4196,"播":4197,"撮":4198,"撰":4199,"撲":4200,"撷":4201,"撹":4202,"撻":4203,"撼":4204,"撿":4205,"擁":4206,"擂":4207,"擄":4208,"擅":4209,"擇":4210,"擊":4211,"擋":4212,"操":4213,"擎":4214,"擒":4215,"擔":4216,"擘":4217,"據":4218,"擠":4219,"擢":4220,"擦":4221,"擧":4222,"擬":4223,"擱":4224,"擲":4225,"擴":4226,"擷":4227,"擺":4228,"擾":4229,"攀":4230,"攏":4231,"攒":4232,"攔":4233,"攘":4234,"攜":4235,"攝":4236,"攢":4237,"攣":4238,"攤":4239,"攪":4240,"攫":4241,"攬":4242,"支":4243,"收":4244,"攷":4245,"攸":4246,"改":4247,"攻":4248,"放":4249,"政":4250,"故":4251,"效":4252,"敌":4253,"敍":4254,"敎":4255,"敏":4256,"救":4257,"敕":4258,"敖":4259,"敗":4260,"敘":4261,"教":4262,"敛":4263,"敝":4264,"敞":4265,"敢":4266,"散":4267,"敦":4268,"敬":4269,"数":4270,"敲":4271,"整":4272,"敵":4273,"敷":4274,"數":4275,"斂":4276,"斃":4277,"文":4278,"斉":4279,"斋":4280,"斌":4281,"斎":4282,"斐":4283,"斑":4284,"斗":4285,"料":4286,"斛":4287,"斜":4288,"斟":4289,"斡":4290,"斤":4291,"斥":4292,"斧":4293,"斩":4294,"斫":4295,"斬":4296,"断":4297,"斯":4298,"新":4299,"斷":4300,"方":4301,"於":4302,"施":4303,"旁":4304,"旃":4305,"旅":4306,"旋":4307,"旌":4308,"族":4309,"旒":4310,"旗":4311,"旛":4312,"无":4313,"既":4314,"旣":4315,"日":4316,"旦":4317,"旧":4318,"旨":4319,"早":4320,"旬":4321,"旭":4322,"旱":4323,"时":4324,"旷":4325,"旸":4326,"旺":4327,"旻":4328,"旼":4329,"昀":4330,"昂":4331,"昆":4332,"昇":4333,"昉":4334,"昊":4335,"昌":4336,"明":4337,"昏":4338,"昐":4339,"易":4340,"昔":4341,"昕":4342,"昙":4343,"昝":4344,"昞":4345,"星":4346,"映":4347,"春":4348,"昧":4349,"昨":4350,"昪":4351,"昭":4352,"是":4353,"昰":4354,"昱":4355,"昴":4356,"昵":4357,"昶":4358,"昺":4359,"昼":4360,"显":4361,"晁":4362,"時":4363,"晃":4364,"晄":4365,"晉":4366,"晋":4367,"晏":4368,"晒":4369,"晓":4370,"晔":4371,"晕":4372,"晖":4373,"晗":4374,"晙":4375,"晚":4376,"晝":4377,"晞":4378,"晟":4379,"晤":4380,"晦":4381,"晧":4382,"晨":4383,"晩":4384,"普":4385,"景":4386,"晰":4387,"晳":4388,"晴":4389,"晶":4390,"晷":4391,"晸":4392,"智":4393,"晾":4394,"暁":4395,"暂":4396,"暄":4397,"暇":4398,"暈":4399,"暉":4400,"暌":4401,"暎":4402,"暐":4403,"暑":4404,"暖":4405,"暗":4406,"暘":4407,"暝":4408,"暠":4409,"暢":4410,"暦":4411,"暧":4412,"暨":4413,"暫":4414,"暮":4415,"暱":4416,"暲":4417,"暴":4418,"暹":4419,"暻":4420,"暾":4421,"曄":4422,"曆":4423,"曇":4424,"曉":4425,"曖":4426,"曙":4427,"曜":4428,"曝":4429,"曠":4430,"曦":4431,"曩":4432,"曬":4433,"曰":4434,"曲":4435,"曳":4436,"更":4437,"曷":4438,"書":4439,"曹":4440,"曺":4441,"曼":4442,"曽":4443,"曾":4444,"替":4445,"最":4446,"會":4447,"月":4448,"有":4449,"朋":4450,"服":4451,"朐":4452,"朓":4453,"朔":4454,"朕":4455,"朗":4456,"望":4457,"朝":4458,"期":4459,"朦":4460,"朧":4461,"木":4462,"未":4463,"末":4464,"本":4465,"札":4466,"朮":4467,"术":4468,"朱":4469,"朴":4470,"朵":4471,"朶":4472,"机":4473,"朽":4474,"杀":4475,"杂":4476,"权":4477,"杆":4478,"杉":4479,"杌":4480,"李":4481,"杏":4482,"材":4483,"村":4484,"杓":4485,"杖":4486,"杙":4487,"杜":4488,"杞":4489,"束":4490,"杠":4491,"条":4492,"杢":4493,"杣":4494,"来":4495,"杨":4496,"杭":4497,"杮":4498,"杯":4499,"杰":4500,"東":4501,"杲":4502,"杳":4503,"杵":4504,"杷":4505,"杼":4506,"松":4507,"板":4508,"极":4509,"构":4510,"枇":4511,"枉":4512,"枋":4513,"析":4514,"枕":4515,"林":4516,"枚":4517,"果":4518,"枝":4519,"枞":4520,"枠":4521,"枡":4522,"枢":4523,"枣":4524,"枪":4525,"枫":4526,"枭":4527,"枯":4528,"枳":4529,"架":4530,"枷":4531,"枸":4532,"枹":4533,"柁":4534,"柃":4535,"柄":4536,"柊":4537,"柏":4538,"某":4539,"柑":4540,"柒":4541,"染":4542,"柔":4543,"柘":4544,"柚":4545,"柜":4546,"柝":4547,"柞":4548,"柠":4549,"柢":4550,"查":4551,"柩":4552,"柬":4553,"柯":4554,"柱":4555,"柳":4556,"柴":4557,"柵":4558,"査":4559,"柽":4560,"柾":4561,"柿":4562,"栂":4563,"栃":4564,"栄":4565,"栅":4566,"标":4567,"栈":4568,"栉":4569,"栋":4570,"栎":4571,"栏":4572,"树":4573,"栒":4574,"栓":4575,"栖":4576,"栗":4577,"栞":4578,"校":4579,"栢":4580,"栩":4581,"株":4582,"栱":4583,"栲":4584,"栴":4585,"样":4586,"核":4587,"根":4588,"栻":4589,"格":4590,"栽":4591,"栾":4592,"桀":4593,"桁":4594,"桂":4595,"桃":4596,"桅":4597,"框":4598,"案":4599,"桉":4600,"桌":4601,"桎":4602,"桐":4603,"桑":4604,"桓":4605,"桔":4606,"桜":4607,"桝":4608,"桟":4609,"桡":4610,"桢":4611,"档":4612,"桥":4613,"桦":4614,"桧":4615,"桨":4616,"桩":4617,"桫":4618,"桶":4619,"桷":4620,"桿":4621,"梁":4622,"梃":4623,"梅":4624,"梆":4625,"梓":4626,"梔":4627,"梗":4628,"條":4629,"梟":4630,"梠":4631,"梢":4632,"梦":4633,"梧":4634,"梨":4635,"梭":4636,"梯":4637,"械":4638,"梱":4639,"梳":4640,"梵":4641,"梶":4642,"检":4643,"棂":4644,"棄":4645,"棉":4646,"棋":4647,"棍":4648,"棒":4649,"棕":4650,"棗":4651,"棘":4652,"棚":4653,"棟":4654,"棠":4655,"棣":4656,"棧":4657,"棨":4658,"棫":4659,"森":4660,"棱":4661,"棲":4662,"棵":4663,"棹":4664,"棺":4665,"棻":4666,"椀":4667,"椁":4668,"椅":4669,"椋":4670,"植":4671,"椎":4672,"椏":4673,"椒":4674,"椙":4675,"椚":4676,"椛":4677,"検":4678,"椭":4679,"椰":4680,"椴":4681,"椹":4682,"椽":4683,"椿":4684,"楂":4685,"楊":4686,"楓":4687,"楔":4688,"楕":4689,"楙":4690,"楚":4691,"楝":4692,"楞":4693,"楠":4694,"楡":4695,"楢":4696,"楣":4697,"楨":4698,"楫":4699,"業":4700,"楮":4701,"楯":4702,"楳":4703,"極":4704,"楷":4705,"楸":4706,"楹":4707,"楼":4708,"楽":4709,"概":4710,"榄":4711,"榆":4712,"榈":4713,"榉":4714,"榊":4715,"榎":4716,"榑":4717,"榔":4718,"榕":4719,"榖":4720,"榘":4721,"榛":4722,"榜":4723,"榧":4724,"榨":4725,"榫":4726,"榭":4727,"榮":4728,"榴":4729,"榷":4730,"榻":4731,"槁":4732,"槃":4733,"槇":4734,"槊":4735,"構":4736,"槌":4737,"槍":4738,"槎":4739,"槐":4740,"槓":4741,"様":4742,"槙":4743,"槛":4744,"槟":4745,"槤":4746,"槨":4747,"槪":4748,"槭":4749,"槲":4750,"槳":4751,"槺":4752,"槻":4753,"槽":4754,"槿":4755,"樁":4756,"樂":4757,"樅":4758,"樊":4759,"樋":4760,"樑":4761,"樓":4762,"樗":4763,"標":4764,"樞":4765,"樟":4766,"模":4767,"樣":4768,"樨":4769,"権":4770,"横":4771,"樫":4772,"樱":4773,"樵":4774,"樸":4775,"樹":4776,"樺":4777,"樽":4778,"樾":4779,"橄":4780,"橇":4781,"橈":4782,"橋":4783,"橐":4784,"橘":4785,"橙":4786,"機":4787,"橡":4788,"橢":4789,"橫":4790,"橱":4791,"橹":4792,"橿":4793,"檀":4794,"檄":4795,"檉":4796,"檎":4797,"檐":4798,"檔":4799,"檗":4800,"檜":4801,"檢":4802,"檣":4803,"檬":4804,"檯":4805,"檳":4806,"檸":4807,"檻":4808,"櫂":4809,"櫃":4810,"櫓":4811,"櫚":4812,"櫛":4813,"櫟":4814,"櫥":4815,"櫨":4816,"櫸":4817,"櫻":4818,"欄":4819,"欅":4820,"欉":4821,"權":4822,"欒":4823,"欖":4824,"欞":4825,"欠":4826,"次":4827,"欢":4828,"欣":4829,"欤":4830,"欧":4831,"欲":4832,"欺":4833,"欽":4834,"款":4835,"歆":4836,"歇":4837,"歉":4838,"歌":4839,"歎":4840,"歐":4841,"歓":4842,"歙":4843,"歟":4844,"歡":4845,"止":4846,"正":4847,"此":4848,"步":4849,"武":4850,"歧":4851,"歩":4852,"歪":4853,"歯":4854,"歲":4855,"歳":4856,"歴":4857,"歷":4858,"歸":4859,"歹":4860,"死":4861,"歼":4862,"歿":4863,"殁":4864,"殃":4865,"殆":4866,"殇":4867,"殉":4868,"殊":4869,"残":4870,"殒":4871,"殓":4872,"殖":4873,"殘":4874,"殞":4875,"殡":4876,"殤":4877,"殭":4878,"殮":4879,"殯":4880,"殲":4881,"殴":4882,"段":4883,"殷":4884,"殺":4885,"殻":4886,"殼":4887,"殿":4888,"毀":4889,"毁":4890,"毂":4891,"毅":4892,"毆":4893,"毋":4894,"毌":4895,"母":4896,"毎":4897,"每":4898,"毒":4899,"毓":4900,"比":4901,"毕":4902,"毖":4903,"毗":4904,"毘":4905,"毙":4906,"毛":4907,"毡":4908,"毫":4909,"毬":4910,"毯":4911,"毽":4912,"氂":4913,"氈":4914,"氏":4915,"氐":4916,"民":4917,"氓":4918,"气":4919,"氖":4920,"気":4921,"氘":4922,"氙":4923,"氚":4924,"氛":4925,"氟":4926,"氡":4927,"氢":4928,"氣":4929,"氦":4930,"氧":4931,"氨":4932,"氩":4933,"氪":4934,"氫":4935,"氬":4936,"氮":4937,"氯":4938,"氰":4939,"水":4940,"氵":4941,"氷":4942,"永":4943,"氹":4944,"氾":4945,"汀":4946,"汁":4947,"求":4948,"汇":4949,"汉":4950,"汊":4951,"汎":4952,"汐":4953,"汕":4954,"汗":4955,"汙":4956,"汚":4957,"汛":4958,"汜":4959,"汝":4960,"汞":4961,"江":4962,"池":4963,"污":4964,"汤":4965,"汧":4966,"汨":4967,"汪":4968,"汭":4969,"汰":4970,"汲":4971,"汴":4972,"汶":4973,"汹":4974,"決":4975,"汽":4976,"汾":4977,"沁":4978,"沂":4979,"沃":4980,"沄":4981,"沅":4982,"沆":4983,"沈":4984,"沉":4985,"沌":4986,"沐":4987,"沒":4988,"沓":4989,"沔":4990,"沖":4991,"沙":4992,"沛":4993,"沟":4994,"没":4995,"沢":4996,"沣":4997,"沥":4998,"沦":4999,"沧":5000,"沪":5001,"沫":5002,"沭":5003,"沮":5004,"沱":5005,"河":5006,"沸":5007,"油":5008,"治":5009,"沼":5010,"沽":5011,"沾":5012,"沿":5013,"況":5014,"泄":5015,"泉":5016,"泊":5017,"泌":5018,"泓":5019,"法":5020,"泗":5021,"泚":5022,"泛":5023,"泞":5024,"泠":5025,"泡":5026,"波":5027,"泣":5028,"泥":5029,"注":5030,"泪":5031,"泫":5032,"泮":5033,"泯":5034,"泰":5035,"泱":5036,"泳":5037,"泵":5038,"泷":5039,"泸":5040,"泻":5041,"泼":5042,"泽":5043,"泾":5044,"洁":5045,"洄":5046,"洋":5047,"洎":5048,"洒":5049,"洗":5050,"洙":5051,"洛":5052,"洞":5053,"津":5054,"洧":5055,"洩":5056,"洪":5057,"洮":5058,"洱":5059,"洲":5060,"洵":5061,"洶":5062,"洸":5063,"洹":5064,"洺":5065,"活":5066,"洼":5067,"洽":5068,"派":5069,"流":5070,"浄":5071,"浅":5072,"浆":5073,"浇":5074,"浊":5075,"测":5076,"济":5077,"浏":5078,"浑":5079,"浒":5080,"浓":5081,"浔":5082,"浙":5083,"浚":5084,"浜":5085,"浞":5086,"浠":5087,"浣":5088,"浤":5089,"浦":5090,"浩":5091,"浪":5092,"浬":5093,"浮":5094,"浯":5095,"浴":5096,"海":5097,"浸":5098,"涂":5099,"涅":5100,"涇":5101,"消":5102,"涉":5103,"涌":5104,"涎":5105,"涓":5106,"涔":5107,"涕":5108,"涙":5109,"涛":5110,"涜":5111,"涝":5112,"涞":5113,"涟":5114,"涡":5115,"涣":5116,"涤":5117,"润":5118,"涧":5119,"涨":5120,"涩":5121,"涪":5122,"涮":5123,"涯":5124,"液":5125,"涵":5126,"涸":5127,"涼":5128,"涿":5129,"淀":5130,"淄":5131,"淅":5132,"淆":5133,"淇":5134,"淋":5135,"淌":5136,"淑":5137,"淒":5138,"淖":5139,"淘":5140,"淙":5141,"淚":5142,"淝":5143,"淞":5144,"淡":5145,"淤":5146,"淦":5147,"淨":5148,"淩":5149,"淪":5150,"淫":5151,"淬":5152,"淮":5153,"淯":5154,"深":5155,"淳":5156,"淵":5157,"淶":5158,"混":5159,"淸":5160,"淹":5161,"淺":5162,"添":5163,"淼":5164,"清":5165,"渇":5166,"済":5167,"渉":5168,"渊":5169,"渋":5170,"渍":5171,"渎":5172,"渐":5173,"渓":5174,"渔":5175,"渕":5176,"渗":5177,"渙":5178,"渚":5179,"減":5180,"渝":5181,"渟":5182,"渠":5183,"渡":5184,"渣":5185,"渤":5186,"渥":5187,"渦":5188,"温":5189,"渫":5190,"測":5191,"渭":5192,"港":5193,"渲":5194,"渴":5195,"游":5196,"渺":5197,"渾":5198,"湃":5199,"湄":5200,"湊":5201,"湍":5202,"湖":5203,"湘":5204,"湛":5205,"湜":5206,"湟":5207,"湣":5208,"湧":5209,"湫":5210,"湮":5211,"湯":5212,"湳":5213,"湾":5214,"湿":5215,"満":5216,"溃":5217,"溅":5218,"溆":5219,"溉":5220,"溏":5221,"源":5222,"準":5223,"溜":5224,"溝":5225,"溟":5226,"溢":5227,"溥":5228,"溧":5229,"溪":5230,"溫":5231,"溯":5232,"溱":5233,"溲":5234,"溴":5235,"溶":5236,"溺":5237,"溼":5238,"滁":5239,"滂":5240,"滄":5241,"滅":5242,"滇":5243,"滉":5244,"滋":5245,"滌":5246,"滎":5247,"滏":5248,"滑":5249,"滓":5250,"滔":5251,"滕":5252,"滘":5253,"滙":5254,"滚":5255,"滝":5256,"滞":5257,"满":5258,"滢":5259,"滤":5260,"滥":5261,"滦":5262,"滨":5263,"滩":5264,"滬":5265,"滯":5266,"滲":5267,"滴":5268,"滷":5269,"滸":5270,"滹":5271,"滾":5272,"滿":5273,"漁":5274,"漂":5275,"漆":5276,"漉":5277,"漏":5278,"漑":5279,"漓":5280,"演":5281,"漕":5282,"漠":5283,"漢":5284,"漣":5285,"漩":5286,"漪":5287,"漫":5288,"漬":5289,"漯":5290,"漱":5291,"漲":5292,"漳":5293,"漵":5294,"漸":5295,"漾":5296,"漿":5297,"潁":5298,"潇":5299,"潍":5300,"潑":5301,"潔":5302,"潘":5303,"潛":5304,"潜":5305,"潞":5306,"潟":5307,"潢":5308,"潤":5309,"潦":5310,"潭":5311,"潮":5312,"潯":5313,"潰":5314,"潴":5315,"潺":5316,"潼":5317,"潾":5318,"澀":5319,"澁":5320,"澂":5321,"澄":5322,"澆":5323,"澇":5324,"澈":5325,"澍":5326,"澎":5327,"澗":5328,"澜":5329,"澠":5330,"澡":5331,"澤":5332,"澧":5333,"澪":5334,"澮":5335,"澱":5336,"澳":5337,"澶":5338,"澹":5339,"激":5340,"濁":5341,"濂":5342,"濃":5343,"濉":5344,"濊":5345,"濑":5346,"濒":5347,"濕":5348,"濘":5349,"濛":5350,"濞":5351,"濟":5352,"濠":5353,"濡":5354,"濤":5355,"濫":5356,"濬":5357,"濮":5358,"濯":5359,"濰":5360,"濱":5361,"濵":5362,"濺":5363,"濾":5364,"瀅":5365,"瀆":5366,"瀉":5367,"瀋":5368,"瀏":5369,"瀑":5370,"瀕":5371,"瀘":5372,"瀚":5373,"瀛":5374,"瀝":5375,"瀞":5376,"瀟":5377,"瀧":5378,"瀨":5379,"瀬":5380,"瀰":5381,"瀾":5382,"灃":5383,"灌":5384,"灏":5385,"灑":5386,"灕":5387,"灘":5388,"灝":5389,"灞":5390,"灣":5391,"灤":5392,"火":5393,"灭":5394,"灯":5395,"灰":5396,"灵":5397,"灶":5398,"灸":5399,"灼":5400,"災":5401,"灾":5402,"灿":5403,"炀":5404,"炁":5405,"炅":5406,"炆":5407,"炉":5408,"炊":5409,"炎":5410,"炒":5411,"炔":5412,"炕":5413,"炖":5414,"炘":5415,"炙":5416,"炜":5417,"炤":5418,"炫":5419,"炬":5420,"炭":5421,"炮":5422,"炯":5423,"炱":5424,"炳":5425,"炸":5426,"点":5427,"為":5428,"炼":5429,"炽":5430,"烁":5431,"烂":5432,"烃":5433,"烈":5434,"烏":5435,"烘":5436,"烙":5437,"烛":5438,"烜":5439,"烝":5440,"烟":5441,"烤":5442,"烦":5443,"烧":5444,"烨":5445,"烩":5446,"烫":5447,"烬":5448,"热":5449,"烯":5450,"烴":5451,"烷":5452,"烹":5453,"烺":5454,"烽":5455,"焉":5456,"焊":5457,"焓":5458,"焔":5459,"焕":5460,"焗":5461,"焘":5462,"焙":5463,"焚":5464,"焜":5465,"無":5466,"焦":5467,"焯":5468,"焰":5469,"焱":5470,"然":5471,"焼":5472,"煇":5473,"煉":5474,"煊":5475,"煌":5476,"煎":5477,"煒":5478,"煕":5479,"煖":5480,"煙":5481,"煚":5482,"煜":5483,"煞":5484,"煤":5485,"煥":5486,"煦":5487,"照":5488,"煨":5489,"煩":5490,"煬":5491,"煮":5492,"煲":5493,"煽":5494,"熄":5495,"熈":5496,"熊":5497,"熏":5498,"熒":5499,"熔":5500,"熙":5501,"熟":5502,"熠":5503,"熨":5504,"熬":5505,"熱":5506,"熲":5507,"熵":5508,"熹":5509,"熾":5510,"燁":5511,"燃":5512,"燄":5513,"燈":5514,"燉":5515,"燊":5516,"燎":5517,"燐":5518,"燒":5519,"燔":5520,"燕":5521,"燗":5522,"燙":5523,"營":5524,"燥":5525,"燦":5526,"燧":5527,"燬":5528,"燭":5529,"燮":5530,"燴":5531,"燹":5532,"燻":5533,"燼":5534,"燾":5535,"燿":5536,"爀":5537,"爆":5538,"爍":5539,"爐":5540,"爛":5541,"爨":5542,"爪":5543,"爬":5544,"爭":5545,"爰":5546,"爱":5547,"爲":5548,"爵":5549,"父":5550,"爷":5551,"爸":5552,"爹":5553,"爺":5554,"爻":5555,"爽":5556,"爾":5557,"牂":5558,"牆":5559,"片":5560,"版":5561,"牌":5562,"牍":5563,"牒":5564,"牘":5565,"牙":5566,"牛":5567,"牝":5568,"牟":5569,"牠":5570,"牡":5571,"牢":5572,"牧":5573,"物":5574,"牯":5575,"牲":5576,"牴":5577,"牵":5578,"特":5579,"牺":5580,"牻":5581,"牽":5582,"犀":5583,"犁":5584,"犂":5585,"犄":5586,"犊":5587,"犍":5588,"犒":5589,"犛":5590,"犠":5591,"犢":5592,"犧":5593,"犬":5594,"犯":5595,"犰":5596,"状":5597,"犷":5598,"犸":5599,"犹":5600,"犽":5601,"狀":5602,"狂":5603,"狄":5604,"狈":5605,"狍":5606,"狎":5607,"狐":5608,"狒":5609,"狗":5610,"狙":5611,"狛":5612,"狠":5613,"狡":5614,"狨":5615,"狩":5616,"独":5617,"狭":5618,"狮":5619,"狱":5620,"狳":5621,"狷":5622,"狸":5623,"狹":5624,"狼":5625,"狽":5626,"猁":5627,"猊":5628,"猎":5629,"猕":5630,"猖":5631,"猗":5632,"猛":5633,"猜":5634,"猝":5635,"猞":5636,"猟":5637,"猥":5638,"猩":5639,"猪":5640,"猫":5641,"猬":5642,"献":5643,"猴":5644,"猶":5645,"猷":5646,"猾":5647,"猿":5648,"獁":5649,"獄":5650,"獅":5651,"獎":5652,"獏":5653,"獐":5654,"獒":5655,"獗":5656,"獠":5657,"獣":5658,"獨":5659,"獬":5660,"獭":5661,"獰":5662,"獲":5663,"獴":5664,"獵":5665,"獷":5666,"獸":5667,"獺":5668,"獻":5669,"獼":5670,"獾":5671,"玄":5672,"玆":5673,"率":5674,"玉":5675,"王":5676,"玑":5677,"玕":5678,"玖":5679,"玘":5680,"玛":5681,"玟":5682,"玠":5683,"玢":5684,"玥":5685,"玩":5686,"玫":5687,"玮":5688,"环":5689,"现":5690,"玲":5691,"玳":5692,"玷":5693,"玹":5694,"玺":5695,"玻":5696,"珀":5697,"珂":5698,"珅":5699,"珈":5700,"珉":5701,"珊":5702,"珍":5703,"珏":5704,"珐":5705,"珑":5706,"珙":5707,"珝":5708,"珞":5709,"珠":5710,"珣":5711,"珥":5712,"珦":5713,"珩":5714,"珪":5715,"班":5716,"珮":5717,"珲":5718,"珺":5719,"珽":5720,"現":5721,"球":5722,"琅":5723,"理":5724,"琇":5725,"琉":5726,"琊":5727,"琍":5728,"琏":5729,"琐":5730,"琚":5731,"琛":5732,"琢":5733,"琤":5734,"琥":5735,"琦":5736,"琨":5737,"琪":5738,"琬":5739,"琮":5740,"琯":5741,"琰":5742,"琲":5743,"琳":5744,"琴":5745,"琵":5746,"琶":5747,"琺":5748,"琼":5749,"琿":5750,"瑀":5751,"瑁":5752,"瑄":5753,"瑈":5754,"瑊":5755,"瑋":5756,"瑕":5757,"瑗":5758,"瑙":5759,"瑚":5760,"瑛":5761,"瑜":5762,"瑞":5763,"瑟":5764,"瑠":5765,"瑢":5766,"瑣":5767,"瑤":5768,"瑩":5769,"瑪":5770,"瑭":5771,"瑯":5772,"瑰":5773,"瑱":5774,"瑳":5775,"瑶":5776,"瑷":5777,"瑾":5778,"璀":5779,"璁":5780,"璃":5781,"璆":5782,"璇":5783,"璈":5784,"璉":5785,"璋":5786,"璐":5787,"璘":5788,"璜":5789,"璞":5790,"璟":5791,"璠":5792,"璣":5793,"璥":5794,"璦":5795,"璧":5796,"璨":5797,"璩":5798,"璪":5799,"環":5800,"璲":5801,"璹":5802,"璽":5803,"璿":5804,"瓊":5805,"瓌":5806,"瓏":5807,"瓒":5808,"瓔":5809,"瓘":5810,"瓚":5811,"瓛":5812,"瓜":5813,"瓠":5814,"瓢":5815,"瓣":5816,"瓦":5817,"瓩":5818,"瓮":5819,"瓯":5820,"瓶":5821,"瓷":5822,"甄":5823,"甌":5824,"甑":5825,"甕":5826,"甘":5827,"甚":5828,"甜":5829,"生":5830,"甡":5831,"產":5832,"産":5833,"甥":5834,"甦":5835,"用":5836,"甩":5837,"甫":5838,"甬":5839,"甯":5840,"田":5841,"由":5842,"甲":5843,"申":5844,"电":5845,"男":5846,"甸":5847,"町":5848,"画":5849,"甾":5850,"畀":5851,"畅":5852,"畈":5853,"畋":5854,"界":5855,"畏":5856,"畑":5857,"畔":5858,"留":5859,"畜":5860,"畝":5861,"畠":5862,"畢":5863,"畤":5864,"略":5865,"畦":5866,"番":5867,"畫":5868,"畬":5869,"畯":5870,"異":5871,"畲":5872,"畳":5873,"畴":5874,"畵":5875,"當":5876,"畷":5877,"畸":5878,"畹":5879,"畿":5880,"疃":5881,"疆":5882,"疇":5883,"疊":5884,"疋":5885,"疍":5886,"疎":5887,"疏":5888,"疑":5889,"疒":5890,"疗":5891,"疙":5892,"疚":5893,"疝":5894,"疟":5895,"疡":5896,"疣":5897,"疤":5898,"疥":5899,"疫":5900,"疮":5901,"疯":5902,"疱":5903,"疲":5904,"疵":5905,"疸":5906,"疹":5907,"疼":5908,"疽":5909,"疾":5910,"痂":5911,"病":5912,"症":5913,"痉":5914,"痊":5915,"痍":5916,"痒":5917,"痔":5918,"痕":5919,"痘":5920,"痙":5921,"痛":5922,"痞":5923,"痢":5924,"痣":5925,"痤":5926,"痩":5927,"痪":5928,"痫":5929,"痰":5930,"痲":5931,"痴":5932,"痹":5933,"痺":5934,"瘀":5935,"瘁":5936,"瘋":5937,"瘍":5938,"瘓":5939,"瘙":5940,"瘟":5941,"瘠":5942,"瘡":5943,"瘢":5944,"瘤":5945,"瘦":5946,"瘧":5947,"瘩":5948,"瘫":5949,"瘴":5950,"瘾":5951,"療":5952,"癇":5953,"癌":5954,"癒":5955,"癖":5956,"癡":5957,"癢":5958,"癣":5959,"癥":5960,"癩":5961,"癪":5962,"癫":5963,"癬":5964,"癮":5965,"癱":5966,"癲":5967,"癸":5968,"発":5969,"登":5970,"發":5971,"白":5972,"百":5973,"皂":5974,"的":5975,"皆":5976,"皇":5977,"皈":5978,"皋":5979,"皎":5980,"皐":5981,"皓":5982,"皖":5983,"皙":5984,"皝":5985,"皮":5986,"皰":5987,"皱":5988,"皺":5989,"皿":5990,"盂":5991,"盃":5992,"盅":5993,"盆":5994,"盈":5995,"益":5996,"盎":5997,"盏":5998,"盐":5999,"监":6000,"盒":6001,"盔":6002,"盖":6003,"盗":6004,"盘":6005,"盛":6006,"盜":6007,"盞":6008,"盟":6009,"盡":6010,"監":6011,"盤":6012,"盥":6013,"盧":6014,"盩":6015,"盪":6016,"目":6017,"盯":6018,"盱":6019,"盲":6020,"直":6021,"相":6022,"盼":6023,"盾":6024,"省":6025,"眈":6026,"眉":6027,"看":6028,"県":6029,"眙":6030,"眞":6031,"真":6032,"眠":6033,"眨":6034,"眩":6035,"眭":6036,"眶":6037,"眷":6038,"眸":6039,"眺":6040,"眼":6041,"眾":6042,"着":6043,"睁":6044,"睇":6045,"睐":6046,"睑":6047,"睛":6048,"睜":6049,"睞":6050,"睡":6051,"睢":6052,"督":6053,"睦":6054,"睨":6055,"睪":6056,"睫":6057,"睬":6058,"睹":6059,"睺":6060,"睽":6061,"睾":6062,"睿":6063,"瞄":6064,"瞋":6065,"瞌":6066,"瞎":6067,"瞑":6068,"瞒":6069,"瞞":6070,"瞥":6071,"瞧":6072,"瞩":6073,"瞪":6074,"瞬":6075,"瞭":6076,"瞰":6077,"瞳":6078,"瞻":6079,"瞼":6080,"瞽":6081,"瞿":6082,"矇":6083,"矍":6084,"矗":6085,"矚":6086,"矛":6087,"矜":6088,"矢":6089,"矣":6090,"知":6091,"矧":6092,"矩":6093,"矫":6094,"短":6095,"矮":6096,"矯":6097,"石":6098,"矶":6099,"矽":6100,"矾":6101,"矿":6102,"砀":6103,"码":6104,"砂":6105,"砌":6106,"砍":6107,"砒":6108,"研":6109,"砕":6110,"砖":6111,"砚":6112,"砜":6113,"砥":6114,"砦":6115,"砧":6116,"砬":6117,"砭":6118,"砰":6119,"砲":6120,"破":6121,"砵":6122,"砷":6123,"砸":6124,"砺":6125,"砾":6126,"砿":6127,"础":6128,"硃":6129,"硅":6130,"硏":6131,"硐":6132,"硒":6133,"硕":6134,"硖":6135,"硝":6136,"硤":6137,"硫":6138,"硬":6139,"确":6140,"硯":6141,"硼":6142,"碁":6143,"碇":6144,"碉":6145,"碌":6146,"碍":6147,"碎":6148,"碑":6149,"碓":6150,"碕":6151,"碗":6152,"碘":6153,"碚":6154,"碛":6155,"碟":6156,"碣":6157,"碧":6158,"碩":6159,"碭":6160,"碰":6161,"碱":6162,"碲":6163,"碳":6164,"碴":6165,"碶":6166,"碸":6167,"確":6168,"碼":6169,"碾":6170,"磁":6171,"磅":6172,"磊":6173,"磋":6174,"磐":6175,"磔":6176,"磕":6177,"磘":6178,"磚":6179,"磡":6180,"磧":6181,"磨":6182,"磬":6183,"磯":6184,"磴":6185,"磷":6186,"磺":6187,"磻":6188,"磾":6189,"礁":6190,"礎":6191,"礒":6192,"礙":6193,"礦":6194,"礪":6195,"礫":6196,"礬":6197,"礴":6198,"示":6199,"礼":6200,"礽":6201,"社":6202,"祀":6203,"祁":6204,"祂":6205,"祆":6206,"祇":6207,"祈":6208,"祉":6209,"祎":6210,"祏":6211,"祐":6212,"祓":6213,"祔":6214,"祕":6215,"祖":6216,"祗":6217,"祚":6218,"祛":6219,"祜":6220,"祝":6221,"神":6222,"祟":6223,"祠":6224,"祢":6225,"祥":6226,"票":6227,"祭":6228,"祯":6229,"祷":6230,"祸":6231,"祺":6232,"祿":6233,"禀":6234,"禁":6235,"禄":6236,"禅":6237,"禊":6238,"禍":6239,"禎":6240,"福":6241,"禑":6242,"禔":6243,"禕":6244,"禛":6245,"禦":6246,"禧":6247,"禩":6248,"禪":6249,"禮":6250,"禰":6251,"禱":6252,"禹":6253,"禺":6254,"离":6255,"禽":6256,"禾":6257,"禿":6258,"秀":6259,"私":6260,"秃":6261,"秆":6262,"秉":6263,"秋":6264,"种":6265,"科":6266,"秒":6267,"秘":6268,"租":6269,"秣":6270,"秤":6271,"秦":6272,"秧":6273,"秩":6274,"秭":6275,"积":6276,"称":6277,"秸":6278,"移":6279,"秽":6280,"稀":6281,"稃":6282,"稅":6283,"稈":6284,"程":6285,"稍":6286,"税":6287,"稔":6288,"稗":6289,"稙":6290,"稚":6291,"稜":6292,"稟":6293,"稠":6294,"稣":6295,"種":6296,"稱":6297,"稲":6298,"稳":6299,"稷":6300,"稹":6301,"稻":6302,"稼":6303,"稽":6304,"稿":6305,"穀":6306,"穂":6307,"穆":6308,"穌":6309,"積":6310,"穎":6311,"穏":6312,"穐":6313,"穗":6314,"穢":6315,"穣":6316,"穩":6317,"穫":6318,"穰":6319,"穴":6320,"究":6321,"穷":6322,"穹":6323,"空":6324,"穿":6325,"突":6326,"窃":6327,"窄":6328,"窈":6329,"窍":6330,"窑":6331,"窒":6332,"窓":6333,"窕":6334,"窖":6335,"窗":6336,"窘":6337,"窜":6338,"窝":6339,"窟":6340,"窠":6341,"窣":6342,"窥":6343,"窦":6344,"窩":6345,"窪":6346,"窮":6347,"窯":6348,"窺":6349,"窿":6350,"竄":6351,"竅":6352,"竇":6353,"竈":6354,"竊":6355,"立":6356,"竑":6357,"竖":6358,"站":6359,"竜":6360,"竝":6361,"竞":6362,"竟":6363,"章":6364,"竣":6365,"童":6366,"竦":6367,"竪":6368,"竭":6369,"端":6370,"競":6371,"竹":6372,"竺":6373,"竿":6374,"笃":6375,"笄":6376,"笆":6377,"笈":6378,"笋":6379,"笏":6380,"笑":6381,"笔":6382,"笕":6383,"笙":6384,"笛":6385,"笞":6386,"笠":6387,"笥":6388,"符":6389,"笨":6390,"笪":6391,"第":6392,"笮":6393,"笳":6394,"笹":6395,"笺":6396,"笼":6397,"筅":6398,"筆":6399,"筈":6400,"等":6401,"筊":6402,"筋":6403,"筌":6404,"筍":6405,"筏":6406,"筐":6407,"筑":6408,"筒":6409,"答":6410,"策":6411,"筛":6412,"筝":6413,"筠":6414,"筥":6415,"筧":6416,"筮":6417,"筰":6418,"筱":6419,"筲":6420,"筵":6421,"筷":6422,"筹":6423,"筺":6424,"签":6425,"简":6426,"箇":6427,"箋":6428,"箍":6429,"箏":6430,"箐":6431,"箒":6432,"箓":6433,"箔":6434,"箕":6435,"算":6436,"箚":6437,"箝":6438,"管":6439,"箪":6440,"箫":6441,"箬":6442,"箭":6443,"箱":6444,"箴":6445,"箸":6446,"節":6447,"篁":6448,"範":6449,"篆":6450,"篇":6451,"築":6452,"篋":6453,"篙":6454,"篝":6455,"篠":6456,"篡":6457,"篤":6458,"篦":6459,"篩":6460,"篪":6461,"篭":6462,"篮":6463,"篱":6464,"篷":6465,"篾":6466,"簀":6467,"簃":6468,"簇":6469,"簋":6470,"簑":6471,"簒":6472,"簕":6473,"簗":6474,"簡":6475,"簧":6476,"簪":6477,"簫":6478,"簷":6479,"簸":6480,"簽":6481,"簾":6482,"簿":6483,"籀":6484,"籁":6485,"籃":6486,"籌":6487,"籍":6488,"籐":6489,"籓":6490,"籔":6491,"籙":6492,"籟":6493,"籠":6494,"籤":6495,"籬":6496,"籲":6497,"米":6498,"类":6499,"籽":6500,"籾":6501,"粁":6502,"粂":6503,"粄":6504,"粉":6505,"粋":6506,"粍":6507,"粑":6508,"粒":6509,"粕":6510,"粗":6511,"粘":6512,"粛":6513,"粟":6514,"粤":6515,"粥":6516,"粧":6517,"粪":6518,"粮":6519,"粱":6520,"粲":6521,"粳":6522,"粵":6523,"粹":6524,"粽":6525,"精":6526,"粿":6527,"糀":6528,"糅":6529,"糊":6530,"糍":6531,"糎":6532,"糕":6533,"糖":6534,"糗":6535,"糙":6536,"糜":6537,"糞":6538,"糟":6539,"糠":6540,"糧":6541,"糬":6542,"糯":6543,"糰":6544,"糸":6545,"糹":6546,"糺":6547,"系":6548,"糾":6549,"紀":6550,"紂":6551,"約":6552,"紅":6553,"紆":6554,"紇":6555,"紉":6556,"紊":6557,"紋":6558,"納":6559,"紐":6560,"紓":6561,"純":6562,"紗":6563,"紘":6564,"紙":6565,"級":6566,"紛":6567,"紜":6568,"素":6569,"紡":6570,"索":6571,"紧":6572,"紫":6573,"紬":6574,"紮":6575,"累":6576,"細":6577,"紳":6578,"紹":6579,"紺":6580,"終":6581,"絃":6582,"組":6583,"絅":6584,"絆":6585,"経":6586,"結":6587,"絕":6588,"絜":6589,"絞":6590,"絡":6591,"絢":6592,"絣":6593,"給":6594,"絨":6595,"絮":6596,"統":6597,"絲":6598,"絳":6599,"絵":6600,"絶":6601,"絹":6602,"綁":6603,"綃":6604,"綉":6605,"綏":6606,"綑":6607,"經":6608,"継":6609,"続":6610,"綜":6611,"綝":6612,"綠":6613,"綢":6614,"綦":6615,"綫":6616,"綬":6617,"維":6618,"綰":6619,"綱":6620,"網":6621,"綴":6622,"綵":6623,"綸":6624,"綺":6625,"綻":6626,"綽":6627,"綾":6628,"綿":6629,"緊":6630,"緋":6631,"総":6632,"緑":6633,"緒":6634,"緖":6635,"緘":6636,"線":6637,"緝":6638,"緞":6639,"締":6640,"緡":6641,"緣":6642,"編":6643,"緩":6644,"緬":6645,"緯":6646,"緲":6647,"練":6648,"緹":6649,"緻":6650,"縁":6651,"縄":6652,"縈":6653,"縉":6654,"縊":6655,"縛":6656,"縝":6657,"縞":6658,"縣":6659,"縦":6660,"縫":6661,"縮":6662,"縯":6663,"縱":6664,"縷":6665,"縹":6666,"縻":6667,"總":6668,"績":6669,"繁":6670,"繃":6671,"繆":6672,"繇":6673,"繊":6674,"繋":6675,"繍":6676,"繒":6677,"織":6678,"繕":6679,"繙":6680,"繚":6681,"繞":6682,"繡":6683,"繩":6684,"繪":6685,"繫":6686,"繭":6687,"繰":6688,"繳":6689,"繹":6690,"繼":6691,"繽":6692,"纂":6693,"纈":6694,"續":6695,"纍":6696,"纏":6697,"纓":6698,"纖":6699,"纘":6700,"纛":6701,"纜":6702,"纠":6703,"红":6704,"纣":6705,"纤":6706,"纥":6707,"约":6708,"级":6709,"纪":6710,"纫":6711,"纬":6712,"纭":6713,"纮":6714,"纯":6715,"纱":6716,"纲":6717,"纳":6718,"纵":6719,"纶":6720,"纷":6721,"纸":6722,"纹":6723,"纺":6724,"纽":6725,"纾":6726,"线":6727,"绀":6728,"绂":6729,"练":6730,"组":6731,"绅":6732,"细":6733,"织":6734,"终":6735,"绊":6736,"绍":6737,"绎":6738,"经":6739,"绑":6740,"绒":6741,"结":6742,"绕":6743,"绘":6744,"给":6745,"绚":6746,"绛":6747,"络":6748,"绝":6749,"绞":6750,"统":6751,"绡":6752,"绢":6753,"绣":6754,"绥":6755,"继":6756,"绩":6757,"绪":6758,"绫":6759,"续":6760,"绮":6761,"绯":6762,"绰":6763,"绳":6764,"维":6765,"绵":6766,"绶":6767,"绷":6768,"绸":6769,"综":6770,"绽":6771,"绾":6772,"绿":6773,"缀":6774,"缄":6775,"缅":6776,"缆":6777,"缇":6778,"缉":6779,"缎":6780,"缓":6781,"缔":6782,"缕":6783,"编":6784,"缘":6785,"缙":6786,"缚":6787,"缜":6788,"缝":6789,"缟":6790,"缠":6791,"缢":6792,"缤":6793,"缨":6794,"缩":6795,"缪":6796,"缬":6797,"缭":6798,"缮":6799,"缯":6800,"缴":6801,"缵":6802,"缶":6803,"缸":6804,"缺":6805,"缽":6806,"罂":6807,"罄":6808,"罅":6809,"罈":6810,"罌":6811,"罐":6812,"网":6813,"罔":6814,"罕":6815,"罗":6816,"罘":6817,"罚":6818,"罟":6819,"罠":6820,"罡":6821,"罢":6822,"罩":6823,"罪":6824,"置":6825,"罰":6826,"署":6827,"罵":6828,"罷":6829,"罹":6830,"罽":6831,"羁":6832,"羅":6833,"羆":6834,"羈":6835,"羊":6836,"羋":6837,"羌":6838,"美":6839,"羔":6840,"羚":6841,"羞":6842,"羟":6843,"羡":6844,"羣":6845,"群":6846,"羥":6847,"羧":6848,"羨":6849,"義":6850,"羯":6851,"羰":6852,"羲":6853,"羸":6854,"羹":6855,"羽":6856,"羿":6857,"翀":6858,"翁":6859,"翅":6860,"翊":6861,"翌":6862,"翎":6863,"習":6864,"翔":6865,"翕":6866,"翘":6867,"翟":6868,"翠":6869,"翡":6870,"翥":6871,"翦":6872,"翩":6873,"翫":6874,"翮":6875,"翰":6876,"翱":6877,"翳":6878,"翹":6879,"翻":6880,"翼":6881,"耀":6882,"老":6883,"考":6884,"者":6885,"耆":6886,"而":6887,"耍":6888,"耐":6889,"耒":6890,"耕":6891,"耗":6892,"耘":6893,"耙":6894,"耜":6895,"耦":6896,"耨":6897,"耳":6898,"耶":6899,"耸":6900,"耻":6901,"耽":6902,"耿":6903,"聂":6904,"聃":6905,"聆":6906,"聊":6907,"聋":6908,"职":6909,"联":6910,"聖":6911,"聘":6912,"聚":6913,"聞":6914,"聡":6915,"聪":6916,"聯":6917,"聰":6918,"聲":6919,"聳":6920,"聴":6921,"聶":6922,"職":6923,"聽":6924,"聾":6925,"聿":6926,"肃":6927,"肄":6928,"肅":6929,"肆":6930,"肇":6931,"肉":6932,"肋":6933,"肌":6934,"肓":6935,"肖":6936,"肘":6937,"肚":6938,"肛":6939,"肜":6940,"肝":6941,"肟":6942,"肠":6943,"股":6944,"肢":6945,"肤":6946,"肥":6947,"肩":6948,"肪":6949,"肮":6950,"肯":6951,"肱":6952,"育":6953,"肴":6954,"肺":6955,"肼":6956,"肽":6957,"肾":6958,"肿":6959,"胀":6960,"胁":6961,"胃":6962,"胄":6963,"胆":6964,"背":6965,"胍":6966,"胎":6967,"胖":6968,"胚":6969,"胛":6970,"胜":6971,"胝":6972,"胞":6973,"胡":6974,"胤":6975,"胥":6976,"胧":6977,"胪":6978,"胫":6979,"胭":6980,"胯":6981,"胰":6982,"胱":6983,"胳":6984,"胴":6985,"胶":6986,"胸":6987,"胺":6988,"胼":6989,"能":6990,"脂":6991,"脅":6992,"脆":6993,"脇":6994,"脈":6995,"脉":6996,"脊":6997,"脍":6998,"脏":6999,"脐":7000,"脑":7001,"脓":7002,"脖":7003,"脚":7004,"脛":7005,"脣":7006,"脩":7007,"脫":7008,"脯":7009,"脱":7010,"脲":7011,"脳":7012,"脷":7013,"脸":7014,"脹":7015,"脾":7016,"腆":7017,"腈":7018,"腊":7019,"腋":7020,"腌":7021,"腎":7022,"腐":7023,"腑":7024,"腓":7025,"腔":7026,"腕":7027,"腥":7028,"腦":7029,"腩":7030,"腫":7031,"腭":7032,"腮":7033,"腰":7034,"腱":7035,"腳":7036,"腴":7037,"腸":7038,"腹":7039,"腺":7040,"腻":7041,"腾":7042,"腿":7043,"膀":7044,"膂":7045,"膈":7046,"膊":7047,"膏":7048,"膑":7049,"膚":7050,"膛":7051,"膜":7052,"膝":7053,"膠":7054,"膣":7055,"膦":7056,"膨":7057,"膩":7058,"膳":7059,"膵":7060,"膺":7061,"膽":7062,"膾":7063,"膿":7064,"臀":7065,"臂":7066,"臆":7067,"臈":7068,"臉":7069,"臍":7070,"臏":7071,"臓":7072,"臘":7073,"臚":7074,"臟":7075,"臣":7076,"臥":7077,"臧":7078,"臨":7079,"自":7080,"臬":7081,"臭":7082,"至":7083,"致":7084,"臺":7085,"臻":7086,"臼":7087,"臾":7088,"舁":7089,"舂":7090,"舅":7091,"舆":7092,"與":7093,"興":7094,"舉":7095,"舊":7096,"舌":7097,"舍":7098,"舎":7099,"舐":7100,"舒":7101,"舔":7102,"舖":7103,"舗":7104,"舘":7105,"舛":7106,"舜":7107,"舞":7108,"舟":7109,"舢":7110,"舩":7111,"航":7112,"舫":7113,"般":7114,"舯":7115,"舰":7116,"舱":7117,"舳":7118,"舵":7119,"舶":7120,"舷":7121,"舸":7122,"船":7123,"舺":7124,"舾":7125,"艀":7126,"艇":7127,"艉":7128,"艋":7129,"艏":7130,"艘":7131,"艙":7132,"艛":7133,"艤":7134,"艦":7135,"艮":7136,"良":7137,"艰":7138,"艱":7139,"色":7140,"艳":7141,"艶":7142,"艷":7143,"艸":7144,"艹":7145,"艺":7146,"艾":7147,"节":7148,"芃":7149,"芈":7150,"芊":7151,"芋":7152,"芍":7153,"芎":7154,"芒":7155,"芗":7156,"芙":7157,"芜":7158,"芝":7159,"芡":7160,"芥":7161,"芦":7162,"芨":7163,"芩":7164,"芪":7165,"芫":7166,"芬":7167,"芭":7168,"芮":7169,"芯":7170,"花":7171,"芳":7172,"芷":7173,"芸":7174,"芹":7175,"芻":7176,"芽":7177,"芾":7178,"苄":7179,"苅":7180,"苇":7181,"苋":7182,"苌":7183,"苍":7184,"苎":7185,"苏":7186,"苑":7187,"苓":7188,"苔":7189,"苕":7190,"苗":7191,"苛":7192,"苜":7193,"苞":7194,"苟":7195,"苡":7196,"苣":7197,"若":7198,"苦":7199,"苧":7200,"苫":7201,"苯":7202,"英":7203,"苳":7204,"苴":7205,"苷":7206,"苹":7207,"苺":7208,"苻":7209,"苾":7210,"茁":7211,"茂":7212,"范":7213,"茄":7214,"茅":7215,"茉":7216,"茌":7217,"茎":7218,"茔":7219,"茗":7220,"茛":7221,"茜":7222,"茧":7223,"茨":7224,"茫":7225,"茯":7226,"茱":7227,"茲":7228,"茴":7229,"茵":7230,"茶":7231,"茸":7232,"茹":7233,"荀":7234,"荃":7235,"荆":7236,"草":7237,"荊":7238,"荏":7239,"荐":7240,"荒":7241,"荔":7242,"荖":7243,"荘":7244,"荚":7245,"荞":7246,"荟":7247,"荠":7248,"荡":7249,"荣":7250,"荤":7251,"荥":7252,"荧":7253,"荨":7254,"荩":7255,"荪":7256,"荫":7257,"药":7258,"荳":7259,"荷":7260,"荸":7261,"荻":7262,"荼":7263,"荽":7264,"莅":7265,"莆":7266,"莉":7267,"莊":7268,"莎":7269,"莒":7270,"莓":7271,"莖":7272,"莘":7273,"莞":7274,"莠":7275,"莢":7276,"莧":7277,"莨":7278,"莪":7279,"莫":7280,"莱":7281,"莲":7282,"莳":7283,"莴":7284,"获":7285,"莹":7286,"莺":7287,"莽":7288,"莿":7289,"菀":7290,"菁":7291,"菅":7292,"菇":7293,"菈":7294,"菊":7295,"菌":7296,"菏":7297,"菓":7298,"菖":7299,"菘":7300,"菜":7301,"菝":7302,"菟":7303,"菠":7304,"菡":7305,"菩":7306,"菫":7307,"華":7308,"菰":7309,"菱":7310,"菲":7311,"菴":7312,"菸":7313,"菽":7314,"萁":7315,"萃":7316,"萄":7317,"萇":7318,"萊":7319,"萌":7320,"萍":7321,"萎":7322,"萘":7323,"萜":7324,"萝":7325,"萠":7326,"萣":7327,"萤":7328,"营":7329,"萦":7330,"萧":7331,"萨":7332,"萩":7333,"萬":7334,"萱":7335,"萵":7336,"萸":7337,"萼":7338,"落":7339,"葆":7340,"葉":7341,"葎":7342,"著":7343,"葛":7344,"葜":7345,"葡":7346,"董":7347,"葦":7348,"葩":7349,"葫":7350,"葬":7351,"葭":7352,"葯":7353,"葱":7354,"葳":7355,"葵":7356,"葶":7357,"葷":7358,"葺":7359,"蒂":7360,"蒋":7361,"蒐":7362,"蒔":7363,"蒙":7364,"蒜":7365,"蒞":7366,"蒟":7367,"蒡":7368,"蒨":7369,"蒯":7370,"蒲":7371,"蒴":7372,"蒸":7373,"蒺":7374,"蒻":7375,"蒼":7376,"蒽":7377,"蒾":7378,"蒿":7379,"蓀":7380,"蓁":7381,"蓄":7382,"蓆":7383,"蓉":7384,"蓋":7385,"蓍":7386,"蓑":7387,"蓓":7388,"蓖":7389,"蓝":7390,"蓟":7391,"蓣":7392,"蓬":7393,"蓮":7394,"蓼":7395,"蓿":7396,"蔀":7397,"蔑":7398,"蔓":7399,"蔔":7400,"蔗":7401,"蔘":7402,"蔚":7403,"蔡":7404,"蔣":7405,"蔥":7406,"蔦":7407,"蔬":7408,"蔭":7409,"蔴":7410,"蔵":7411,"蔷":7412,"蔺":7413,"蔻":7414,"蔼":7415,"蔽":7416,"蕁":7417,"蕃":7418,"蕈":7419,"蕉":7420,"蕊":7421,"蕎":7422,"蕗":7423,"蕙":7424,"蕤":7425,"蕨":7426,"蕩":7427,"蕪":7428,"蕭":7429,"蕲":7430,"蕴":7431,"蕷":7432,"蕾":7433,"薀":7434,"薄":7435,"薇":7436,"薈":7437,"薊":7438,"薌":7439,"薏":7440,"薑":7441,"薔":7442,"薗":7443,"薙":7444,"薛":7445,"薜":7446,"薦":7447,"薨":7448,"薩":7449,"薪":7450,"薫":7451,"薬":7452,"薮":7453,"薯":7454,"薰":7455,"薷":7456,"薹":7457,"薺":7458,"藁":7459,"藉":7460,"藍":7461,"藎":7462,"藏":7463,"藐":7464,"藓":7465,"藔":7466,"藕":7467,"藜":7468,"藝":7469,"藤":7470,"藥":7471,"藨":7472,"藩":7473,"藪":7474,"藷":7475,"藹":7476,"藺":7477,"藻":7478,"藿":7479,"蘂":7480,"蘄":7481,"蘅":7482,"蘆":7483,"蘇":7484,"蘊":7485,"蘋":7486,"蘑":7487,"蘚":7488,"蘭":7489,"蘸":7490,"蘿":7491,"虎":7492,"虏":7493,"虐":7494,"虑":7495,"虓":7496,"虔":7497,"處":7498,"虚":7499,"虛":7500,"虜":7501,"虞":7502,"號":7503,"虢":7504,"虧":7505,"虫":7506,"虬":7507,"虯":7508,"虱":7509,"虹":7510,"虻":7511,"虽":7512,"虾":7513,"蚀":7514,"蚁":7515,"蚂":7516,"蚊":7517,"蚋":7518,"蚌":7519,"蚓":7520,"蚕":7521,"蚜":7522,"蚝":7523,"蚣":7524,"蚤":7525,"蚩":7526,"蚪":7527,"蚬":7528,"蚯":7529,"蚱":7530,"蚵":7531,"蚶":7532,"蚺":7533,"蛀":7534,"蛄":7535,"蛆":7536,"蛇":7537,"蛉":7538,"蛊":7539,"蛋":7540,"蛍":7541,"蛎":7542,"蛏":7543,"蛔":7544,"蛙":7545,"蛛":7546,"蛞":7547,"蛟":7548,"蛤":7549,"蛭":7550,"蛮":7551,"蛯":7552,"蛰":7553,"蛱":7554,"蛳":7555,"蛸":7556,"蛹":7557,"蛺":7558,"蛻":7559,"蛾":7560,"蜀":7561,"蜂":7562,"蜃":7563,"蜆":7564,"蜈":7565,"蜉":7566,"蜊":7567,"蜍":7568,"蜑":7569,"蜒":7570,"蜓":7571,"蜕":7572,"蜗":7573,"蜘":7574,"蜚":7575,"蜜":7576,"蜡":7577,"蜢":7578,"蜥":7579,"蜱":7580,"蜴":7581,"蜷":7582,"蜻":7583,"蜿":7584,"蝇":7585,"蝉":7586,"蝋":7587,"蝌":7588,"蝎":7589,"蝓":7590,"蝕":7591,"蝗":7592,"蝙":7593,"蝟":7594,"蝠":7595,"蝣":7596,"蝦":7597,"蝨":7598,"蝮":7599,"蝰":7600,"蝴":7601,"蝶":7602,"蝸":7603,"蝽":7604,"蝾":7605,"蝿":7606,"螂":7607,"螃":7608,"螄":7609,"螈":7610,"融":7611,"螞":7612,"螟":7613,"螢":7614,"螨":7615,"螫":7616,"螭":7617,"螯":7618,"螳":7619,"螺":7620,"螽":7621,"蟀":7622,"蟄":7623,"蟆":7624,"蟇":7625,"蟋":7626,"蟎":7627,"蟑":7628,"蟒":7629,"蟜":7630,"蟠":7631,"蟬":7632,"蟲":7633,"蟷":7634,"蟹":7635,"蟻":7636,"蟾":7637,"蠅":7638,"蠊":7639,"蠍":7640,"蠑":7641,"蠔":7642,"蠕":7643,"蠟":7644,"蠡":7645,"蠢":7646,"蠣":7647,"蠱":7648,"蠲":7649,"蠵":7650,"蠶":7651,"蠹":7652,"蠻":7653,"血":7654,"衅":7655,"衆":7656,"衊":7657,"行":7658,"衍":7659,"衒":7660,"術":7661,"衔":7662,"衕":7663,"街":7664,"衙":7665,"衚":7666,"衛":7667,"衝":7668,"衞":7669,"衡":7670,"衢":7671,"衣":7672,"补":7673,"表":7674,"衫":7675,"衬":7676,"衮":7677,"衰":7678,"衷":7679,"衹":7680,"衽":7681,"衾":7682,"衿":7683,"袁":7684,"袂":7685,"袄":7686,"袈":7687,"袋":7688,"袍":7689,"袒":7690,"袖":7691,"袛":7692,"袜":7693,"袞":7694,"袢":7695,"袤":7696,"被":7697,"袭":7698,"袱":7699,"袴":7700,"裁":7701,"裂":7702,"装":7703,"裏":7704,"裒":7705,"裔":7706,"裕":7707,"裘":7708,"裙":7709,"補":7710,"裝":7711,"裟":7712,"裡":7713,"裤":7714,"裨":7715,"裱":7716,"裳":7717,"裴":7718,"裵":7719,"裸":7720,"裹":7721,"製":7722,"裾":7723,"褂":7724,"複":7725,"褌":7726,"褐":7727,"褒":7728,"褓":7729,"褔":7730,"褚":7731,"褥":7732,"褪":7733,"褫":7734,"褲":7735,"褶":7736,"褻":7737,"襁":7738,"襄":7739,"襖":7740,"襞":7741,"襟":7742,"襦":7743,"襪":7744,"襯":7745,"襲":7746,"襷":7747,"西":7748,"要":7749,"覃":7750,"覆":7751,"覇":7752,"見":7753,"規":7754,"覓":7755,"視":7756,"覗":7757,"覚":7758,"覦":7759,"覧":7760,"親":7761,"覬":7762,"覲":7763,"観":7764,"覺":7765,"覽":7766,"觀":7767,"见":7768,"观":7769,"规":7770,"觅":7771,"视":7772,"览":7773,"觉":7774,"觊":7775,"觎":7776,"觐":7777,"角":7778,"觚":7779,"觞":7780,"解":7781,"触":7782,"觴":7783,"觸":7784,"言":7785,"訁":7786,"訂":7787,"訃":7788,"訇":7789,"計":7790,"訊":7791,"訌":7792,"討":7793,"訓":7794,"訕":7795,"訖":7796,"託":7797,"記":7798,"訛":7799,"訝":7800,"訟":7801,"訢":7802,"訣":7803,"訥":7804,"訪":7805,"設":7806,"許":7807,"訳":7808,"訴":7809,"訶":7810,"診":7811,"註":7812,"証":7813,"訾":7814,"詁":7815,"詆":7816,"詈":7817,"詐":7818,"詒":7819,"詔":7820,"評":7821,"詛":7822,"詞":7823,"詠":7824,"詡":7825,"詢":7826,"詣":7827,"試":7828,"詧":7829,"詩":7830,"詫":7831,"詬":7832,"詭":7833,"詮":7834,"詰":7835,"話":7836,"該":7837,"詳":7838,"詵":7839,"詹":7840,"詼":7841,"誅":7842,"誇":7843,"誉":7844,"誊":7845,"誌":7846,"認":7847,"誑":7848,"誓":7849,"誕":7850,"誘":7851,"語":7852,"誠":7853,"誡":7854,"誣":7855,"誤":7856,"誥":7857,"誦":7858,"誨":7859,"說":7860,"説":7861,"読":7862,"誰":7863,"課":7864,"誹":7865,"誼":7866,"誾":7867,"調":7868,"諂":7869,"諄":7870,"談":7871,"請":7872,"諌":7873,"諍":7874,"諏":7875,"諒":7876,"論":7877,"諛":7878,"諜":7879,"諡":7880,"諤":7881,"諦":7882,"諧":7883,"諫":7884,"諭":7885,"諮":7886,"諱":7887,"諲":7888,"諳":7889,"諴":7890,"諶":7891,"諷":7892,"諸":7893,"諺":7894,"諾":7895,"謀":7896,"謁":7897,"謂":7898,"謄":7899,"謇":7900,"謊":7901,"謎":7902,"謐":7903,"謔":7904,"謖":7905,"謗":7906,"謙":7907,"謚":7908,"講":7909,"謝":7910,"謠":7911,"謡":7912,"謨":7913,"謫":7914,"謬":7915,"謳":7916,"謹":7917,"謾":7918,"譁":7919,"證":7920,"譏":7921,"識":7922,"譙":7923,"譚":7924,"譜":7925,"警":7926,"譬":7927,"譯":7928,"議":7929,"譲":7930,"譴":7931,"護":7932,"譽":7933,"讀":7934,"讃":7935,"變":7936,"讎":7937,"讐":7938,"讒":7939,"讓":7940,"讖":7941,"讚":7942,"讞":7943,"计":7944,"订":7945,"讣":7946,"认":7947,"讥":7948,"讦":7949,"讧":7950,"讨":7951,"让":7952,"讪":7953,"讫":7954,"训":7955,"议":7956,"讯":7957,"记":7958,"讲":7959,"讳":7960,"讴":7961,"讶":7962,"讷":7963,"许":7964,"讹":7965,"论":7966,"讼":7967,"讽":7968,"设":7969,"访":7970,"诀":7971,"证":7972,"诂":7973,"诃":7974,"评":7975,"诅":7976,"识":7977,"诈":7978,"诉":7979,"诊":7980,"诋":7981,"词":7982,"诏":7983,"译":7984,"诒":7985,"试":7986,"诗":7987,"诘":7988,"诙":7989,"诚":7990,"诛":7991,"诜":7992,"话":7993,"诞":7994,"诟":7995,"诠":7996,"诡":7997,"询":7998,"诣":7999,"诤":8000,"该":8001,"详":8002,"诧":8003,"诩":8004,"诫":8005,"诬":8006,"语":8007,"误":8008,"诰":8009,"诱":8010,"诲":8011,"说":8012,"诵":8013,"请":8014,"诸":8015,"诹":8016,"诺":8017,"读":8018,"诽":8019,"课":8020,"谀":8021,"谁":8022,"调":8023,"谄":8024,"谅":8025,"谈":8026,"谊":8027,"谋":8028,"谌":8029,"谍":8030,"谎":8031,"谏":8032,"谐":8033,"谑":8034,"谒":8035,"谓":8036,"谔":8037,"谕":8038,"谗":8039,"谘":8040,"谙":8041,"谚":8042,"谛":8043,"谜":8044,"谟":8045,"谢":8046,"谣":8047,"谤":8048,"谥":8049,"谦":8050,"谧":8051,"谨":8052,"谩":8053,"谪":8054,"谬":8055,"谭":8056,"谯":8057,"谱":8058,"谳":8059,"谴":8060,"谶":8061,"谷":8062,"谿":8063,"豁":8064,"豆":8065,"豈":8066,"豉":8067,"豊":8068,"豌":8069,"豎":8070,"豐":8071,"豔":8072,"豕":8073,"豚":8074,"象":8075,"豢":8076,"豨":8077,"豪":8078,"豫":8079,"豬":8080,"豳":8081,"豸":8082,"豹":8083,"豺":8084,"貂":8085,"貉":8086,"貊":8087,"貌":8088,"貓":8089,"貘":8090,"貝":8091,"貞":8092,"負":8093,"財":8094,"貢":8095,"貧":8096,"貨":8097,"販":8098,"貪":8099,"貫":8100,"責":8101,"貯":8102,"貰":8103,"貳":8104,"貴":8105,"貶":8106,"買":8107,"貸":8108,"費":8109,"貼":8110,"貽":8111,"貿":8112,"賀":8113,"賁":8114,"賂":8115,"賃":8116,"賄":8117,"資":8118,"賈":8119,"賊":8120,"賎":8121,"賑":8122,"賓":8123,"賚":8124,"賛":8125,"賜":8126,"賞":8127,"賠":8128,"賡":8129,"賢":8130,"賣":8131,"賤":8132,"賦":8133,"質":8134,"賬":8135,"賭":8136,"賴":8137,"賺":8138,"購":8139,"賽":8140,"賾":8141,"贄":8142,"贅":8143,"贇":8144,"贈":8145,"贊":8146,"贋":8147,"贍":8148,"贏":8149,"贓":8150,"贔":8151,"贖":8152,"贛":8153,"贝":8154,"贞":8155,"负":8156,"贡":8157,"财":8158,"责":8159,"贤":8160,"败":8161,"账":8162,"货":8163,"质":8164,"贩":8165,"贪":8166,"贫":8167,"贬":8168,"购":8169,"贮":8170,"贯":8171,"贰":8172,"贱":8173,"贲":8174,"贴":8175,"贵":8176,"贷":8177,"贸":8178,"费":8179,"贺":8180,"贻":8181,"贼":8182,"贽":8183,"贾":8184,"贿":8185,"赀":8186,"赁":8187,"赂":8188,"赃":8189,"资":8190,"赈":8191,"赉":8192,"赋":8193,"赌":8194,"赍":8195,"赎":8196,"赏":8197,"赐":8198,"赓":8199,"赔":8200,"赖":8201,"赘":8202,"赚":8203,"赛":8204,"赝":8205,"赞":8206,"赟":8207,"赠":8208,"赡":8209,"赢":8210,"赣":8211,"赤":8212,"赦":8213,"赧":8214,"赫":8215,"赭":8216,"走":8217,"赳":8218,"赴":8219,"赵":8220,"赶":8221,"起":8222,"趁":8223,"超":8224,"越":8225,"趋":8226,"趕":8227,"趙":8228,"趟":8229,"趣":8230,"趨":8231,"足":8232,"趴":8233,"趸":8234,"趺":8235,"趾":8236,"跃":8237,"跆":8238,"跋":8239,"跌":8240,"跏":8241,"跑":8242,"跖":8243,"跗":8244,"跛":8245,"距":8246,"跟":8247,"跡":8248,"跤":8249,"跨":8250,"跪":8251,"路":8252,"跳":8253,"践":8254,"跷":8255,"跸":8256,"跻":8257,"踊":8258,"踏":8259,"踐":8260,"踝":8261,"踞":8262,"踢":8263,"踩":8264,"踪":8265,"踰":8266,"踴":8267,"踵":8268,"踹":8269,"蹂":8270,"蹄":8271,"蹇":8272,"蹈":8273,"蹉":8274,"蹊":8275,"蹋":8276,"蹕":8277,"蹙":8278,"蹟":8279,"蹠":8280,"蹤":8281,"蹦":8282,"蹬":8283,"蹲":8284,"蹴":8285,"蹶":8286,"蹺":8287,"蹼":8288,"躁":8289,"躄":8290,"躅":8291,"躇":8292,"躉":8293,"躊":8294,"躋":8295,"躍":8296,"躏":8297,"躑":8298,"躓":8299,"躙":8300,"躪":8301,"身":8302,"躬":8303,"躯":8304,"躰":8305,"躲":8306,"躺":8307,"躾":8308,"軀":8309,"車":8310,"軋":8311,"軌":8312,"軍":8313,"軒":8314,"軔":8315,"軛":8316,"軟":8317,"転":8318,"軫":8319,"軸":8320,"軻":8321,"軼":8322,"軽":8323,"軾":8324,"較":8325,"輅":8326,"載":8327,"輋":8328,"輌":8329,"輒":8330,"輓":8331,"輔":8332,"輕":8333,"輛":8334,"輜":8335,"輝":8336,"輟":8337,"輥":8338,"輦":8339,"輩":8340,"輪":8341,"輯":8342,"輳":8343,"輸":8344,"輻":8345,"輾":8346,"輿":8347,"轂":8348,"轄":8349,"轅":8350,"轆":8351,"轉":8352,"轍":8353,"轎":8354,"轟":8355,"轡":8356,"轢":8357,"轤":8358,"车":8359,"轧":8360,"轨":8361,"轩":8362,"轫":8363,"转":8364,"轭":8365,"轮":8366,"软":8367,"轰":8368,"轲":8369,"轴":8370,"轶":8371,"轸":8372,"轻":8373,"轼":8374,"载":8375,"轿":8376,"辂":8377,"较":8378,"辄":8379,"辅":8380,"辆":8381,"辇":8382,"辈":8383,"辉":8384,"辊":8385,"辍":8386,"辎":8387,"辐":8388,"辑":8389,"输":8390,"辕":8391,"辖":8392,"辗":8393,"辘":8394,"辙":8395,"辛":8396,"辜":8397,"辞":8398,"辟":8399,"辣":8400,"辦":8401,"辨":8402,"辩":8403,"辫":8404,"辭":8405,"辮":8406,"辯":8407,"辰":8408,"辱":8409,"農":8410,"辶":8411,"边":8412,"辺":8413,"辻":8414,"込":8415,"辽":8416,"达":8417,"辿":8418,"迁":8419,"迂":8420,"迄":8421,"迅":8422,"过":8423,"迈":8424,"迎":8425,"运":8426,"近":8427,"返":8428,"还":8429,"这":8430,"进":8431,"远":8432,"违":8433,"连":8434,"迟":8435,"迢":8436,"迤":8437,"迥":8438,"迦":8439,"迨":8440,"迩":8441,"迪":8442,"迫":8443,"迭":8444,"述":8445,"迳":8446,"迴":8447,"迷":8448,"迸":8449,"迹":8450,"迺":8451,"追":8452,"退":8453,"送":8454,"适":8455,"逃":8456,"逄":8457,"逅":8458,"逆":8459,"选":8460,"逊":8461,"逋":8462,"逍":8463,"透":8464,"逐":8465,"逑":8466,"递":8467,"逓":8468,"途":8469,"逕":8470,"逖":8471,"逗":8472,"這":8473,"通":8474,"逛":8475,"逝":8476,"逞":8477,"速":8478,"造":8479,"逡":8480,"逢":8481,"連":8482,"逮":8483,"逯":8484,"週":8485,"進":8486,"逵":8487,"逸":8488,"逹":8489,"逻":8490,"逼":8491,"逾":8492,"遁":8493,"遂":8494,"遅":8495,"遇":8496,"遊":8497,"運":8498,"遍":8499,"過":8500,"遏":8501,"遐":8502,"遑":8503,"遒":8504,"道":8505,"達":8506,"違":8507,"遗":8508,"遘":8509,"遙":8510,"遜":8511,"遞":8512,"遠":8513,"遡":8514,"遣":8515,"遥":8516,"遨":8517,"適":8518,"遭":8519,"遮":8520,"遲":8521,"遴":8522,"遵":8523,"遶":8524,"遷":8525,"選":8526,"遹":8527,"遺":8528,"遼":8529,"遽":8530,"避":8531,"邀":8532,"邁":8533,"邂":8534,"邃":8535,"還":8536,"邇":8537,"邈":8538,"邉":8539,"邊":8540,"邏":8541,"邑":8542,"邓":8543,"邕":8544,"邗":8545,"邙":8546,"邛":8547,"邝":8548,"邠":8549,"邡":8550,"邢":8551,"那":8552,"邦":8553,"邨":8554,"邪":8555,"邬":8556,"邮":8557,"邯":8558,"邰":8559,"邱":8560,"邳":8561,"邴":8562,"邵":8563,"邸":8564,"邹":8565,"邺":8566,"邻":8567,"邽":8568,"邾":8569,"郁":8570,"郃":8571,"郅":8572,"郇":8573,"郊":8574,"郎":8575,"郑":8576,"郓":8577,"郕":8578,"郗":8579,"郛":8580,"郜":8581,"郝":8582,"郞":8583,"郡":8584,"郢":8585,"郤":8586,"郦":8587,"郧":8588,"部":8589,"郫":8590,"郭":8591,"郯":8592,"郴":8593,"郵":8594,"郷":8595,"郸":8596,"都":8597,"郾":8598,"郿":8599,"鄂":8600,"鄄":8601,"鄆":8602,"鄉":8603,"鄒":8604,"鄔":8605,"鄕":8606,"鄖":8607,"鄙":8608,"鄚":8609,"鄜":8610,"鄞":8611,"鄠":8612,"鄢":8613,"鄣":8614,"鄧":8615,"鄭":8616,"鄯":8617,"鄰":8618,"鄱":8619,"鄲":8620,"鄴":8621,"鄺":8622,"酆":8623,"酈":8624,"酉":8625,"酊":8626,"酋":8627,"酌":8628,"配":8629,"酎":8630,"酐":8631,"酒":8632,"酔":8633,"酗":8634,"酚":8635,"酝":8636,"酞":8637,"酢":8638,"酣":8639,"酥":8640,"酩":8641,"酪":8642,"酬":8643,"酮":8644,"酯":8645,"酰":8646,"酱":8647,"酵":8648,"酶":8649,"酷":8650,"酸":8651,"酿":8652,"醃":8653,"醇":8654,"醉":8655,"醋":8656,"醌":8657,"醍":8658,"醐":8659,"醒":8660,"醗":8661,"醚":8662,"醛":8663,"醜":8664,"醞":8665,"醣":8666,"醤":8667,"醪":8668,"醫":8669,"醬":8670,"醮":8671,"醯":8672,"醴":8673,"醸":8674,"醺":8675,"釀":8676,"釁":8677,"采":8678,"釈":8679,"釉":8680,"释":8681,"釋":8682,"里":8683,"重":8684,"野":8685,"量":8686,"釐":8687,"金":8688,"釔":8689,"釗":8690,"釘":8691,"釜":8692,"針":8693,"釣":8694,"釤":8695,"釧":8696,"釩":8697,"釵":8698,"釷":8699,"鈀":8700,"鈉":8701,"鈍":8702,"鈎":8703,"鈐":8704,"鈑":8705,"鈔":8706,"鈕":8707,"鈞":8708,"鈣":8709,"鈦":8710,"鈮":8711,"鈰":8712,"鈴":8713,"鈷":8714,"鈸":8715,"鈹":8716,"鈺":8717,"鈽":8718,"鈾":8719,"鈿":8720,"鉀":8721,"鉄":8722,"鉅":8723,"鉈":8724,"鉉":8725,"鉋":8726,"鉍":8727,"鉏":8728,"鉑":8729,"鉗":8730,"鉚":8731,"鉛":8732,"鉞":8733,"鉢":8734,"鉤":8735,"鉦":8736,"鉬":8737,"鉭":8738,"鉱":8739,"鉴":8740,"鉸":8741,"鉻":8742,"鉾":8743,"銀":8744,"銃":8745,"銅":8746,"銑":8747,"銓":8748,"銕":8749,"銖":8750,"銘":8751,"銚":8752,"銛":8753,"銜":8754,"銣":8755,"銥":8756,"銦":8757,"銨":8758,"銫":8759,"銬":8760,"銭":8761,"銮":8762,"銳":8763,"銷":8764,"銹":8765,"銻":8766,"銼":8767,"鋁":8768,"鋅":8769,"鋆":8770,"鋇":8771,"鋌":8772,"鋏":8773,"鋐":8774,"鋒":8775,"鋤":8776,"鋪":8777,"鋭":8778,"鋯":8779,"鋰":8780,"鋲":8781,"鋳":8782,"鋸":8783,"鋹":8784,"鋼":8785,"錄":8786,"錆":8787,"錐":8788,"錒":8789,"錕":8790,"錘":8791,"錚":8792,"錠":8793,"錡":8794,"錢":8795,"錦":8796,"錨":8797,"錫":8798,"錬":8799,"錮":8800,"錯":8801,"録":8802,"錳":8803,"錶":8804,"錸":8805,"鍇":8806,"鍊":8807,"鍋":8808,"鍍":8809,"鍔":8810,"鍛":8811,"鍬":8812,"鍮":8813,"鍰":8814,"鍱":8815,"鍵":8816,"鍶":8817,"鍺":8818,"鍼":8819,"鍾":8820,"鎂":8821,"鎊":8822,"鎌":8823,"鎏":8824,"鎔":8825,"鎖":8826,"鎗":8827,"鎘":8828,"鎚":8829,"鎝":8830,"鎢":8831,"鎧":8832,"鎬":8833,"鎭":8834,"鎮":8835,"鎰":8836,"鎳":8837,"鎵":8838,"鏃":8839,"鏈":8840,"鏊":8841,"鏐":8842,"鏑":8843,"鏖":8844,"鏗":8845,"鏘":8846,"鏜":8847,"鏞":8848,"鏟":8849,"鏡":8850,"鏢":8851,"鏤":8852,"鏵":8853,"鏽":8854,"鐐":8855,"鐘":8856,"鐙":8857,"鐡":8858,"鐫":8859,"鐮":8860,"鐲":8861,"鐳":8862,"鐵":8863,"鐸":8864,"鐺":8865,"鑄":8866,"鑅":8867,"鑑":8868,"鑒":8869,"鑓":8870,"鑛":8871,"鑠":8872,"鑣":8873,"鑫":8874,"鑭":8875,"鑰":8876,"鑲":8877,"鑼":8878,"鑽":8879,"鑾":8880,"鑿":8881,"钇":8882,"针":8883,"钉":8884,"钊":8885,"钍":8886,"钏":8887,"钒":8888,"钓":8889,"钗":8890,"钙":8891,"钚":8892,"钛":8893,"钜":8894,"钝":8895,"钞":8896,"钟":8897,"钠":8898,"钡":8899,"钢":8900,"钤":8901,"钥":8902,"钦":8903,"钧":8904,"钨":8905,"钩":8906,"钫":8907,"钮":8908,"钯":8909,"钰":8910,"钱":8911,"钳":8912,"钴":8913,"钵":8914,"钹":8915,"钺":8916,"钻":8917,"钼":8918,"钽":8919,"钾":8920,"钿":8921,"铀":8922,"铁":8923,"铂":8924,"铃":8925,"铅":8926,"铆":8927,"铈":8928,"铉":8929,"铊":8930,"铋":8931,"铌":8932,"铍":8933,"铎":8934,"铐":8935,"铛":8936,"铜":8937,"铝":8938,"铟":8939,"铠":8940,"铢":8941,"铣":8942,"铤":8943,"铧":8944,"铨":8945,"铫":8946,"铬":8947,"铭":8948,"铮":8949,"铯":8950,"铰":8951,"铱":8952,"铲":8953,"铳":8954,"铵":8955,"银":8956,"铷":8957,"铸":8958,"铺":8959,"铼":8960,"链":8961,"铿":8962,"销":8963,"锁":8964,"锂":8965,"锄":8966,"锅":8967,"锆":8968,"锈":8969,"锉":8970,"锋":8971,"锌":8972,"锐":8973,"锑":8974,"锕":8975,"锗":8976,"错":8977,"锚":8978,"锜":8979,"锝":8980,"锟":8981,"锡":8982,"锢":8983,"锣":8984,"锤":8985,"锥":8986,"锦":8987,"锭":8988,"键":8989,"锯":8990,"锰":8991,"锴":8992,"锵":8993,"锶":8994,"锷":8995,"锹":8996,"锺":8997,"锻":8998,"锽":8999,"锾":9000,"镀":9001,"镁":9002,"镂":9003,"镇":9004,"镉":9005,"镌":9006,"镍":9007,"镐":9008,"镑":9009,"镒":9010,"镓":9011,"镕":9012,"镖":9013,"镗":9014,"镛":9015,"镜":9016,"镝":9017,"镠":9018,"镧":9019,"镫":9020,"镭":9021,"镯":9022,"镰":9023,"镳":9024,"镶":9025,"長":9026,"长":9027,"門":9028,"閂":9029,"閃":9030,"閆":9031,"閉":9032,"開":9033,"閎":9034,"閏":9035,"閑":9036,"閒":9037,"間":9038,"閔":9039,"閘":9040,"閡":9041,"関":9042,"閣":9043,"閤":9044,"閥":9045,"閨":9046,"閩":9047,"閬":9048,"閭":9049,"閱":9050,"閲":9051,"閹":9052,"閻":9053,"閼":9054,"閾":9055,"闆":9056,"闇":9057,"闈":9058,"闊":9059,"闋":9060,"闌":9061,"闍":9062,"闐":9063,"闓":9064,"闔":9065,"闕":9066,"闖":9067,"闘":9068,"關":9069,"闞":9070,"闡":9071,"闢":9072,"闥":9073,"门":9074,"闩":9075,"闪":9076,"闫":9077,"闭":9078,"问":9079,"闯":9080,"闰":9081,"闱":9082,"闲":9083,"闳":9084,"间":9085,"闵":9086,"闷":9087,"闸":9088,"闹":9089,"闺":9090,"闻":9091,"闼":9092,"闽":9093,"闾":9094,"闿":9095,"阀":9096,"阁":9097,"阂":9098,"阅":9099,"阆":9100,"阇":9101,"阈":9102,"阉":9103,"阎":9104,"阏":9105,"阐":9106,"阑":9107,"阔":9108,"阕":9109,"阖":9110,"阗":9111,"阙":9112,"阚":9113,"阜":9114,"阝":9115,"队":9116,"阡":9117,"阪":9118,"阮":9119,"阯":9120,"阱":9121,"防":9122,"阳":9123,"阴":9124,"阵":9125,"阶":9126,"阻":9127,"阿":9128,"陀":9129,"陂":9130,"附":9131,"际":9132,"陆":9133,"陇":9134,"陈":9135,"陉":9136,"陋":9137,"陌":9138,"降":9139,"限":9140,"陔":9141,"陕":9142,"陘":9143,"陛":9144,"陜":9145,"陝":9146,"陞":9147,"陟":9148,"陡":9149,"院":9150,"陣":9151,"除":9152,"陥":9153,"陨":9154,"险":9155,"陪":9156,"陰":9157,"陲":9158,"陳":9159,"陵":9160,"陶":9161,"陷":9162,"陸":9163,"険":9164,"陽":9165,"隅":9166,"隆":9167,"隈":9168,"隊":9169,"隋":9170,"隍":9171,"階":9172,"随":9173,"隐":9174,"隔":9175,"隕":9176,"隗":9177,"隘":9178,"隙":9179,"際":9180,"障":9181,"隠":9182,"隣":9183,"隧":9184,"隨":9185,"險":9186,"隰":9187,"隱":9188,"隴":9189,"隶":9190,"隷":9191,"隸":9192,"隹":9193,"隻":9194,"隼":9195,"隽":9196,"难":9197,"雀":9198,"雁":9199,"雄":9200,"雅":9201,"集":9202,"雇":9203,"雉":9204,"雋":9205,"雌":9206,"雍":9207,"雎":9208,"雏":9209,"雑":9210,"雒":9211,"雕":9212,"雖":9213,"雙":9214,"雛":9215,"雜":9216,"雞":9217,"雠":9218,"離":9219,"難":9220,"雨":9221,"雩":9222,"雪":9223,"雫":9224,"雯":9225,"雰":9226,"雲":9227,"雳":9228,"零":9229,"雷":9230,"雹":9231,"電":9232,"雾":9233,"需":9234,"霁":9235,"霄":9236,"霆":9237,"震":9238,"霈":9239,"霉":9240,"霊":9241,"霍":9242,"霎":9243,"霏":9244,"霑":9245,"霓":9246,"霖":9247,"霜":9248,"霞":9249,"霧":9250,"霭":9251,"霰":9252,"露":9253,"霸":9254,"霹":9255,"霽":9256,"霾":9257,"靂":9258,"靄":9259,"靈":9260,"靑":9261,"青":9262,"靓":9263,"靖":9264,"静":9265,"靚":9266,"靛":9267,"靜":9268,"非":9269,"靠":9270,"靡":9271,"面":9272,"革":9273,"靭":9274,"靱":9275,"靳":9276,"靴":9277,"靶":9278,"靺":9279,"靼":9280,"鞄":9281,"鞅":9282,"鞆":9283,"鞋":9284,"鞍":9285,"鞏":9286,"鞑":9287,"鞘":9288,"鞞":9289,"鞠":9290,"鞣":9291,"鞦":9292,"鞨":9293,"鞫":9294,"鞬":9295,"鞭":9296,"鞮":9297,"鞴":9298,"韃":9299,"韆":9300,"韋":9301,"韌":9302,"韓":9303,"韜":9304,"韞":9305,"韦":9306,"韧":9307,"韩":9308,"韫":9309,"韬":9310,"韭":9311,"韮":9312,"音":9313,"韵":9314,"韶":9315,"韻":9316,"響":9317,"頁":9318,"頂":9319,"頃":9320,"項":9321,"順":9322,"須":9323,"頊":9324,"頌":9325,"預":9326,"頑":9327,"頒":9328,"頓":9329,"頗":9330,"領":9331,"頚":9332,"頜":9333,"頠":9334,"頡":9335,"頤":9336,"頦":9337,"頫":9338,"頬":9339,"頭":9340,"頰":9341,"頴":9342,"頵":9343,"頷":9344,"頸":9345,"頹":9346,"頻":9347,"頼":9348,"頽":9349,"顆":9350,"題":9351,"額":9352,"顎":9353,"顏":9354,"顒":9355,"顓":9356,"顔":9357,"顕":9358,"顗":9359,"願":9360,"顛":9361,"類":9362,"顥":9363,"顧":9364,"顫":9365,"顯":9366,"顰":9367,"顱":9368,"顳":9369,"页":9370,"顶":9371,"顷":9372,"项":9373,"顺":9374,"须":9375,"顼":9376,"顽":9377,"顾":9378,"顿":9379,"颁":9380,"颂":9381,"预":9382,"颅":9383,"领":9384,"颇":9385,"颈":9386,"颉":9387,"颊":9388,"颌":9389,"颍":9390,"颏":9391,"颐":9392,"频":9393,"颓":9394,"颔":9395,"颖":9396,"颗":9397,"题":9398,"颙":9399,"颚":9400,"颛":9401,"颜":9402,"额":9403,"颞":9404,"颠":9405,"颢":9406,"颤":9407,"風":9408,"颯":9409,"颱":9410,"颳":9411,"颶":9412,"飄":9413,"飆":9414,"飈":9415,"风":9416,"飒":9417,"飓":9418,"飘":9419,"飙":9420,"飚":9421,"飛":9422,"飜":9423,"飞":9424,"食":9425,"飡":9426,"飢":9427,"飨":9428,"飩":9429,"飪":9430,"飫":9431,"飭":9432,"飮":9433,"飯":9434,"飲":9435,"飴":9436,"飼":9437,"飽":9438,"飾":9439,"餃":9440,"餅":9441,"餉":9442,"養":9443,"餌":9444,"餐":9445,"餓":9446,"餘":9447,"餚":9448,"餞":9449,"餡":9450,"館":9451,"餮":9452,"餵":9453,"餾":9454,"饅":9455,"饉":9456,"饋":9457,"饌":9458,"饑":9459,"饒":9460,"饕":9461,"饗":9462,"饥":9463,"饪":9464,"饬":9465,"饭":9466,"饮":9467,"饯":9468,"饰":9469,"饱":9470,"饲":9471,"饵":9472,"饶":9473,"饷":9474,"饺":9475,"饼":9476,"饿":9477,"馀":9478,"馅":9479,"馆":9480,"馈":9481,"馏":9482,"馑":9483,"馒":9484,"馔":9485,"首":9486,"馗":9487,"馘":9488,"香":9489,"馥":9490,"馨":9491,"馬":9492,"馭":9493,"馮":9494,"馱":9495,"馳":9496,"馴":9497,"駁":9498,"駄":9499,"駅":9500,"駆":9501,"駈":9502,"駐":9503,"駒":9504,"駕":9505,"駙":9506,"駛":9507,"駝":9508,"駟":9509,"駢":9510,"駭":9511,"駱":9512,"駸":9513,"駿":9514,"騁":9515,"騎":9516,"騏":9517,"騒":9518,"験":9519,"騙":9520,"騨":9521,"騫":9522,"騭":9523,"騮":9524,"騰":9525,"騶":9526,"騷":9527,"騾":9528,"驃":9529,"驅":9530,"驊":9531,"驍":9532,"驒":9533,"驕":9534,"驗":9535,"驚":9536,"驛":9537,"驟":9538,"驢":9539,"驤":9540,"驥":9541,"驩":9542,"驪":9543,"马":9544,"驭":9545,"驮":9546,"驯":9547,"驰":9548,"驱":9549,"驳":9550,"驴":9551,"驶":9552,"驷":9553,"驸":9554,"驹":9555,"驺":9556,"驻":9557,"驼":9558,"驾":9559,"驿":9560,"骁":9561,"骂":9562,"骄":9563,"骅":9564,"骆":9565,"骇":9566,"骈":9567,"骊":9568,"骋":9569,"验":9570,"骏":9571,"骐":9572,"骑":9573,"骗":9574,"骘":9575,"骚":9576,"骝":9577,"骞":9578,"骠":9579,"骡":9580,"骤":9581,"骥":9582,"骧":9583,"骨":9584,"骯":9585,"骰":9586,"骶":9587,"骷":9588,"骸":9589,"骼":9590,"髀":9591,"髂":9592,"髄":9593,"髅":9594,"髋":9595,"髏":9596,"髑":9597,"髒":9598,"髓":9599,"體":9600,"髖":9601,"高":9602,"髙":9603,"髡":9604,"髣":9605,"髦":9606,"髪":9607,"髭":9608,"髮":9609,"髯":9610,"髴":9611,"髷":9612,"髹":9613,"髻":9614,"鬃":9615,"鬆":9616,"鬍":9617,"鬓":9618,"鬘":9619,"鬚":9620,"鬟":9621,"鬢":9622,"鬣":9623,"鬥":9624,"鬧":9625,"鬨":9626,"鬪":9627,"鬬":9628,"鬯":9629,"鬱":9630,"鬲":9631,"鬻":9632,"鬼":9633,"魁":9634,"魂":9635,"魃":9636,"魄":9637,"魅":9638,"魇":9639,"魉":9640,"魋":9641,"魍":9642,"魎":9643,"魏":9644,"魑":9645,"魔":9646,"魘":9647,"魚":9648,"魟":9649,"魣":9650,"魨":9651,"魮":9652,"魯":9653,"魴":9654,"魷":9655,"鮃":9656,"鮄":9657,"鮈":9658,"鮋":9659,"鮎":9660,"鮑":9661,"鮒":9662,"鮗":9663,"鮟":9664,"鮠":9665,"鮡":9666,"鮨":9667,"鮪":9668,"鮫":9669,"鮭":9670,"鮮":9671,"鯉":9672,"鯊":9673,"鯒":9674,"鯓":9675,"鯔":9676,"鯖":9677,"鯙":9678,"鯛":9679,"鯡":9680,"鯤":9681,"鯧":9682,"鯨":9683,"鯪":9684,"鯰":9685,"鯱":9686,"鯵":9687,"鯷":9688,"鯽":9689,"鰂":9690,"鰈":9691,"鰍":9692,"鰐":9693,"鰓":9694,"鰕":9695,"鰧":9696,"鰨":9697,"鰩":9698,"鰭":9699,"鰯":9700,"鰲":9701,"鰹":9702,"鰺":9703,"鰻":9704,"鰾":9705,"鱂":9706,"鱇":9707,"鱈":9708,"鱉":9709,"鱒":9710,"鱔":9711,"鱗":9712,"鱘":9713,"鱚":9714,"鱟":9715,"鱥":9716,"鱧":9717,"鱨":9718,"鱲":9719,"鱵":9720,"鱷":9721,"鱸":9722,"鱺":9723,"鱼":9724,"鱿":9725,"鲀":9726,"鲁":9727,"鲂":9728,"鲆":9729,"鲇":9730,"鲈":9731,"鲉":9732,"鲍":9733,"鲎":9734,"鲑":9735,"鲔":9736,"鲗":9737,"鲛":9738,"鲜":9739,"鲟":9740,"鲡":9741,"鲣":9742,"鲤":9743,"鲨":9744,"鲫":9745,"鲬":9746,"鲭":9747,"鲮":9748,"鲱":9749,"鲲":9750,"鲳":9751,"鲶":9752,"鲷":9753,"鲸":9754,"鲹":9755,"鲻":9756,"鲽":9757,"鲿":9758,"鳀":9759,"鳃":9760,"鳄":9761,"鳅":9762,"鳉":9763,"鳌":9764,"鳍":9765,"鳎":9766,"鳐":9767,"鳔":9768,"鳕":9769,"鳖":9770,"鳗":9771,"鳚":9772,"鳝":9773,"鳞":9774,"鳟":9775,"鳢":9776,"鳥":9777,"鳧":9778,"鳩":9779,"鳳":9780,"鳴":9781,"鳶":9782,"鴇":9783,"鴈":9784,"鴉":9785,"鴎":9786,"鴒":9787,"鴕":9788,"鴛":9789,"鴝":9790,"鴞":9791,"鴟":9792,"鴣":9793,"鴦":9794,"鴨":9795,"鴫":9796,"鴻":9797,"鴿":9798,"鵄":9799,"鵑":9800,"鵙":9801,"鵜":9802,"鵝":9803,"鵞":9804,"鵟":9805,"鵠":9806,"鵡":9807,"鵬":9808,"鵯":9809,"鵰":9810,"鵲":9811,"鵺":9812,"鶇":9813,"鶉":9814,"鶏":9815,"鶘":9816,"鶚":9817,"鶥":9818,"鶯":9819,"鶲":9820,"鶴":9821,"鶺":9822,"鶻":9823,"鶿":9824,"鷂":9825,"鷄":9826,"鷓":9827,"鷗":9828,"鷯":9829,"鷲":9830,"鷸":9831,"鷹":9832,"鷺":9833,"鸕":9834,"鸚":9835,"鸛":9836,"鸞":9837,"鸟":9838,"鸠":9839,"鸡":9840,"鸢":9841,"鸣":9842,"鸥":9843,"鸦":9844,"鸨":9845,"鸪":9846,"鸫":9847,"鸬":9848,"鸭":9849,"鸮":9850,"鸯":9851,"鸰":9852,"鸲":9853,"鸳":9854,"鸵":9855,"鸽":9856,"鸾":9857,"鸿":9858,"鹀":9859,"鹃":9860,"鹄":9861,"鹅":9862,"鹈":9863,"鹉":9864,"鹊":9865,"鹌":9866,"鹎":9867,"鹏":9868,"鹑":9869,"鹕":9870,"鹗":9871,"鹘":9872,"鹚":9873,"鹛":9874,"鹞":9875,"鹟":9876,"鹡":9877,"鹤":9878,"鹦":9879,"鹧":9880,"鹩":9881,"鹫":9882,"鹬":9883,"鹭":9884,"鹮":9885,"鹰":9886,"鹳":9887,"鹵":9888,"鹸":9889,"鹹":9890,"鹼":9891,"鹽":9892,"鹿":9893,"麁":9894,"麂":9895,"麋":9896,"麒":9897,"麓":9898,"麗":9899,"麝":9900,"麟":9901,"麤":9902,"麥":9903,"麦":9904,"麩":9905,"麴":9906,"麵":9907,"麸":9908,"麹":9909,"麺":9910,"麻":9911,"麼":9912,"麽":9913,"麾":9914,"麿":9915,"黃":9916,"黄":9917,"黌":9918,"黍":9919,"黎":9920,"黏":9921,"黐":9922,"黑":9923,"黒":9924,"黔":9925,"默":9926,"黙":9927,"黛":9928,"黜":9929,"黝":9930,"點":9931,"黟":9932,"黠":9933,"黥":9934,"黨":9935,"黯":9936,"黴":9937,"黻":9938,"黼":9939,"鼈":9940,"鼎":9941,"鼐":9942,"鼓":9943,"鼠":9944,"鼩":9945,"鼬":9946,"鼯":9947,"鼱":9948,"鼴":9949,"鼹":9950,"鼻":9951,"齊":9952,"齋":9953,"齎":9954,"齐":9955,"齒":9956,"齟":9957,"齡":9958,"齢":9959,"齣":9960,"齦":9961,"齧":9962,"齬":9963,"齶":9964,"齿":9965,"龄":9966,"龈":9967,"龍":9968,"龐":9969,"龑":9970,"龔":9971,"龕":9972,"龙":9973,"龚":9974,"龛":9975,"龜":9976,"龟":9977,"龢":9978,"龸":9979,"꧉":9980,"﨑":9981,"ﭖ":9982,"ﭘ":9983,"ﮏ":9984,"ﮐ":9985,"ﮟ":9986,"ﮧ":9987,"ﮨ":9988,"ﮭ":9989,"ﮯ":9990,"ﯽ":9991,"ﯾ":9992,"ﯿ":9993,"﴾":9994,"﴿":9995,"ﷲ":9996,"ﷺ":9997,"︰":9998,"﹐":9999,"﹑":10000,"﹒":10001,"﹔":10002,"﹕":10003,"﹙":10004,"﹚":10005,"﹝":10006,"﹞":10007,"﹣":10008,"ﺍ":10009,"ﺎ":10010,"ﺑ":10011,"ﺗ":10012,"ﺟ":10013,"ﺭ":10014,"ﺮ":10015,"ﺱ":10016,"ﺳ":10017,"ﻣ":10018,"ﻦ":10019,"ﻧ":10020,"ﻭ":10021,"ﻮ":10022,"！":10023,"＂":10024,"＃":10025,"％":10026,"＆":10027,"（":10028,"）":10029,"＊":10030,"＋":10031,"，":10032,"－":10033,"．":10034,"／":10035,"０":10036,"１":10037,"２":10038,"３":10039,"４":10040,"５":10041,"６":10042,"７":10043,"８":10044,"９":10045,"：":10046,"；":10047,"＜":10048,"＝":10049,"＞":10050,"？":10051,"＠":10052,"［":10053,"＼":10054,"］":10055,"＿":10056,"ａ":10057,"ｂ":10058,"ｃ":10059,"ｄ":10060,"ｅ":10061,"ｆ":10062,"ｇ":10063,"ｈ":10064,"ｉ":10065,"ｊ":10066,"ｋ":10067,"ｌ":10068,"ｍ":10069,"ｎ":10070,"ｏ":10071,"ｐ":10072,"ｒ":10073,"ｓ":10074,"ｔ":10075,"ｖ":10076,"ｗ":10077,"ｘ":10078,"ｚ":10079,"｛":10080,"｜":10081,"｝":10082,"～":10083,"｡":10084,"｢":10085,"｣":10086,"､":10087,"･":10088,"ｰ":10089,"￥":10090,"￼":10091,"𩽾":10092,"𩾌":10093,"𪨶":10094,"𫖮":10095,"𫚉":10096,"𫚒":10097,"𬀩":10098,"𬘭":10099,"𬞟":10100,"𬶋":10101,"de":10102,"the":10103,"in":10104,"sa":10105,"la":10106,"##s":10107,"of":10108,"en":10109,"and":10110,"##e":10111,"##a":10112,"ang":10113,"to":10114,"##n":10115,"##i":10116,"el":10117,"der":10118,"un":10119,"di":10120,"die":10121,"nga":10122,"##t":10123,"на":10124,"on":10125,"que":10126,"is":10127,"se":10128,"den":10129,"le":10130,"##r":10131,"##o":10132,"ar":10133,"del":10134,"na":10135,"##u":10136,"et":10137,"und":10138,"for":10139,"was":10140,"da":10141,"##en":10142,"des":10143,"an":10144,"il":10145,"as":10146,"van":10147,"10":10148,"je":10149,"##m":10150,"by":10151,"les":10152,"es":10153,"do":10154,"una":10155,"nasa":10156,"2011":10157,"##y":10158,"##l":10159,"at":10160,"al":10161,"er":10162,"##d":10163,"og":10164,"##es":10165,"km":10166,"##k":10167,"von":10168,"du":10169,"11":10170,"with":10171,"2000":10172,"con":10173,"per":10174,"los":10175,"°c":10176,"##er":10177,"##и":10178,"av":10179,"med":10180,"no":10181,"est":10182,"2010":10183,"het":10184,"##а":10185,"och":10186,"2012":10187,"dem":10188,"12":10189,"por":10190,"he":10191,"su":10192,"si":10193,"som":10194,"from":10195,"2014":10196,"it":10197,"2015":10198,"2007":10199,"20":10200,"species":10201,"pa":10202,"that":10203,"earth":10204,"im":10205,"##na":10206,"een":10207,"##an":10208,"ja":10209,"han":10210,"##ta":10211,"2016":10212,"...":10213,"dan":10214,"2009":10215,"das":10216,"15":10217,"##te":10218,"ni":10219,"##ne":10220,"ug":10221,"va":10222,"isbn":10223,"2008":10224,"30":10225,"##е":10226,"24":10227,"world":10228,"2013":10229,"om":10230,"2006":10231,"18":10232,"als":10233,"mit":10234,"his":10235,"##у":10236,"ka":10237,"te":10238,"para":10239,"ha":10240,"com":10241,"за":10242,"##h":10243,"في":10244,"como":10245,"new":10246,"##re":10247,"data":10248,"une":10249,"##da":10250,"##g":10251,"em":10252,"os":10253,"observations":10254,"14":10255,"16":10256,"au":10257,"##us":10258,"21":10259,"##м":10260,"##c":10261,"##in":10262,"par":10263,"13":10264,"las":10265,"در":10266,"panoramas":10267,"viewfinder":10268,"palibot":10269,"gikan":10270,"sie":10271,"dans":10272,"##on":10273,"det":10274,"##ni":10275,"2005":10276,"##ch":10277,"##ia":10278,"nasod":10279,"25":10280,"##ra":10281,"##de":10282,"che":10283,"19":10284,"##ing":10285,"је":10286,"life":10287,"17":10288,"son":10289,"yang":10290,"по":10291,"000":10292,"az":10293,"2017":10294,"##ja":10295,"2004":10296,"so":10297,"geonames":10298,"ein":10299,"##н":10300,"##le":10301,"2001":10302,"til":10303,"22":10304,"op":10305,"се":10306,"od":10307,"nel":10308,"2002":10309,"##is":10310,"##z":10311,"ve":10312,"war":10313,"##ی":10314,"milimetro":10315,"um":10316,"ne":10317,"wurde":10318,"26":10319,"are":10320,"mas":10321,"della":10322,"over":10323,"28":10324,"fur":10325,"database":10326,"##os":10327,"##ы":10328,"##no":10329,"##ti":10330,"zu":10331,"من":10332,"september":10333,"var":10334,"##la":10335,"23":10336,"##et":10337,"catalogue":10338,"ist":10339,"2003":10340,"updated":10341,"were":10342,"pour":10343,"sur":10344,"am":10345,"be":10346,"har":10347,"co":10348,"##і":10349,"auf":10350,"##do":10351,"##se":10352,"##о":10353,"za":10354,"org":10355,"до":10356,"של":10357,"##ka":10358,"which":10359,"от":10360,"eine":10361,"or":10362,"1999":10363,"به":10364,"ii":10365,"##to":10366,"all":10367,"##nt":10368,"года":10369,"##ar":10370,"bulan":10371,"this":10372,"##p":10373,"mga":10374,"##va":10375,"##та":10376,"27":10377,"##je":10378,"qui":10379,"##ma":10380,"mot":10381,"του":10382,"##ا":10383,"και":10384,"kasarangang":10385,"##т":10386,"lo":10387,"film":10388,"mm":10389,"##ed":10390,"ou":10391,"##ом":10392,"kilometro":10393,"1998":10394,"##х":10395,"не":10396,"29":10397,"also":10398,"one":10399,"##ة":10400,"##я":10401,"##ca":10402,"first":10403,"post":10404,"entre":10405,"finns":10406,"had":10407,"##li":10408,"sich":10409,"ny":10410,"##ه":10411,"06":10412,"bahin":10413,"из":10414,"po":10415,"##as":10416,"##b":10417,"san":10418,"uk":10419,"era":10420,"##ce":10421,"##ng":10422,"nam":10423,"ed":10424,"##ri":10425,"dos":10426,"از":10427,"##j":10428,"ur":10429,"eta":10430,"may":10431,"во":10432,"roku":10433,"##v":10434,"university":10435,"##на":10436,"1996":10437,"has":10438,"nach":10439,"trakten":10440,"history":10441,"enero":10442,"dari":10443,"rainfall":10444,"100":10445,"1997":10446,"ulan":10447,"да":10448,"checklist":10449,"km²":10450,"nahimutang":10451,"red":10452,"##ie":10453,"01":10454,"31":10455,"met":10456,"##ko":10457,"το":10458,"##si":10459,"runt":10460,"voor":10461,"##sa":10462,"itis":10463,"foi":10464,"album":10465,"non":10466,"cc":10467,"од":10468,"john":10469,"aus":10470,"mexico":10471,"system":10472,"1633":10473,"1990":10474,"##ов":10475,"##al":10476,"uma":10477,"bei":10478,"download":10479,"orrell":10480,"##f":10481,"annual":10482,"her":10483,"##ים":10484,"classification":10485,"set":10486,"their":10487,"who":10488,"##ה":10489,"1995":10490,"its":10491,"trong":10492,"1994":10493,"este":10494,"fra":10495,"bug":10496,"not":10497,"dei":10498,"##ke":10499,"cua":10500,"algoritmo":10501,"but":10502,"##ment":10503,"reading":10504,"1991":10505,"##к":10506,"ma":10507,"anaa":10508,"population":10509,"dinhi":10510,"bis":10511,"kirk":10512,"af":10513,"ze":10514,"after":10515,"avec":10516,"##it":10517,"1992":10518,"auch":10519,"2018":10520,"##ي":10521,"1993":10522,"##ki":10523,"bourgoin":10524,"me":10525,"yn":10526,"bailly":10527,"roskov":10528,"baillargeon":10529,"paglinawan":10530,"50":10531,"##ci":10532,"under":10533,"index":10534,"для":10535,"two":10536,"##em":10537,"kasadpan":10538,"dat":10539,"gitas":10540,"##ו":10541,"ser":10542,"pada":10543,"ir":10544,"familia":10545,"ta":10546,"##ga":10547,"alla":10548,"της":10549,"##ми":10550,"national":10551,"##at":10552,"##um":10553,"đuoc":10554,"##mi":10555,"та":10556,"mais":10557,"##ت":10558,"sua":10559,"york":10560,"www":10561,"men":10562,"##ly":10563,"man":10564,"fue":10565,"ulohan":10566,"door":10567,"した":10568,"##ς":10569,"manaden":10570,"##л":10571,"she":10572,"time":10573,"have":10574,"city":10575,"##의":10576,"kalkulado":10577,"they":10578,"##ba":10579,"##с":10580,"##ка":10581,"году":10582,"که":10583,"##р":10584,"##ur":10585,"land":10586,"doi":10587,"nederbord":10588,"את":10589,"ligger":10590,"meter":10591,"##ge":10592,"ya":10593,"##י":10594,"1989":10595,"##ת":10596,"mai":10597,"##ve":10598,"##ية":10599,"american":10600,"##za":10601,"esta":10602,"fran":10603,"dia":10604,"klima":10605,"40":10606,"##st":10607,"plus":10608,"##에":10609,"bir":10610,"uit":10611,"habagatan":10612,"ان":10613,"1980":10614,"##ات":10615,"ho":10616,"parte":10617,"press":10618,"general":10619,"ao":10620,"din":10621,"##ndo":10622,"zijn":10623,"##el":10624,"##io":10625,"су":10626,"amb":10627,"amihanan":10628,"##man":10629,"ce":10630,"zum":10631,"1988":10632,"ibabaw":10633,"##в":10634,"http":10635,"april":10636,"loai":10637,"november":10638,"##ro":10639,"##ю":10640,"els":10641,"saint":10642,"ini":10643,"mao":10644,"است":10645,"02":10646,"serie":10647,"على":10648,"part":10649,"##w":10650,"yuta":10651,"state":10652,"する":10653,"על":10654,"giiniton":10655,"hij":10656,"dell":10657,"##ny":10658,"kinabugnawan":10659,"kinainitan":10660,"##x":10661,"been":10662,"county":10663,"1986":10664,"werd":10665,"school":10666,"1987":10667,"international":10668,"1985":10669,"metros":10670,"genus":10671,"978":10672,"einer":10673,"seu":10674,"other":10675,"nicolson":10676,"sidlakan":10677,"ca":10678,"qu":10679,"1984":10680,"united":10681,"club":10682,"##den":10683,"05":10684,"sulod":10685,"##ul":10686,"##lo":10687,"##me":10688,"tu":10689,"##ся":10690,"##mente":10691,"##ות":10692,"dalam":10693,"ett":10694,"come":10695,"1970":10696,"##ن":10697,"##ju":10698,"ouvrard":10699,"up":10700,"bisby":10701,"##ten":10702,"ngan":10703,"when":10704,"werden":10705,"mer":10706,"cu":10707,"mission":10708,"##ya":10709,"07":10710,"##の":10711,"tot":10712,"model":10713,"estado":10714,"oli":10715,"retrieved":10716,"04":10717,"paris":10718,"την":10719,"##م":10720,"michael":10721,"dengan":10722,"august":10723,"sciences":10724,"elle":10725,"##ла":10726,"##د":10727,"##ung":10728,"iii":10729,"durch":10730,"این":10731,"##ze":10732,"1982":10733,"1983":10734,"sont":10735,"##ки":10736,"1981":10737,"##ів":10738,"##ji":10739,"##те":10740,"был":10741,"sin":10742,"can":10743,"##ı":10744,"##ek":10745,"jako":10746,"##ku":10747,"dagat":10748,"1975":10749,"month":10750,"sobre":10751,"##ни":10752,"##nya":10753,"tropical":10754,"500":10755,"1945":10756,"france":10757,"##но":10758,"juli":10759,"zur":10760,"dal":10761,"1979":10762,"us":10763,"digital":10764,"into":10765,"1972":10766,"ingar":10767,"there":10768,"##ر":10769,"during":10770,"ben":10771,"more":10772,"απο":10773,"##or":10774,"till":10775,"##не":10776,"##di":10777,"dunay":10778,"william":10779,"60":10780,"pag":10781,"1978":10782,"1968":10783,"delen":10784,"##om":10785,"کے":10786,"##ak":10787,"cac":10788,"1960":10789,"aan":10790,"pero":10791,"1976":10792,"area":10793,"map":10794,"pas":10795,"maria":10796,"##ها":10797,"##ли":10798,"##ban":10799,"##ow":10800,"nicht":10801,"və":10802,"ble":10803,"nay":10804,"##co":10805,"december":10806,"nella":10807,"south":10808,"##kan":10809,"monitoring":10810,"1977":10811,"року":10812,"1974":10813,"200":10814,"1973":10815,"ad":10816,"year":10817,"##go":10818,"##ho":10819,"team":10820,"states":10821,"ng":10822,"nord":10823,"##ी":10824,"tuig":10825,"park":10826,"tv":10827,"usa":10828,"##lar":10829,"matag":10830,"1971":10831,"trmm":10832,"kinabasaan":10833,"kinaugahan":10834,"##2":10835,"st":10836,"mo":10837,"music":10838,"iz":10839,"aux":10840,"climate":10841,"при":10842,"oder":10843,"later":10844,"##か":10845,"με":10846,"einem":10847,"genomsnittlig":10848,"nan":10849,"anos":10850,"durante":10851,"untuk":10852,"nahilalakip":10853,"kahaboga":10854,"you":10855,"را":10856,"region":10857,"sind":10858,"uber":10859,"tres":10860,"landet":10861,"08":10862,"bi":10863,"ginkuha":10864,"havet":10865,"थव":10866,"jean":10867,"years":10868,"dels":10869,"##ts":10870,"out":10871,"##ان":10872,"north":10873,"##1":10874,"due":10875,"ei":10876,"sus":10877,"paul":10878,"suba":10879,"anvandare":10880,"algoritmen":10881,"algoritmer":10882,"1969":10883,"lsjbot":10884,"att":10885,"hojduppgifter":10886,"что":10887,"wird":10888,"most":10889,"32":10890,"uska":10891,"##ler":10892,"1644":10893,"adalah":10894,"##ва":10895,"35":10896,"ziren":10897,"км":10898,"cover":10899,"ki":10900,"art":10901,"only":10902,"koppen":10903,"david":10904,"geiger":10905,"peel":10906,"1967":10907,"##то":10908,"hess":10909,"quan":10910,"##ha":10911,"london":10912,"lake":10913,"09":10914,"hini":10915,"three":10916,"80":10917,"robert":10918,"03":10919,"bu":10920,"lui":10921,"##ren":10922,"fan":10923,"finlayson":10924,"hulyo":10925,"hydrology":10926,"5194":10927,"gikuha":10928,"1950":10929,"januari":10930,"45":10931,"west":10932,"##ns":10933,"vi":10934,"about":10935,"##д":10936,"65":10937,"elevation":10938,"agosto":10939,"voi":10940,"1962":10941,"1944":10942,"delle":10943,"की":10944,"band":10945,"##을":10946,"version":10947,"than":10948,"##ा":10949,"1965":10950,"ete":10951,"##ir":10952,"ye":10953,"river":10954,"alle":10955,"subspecies":10956,"са":10957,"godine":10958,"##3":10959,"final":10960,"fu":10961,"он":10962,"его":10963,"familjen":10964,"oktober":10965,"1966":10966,"الى":10967,"juni":10968,"1964":10969,"some":10970,"що":10971,"ban":10972,"##cio":10973,"ہے":10974,"##ل":10975,"##sen":10976,"ngc":10977,"##sta":10978,"##ь":10979,"jest":10980,"second":10981,"where":10982,"kada":10983,"lalawigan":10984,"##cion":10985,"between":10986,"familie":10987,"song":10988,"inga":10989,"##jo":10990,"ginhulagway":10991,"##lla":10992,"nu":10993,"tai":10994,"##0":10995,"1961":10996,"და":10997,"##tu":10998,"##nu":10999,"как":11000,"kan":11001,"league":11002,"series":11003,"einen":11004,"wie":11005,"piu":11006,"или":11007,"would":11008,"ke":11009,"ses":11010,"##ם":11011,"1941":11012,"washington":11013,"waray":11014,"huvudstaden":11015,"grand":11016,"##ik":11017,"nakalista":11018,"mes":11019,"sumala":11020,"1940":11021,"asteroid":11022,"300":11023,"##های":11024,"##ల":11025,"1939":11026,"##п":11027,"##des":11028,"90":11029,"1963":11030,"grande":11031,"##ria":11032,"james":11033,"70":11034,"framraknat":11035,"400":11036,"から":11037,"##wa":11038,"sono":11039,"kay":11040,"со":11041,"đo":11042,"comme":11043,"##be":11044,"با":11045,"rehiyon":11046,"peter":11047,"##ter":11048,"charles":11049,"made":11050,"hans":11051,"rio":11052,"high":11053,"ved":11054,"##ou":11055,"##да":11056,"slaktet":11057,"میں":11058,"##न":11059,"him":11060,"pro":11061,"company":11062,"tahun":11063,"##am":11064,"##ма":11065,"millimeter":11066,"anche":11067,"##ine":11068,"group":11069,"division":11070,"eller":11071,"kallaste":11072,"kwadrado":11073,"##ky":11074,"##tes":11075,"varmaste":11076,"arsmedeltemperaturen":11077,"blev":11078,"medeltemperaturen":11079,"beskrevs":11080,"deux":11081,"##rs":11082,"density":11083,"##년":11084,"bronnen":11085,"vun":11086,"george":11087,"ab":11088,"##ը":11089,"##г":11090,"district":11091,"##ben":11092,"او":11093,"##ske":11094,"##ти":11095,"ano":11096,"underarter":11097,"forma":11098,"1958":11099,"33":11100,"##tion":11101,"##ski":11102,"estados":11103,"đau":11104,"された":11105,"vom":11106,"nguoi":11107,"wurden":11108,"године":11109,"noten":11110,"day":11111,"##이":11112,"modis":11113,"##ен":11114,"##cao":11115,"referenties":11116,"bo":11117,"hapit":11118,"nie":11119,"then":11120,"gran":11121,"##ers":11122,"##ov":11123,"##4":11124,"place":11125,"1956":11126,"nalukop":11127,"##un":11128,"##ina":11129,"ook":11130,"dapit":11131,"sao":11132,"tour":11133,"long":11134,"đa":11135,"##ра":11136,"1959":11137,"listade":11138,"34":11139,"air":11140,"##го":11141,"और":11142,"tien":11143,"cette":11144,"genomsnitt":11145,"best":11146,"america":11147,"przez":11148,"1943":11149,"torraste":11150,"arsnederbord":11151,"regnigaste":11152,"my":11153,"36":11154,"sebagai":11155,"##ssa":11156,"love":11157,"gli":11158,"sud":11159,"##ry":11160,"born":11161,"li":11162,"##от":11163,"unter":11164,"such":11165,"india":11166,"invanare":11167,"union":11168,"##gi":11169,"kvadratkilometer":11170,"నుండ":11171,"1948":11172,"used":11173,"solo":11174,"##ł":11175,"##ste":11176,"house":11177,"pe":11178,"##ب":11179,"##zi":11180,"1942":11181,"##ных":11182,"##ic":11183,"##que":11184,"1957":11185,"radius":11186,"##ska":11187,"central":11188,"nahimutangan":11189,"hoc":11190,"radio":11191,"##는":11192,"hat":11193,"##rt":11194,"lungsod":11195,"1930":11196,"known":11197,"1920":11198,"##il":11199,"ci":11200,"ten":11201,"rock":11202,"tanan":11203,"1954":11204,"dhe":11205,"##س":11206,"gihabogon":11207,"kinahabogang":11208,"##land":11209,"##ion":11210,"англ":11211,"unidos":11212,"seine":11213,"family":11214,"berlin":11215,"##ן":11216,"museum":11217,"##ot":11218,"00":11219,"dass":11220,"name":11221,"while":11222,"##nte":11223,"tawo":11224,"guerra":11225,"bat":11226,"people":11227,"pakigbingkil":11228,"will":11229,"sedac":11230,"##ो":11231,"society":11232,"τον":11233,"tra":11234,"martin":11235,"ko":11236,"average":11237,"##و":11238,"vor":11239,"base":11240,"##dos":11241,"1946":11242,"##ok":11243,"να":11244,"naam":11245,"##mo":11246,"##скои":11247,"##ig":11248,"college":11249,"president":11250,"##ista":11251,"1955":11252,"##nia":11253,"てある":11254,"##ita":11255,"iv":11256,"santa":11257,"care":11258,"##vo":11259,"many":11260,"##ного":11261,"1938":11262,"का":11263,"کی":11264,"thomas":11265,"pod":11266,"lan":11267,"cho":11268,"these":11269,"1953":11270,"zen":11271,"##ton":11272,"dit":11273,"##ut":11274,"nacional":11275,"##র":11276,"bij":11277,"##ii":11278,"ai":11279,"##res":11280,"july":11281,"1949":11282,"1918":11283,"through":11284,"information":11285,"season":11286,"1952":11287,"egy":11288,"british":11289,"kao":11290,"point":11291,"הוא":11292,"merupakan":11293,"hoa":11294,"##ר":11295,"##id":11296,"##ն":11297,"##zione":11298,"но":11299,"##les":11300,"##5":11301,"від":11302,"##ии":11303,"single":11304,"ile":11305,"richard":11306,"oxford":11307,"44":11308,"canada":11309,"via":11310,"##нои":11311,"we":11312,"##das":11313,"oleh":11314,"یک":11315,"1947":11316,"##nie":11317,"any":11318,"##ica":11319,"##ш":11320,"после":11321,"1936":11322,"age":11323,"march":11324,"##6":11325,"đong":11326,"well":11327,"desde":11328,"##che":11329,"38":11330,"##ні":11331,"june":11332,"thanh":11333,"inom":11334,"go":11335,"game":11336,"mar":11337,"bien":11338,"として":11339,"metro":11340,"prima":11341,"cm":11342,"live":11343,"east":11344,"##ken":11345,"##ского":11346,"public":11347,"ning":11348,"που":11349,"には":11350,"##nen":11351,"being":11352,"##ea":11353,"##त":11354,"##iu":11355,"sau":11356,"apres":11357,"records":11358,"them":11359,"noch":11360,"στην":11361,"mars":11362,"niini":11363,"before":11364,"became":11365,"1937":11366,"37":11367,"soort":11368,"των":11369,"pp":11370,"including":11371,"##ку":11372,"nao":11373,"һәм":11374,"##은":11375,"##가":11376,"creek":11377,"##ol":11378,"video":11379,"village":11380,"##gen":11381,"tambien":11382,"original":11383,"एक":11384,"waren":11385,"sein":11386,"##ين":11387,"##berg":11388,"provincia":11389,"1951":11390,"show":11391,"##ի":11392,"indonesia":11393,"europa":11394,"number":11395,"koji":11396,"top":11397,"cerro":11398,"vol":11399,"jose":11400,"##cia":11401,"home":11402,"fa":11403,"social":11404,"##га":11405,"##ty":11406,"dr":11407,"##nd":11408,"island":11409,"total":11410,"october":11411,"jahr":11412,"ut":11413,"##vi":11414,"oraz":11415,"service":11416,"##ан":11417,"black":11418,"година":11419,"football":11420,"end":11421,"both":11422,"against":11423,"star":11424,"eerst":11425,"##로":11426,"cung":11427,"##ner":11428,"также":11429,"award":11430,"hadton":11431,"##ои":11432,"station":11433,"##th":11434,"ali":11435,"насеље":11436,"42":11437,"list":11438,"nhung":11439,"##ныи":11440,"won":11441,"populasyon":11442,"four":11443,"##7":11444,"stato":11445,"uno":11446,"1933":11447,"##he":11448,"re":11449,"nur":11450,"як":11451,"thang":11452,"january":11453,"##nes":11454,"##lle":11455,"media":11456,"census":11457,"roman":11458,"##ning":11459,"ex":11460,"densidad":11461,"sebuah":11462,"hi":11463,"64":11464,"##を":11465,"##ada":11466,"local":11467,"##ल":11468,"##ون":11469,"48":11470,"times":11471,"italia":11472,"center":11473,"σε":11474,"1935":11475,"fost":11476,"են":11477,"##ہ":11478,"king":11479,"##ে":11480,"open":11481,"39":11482,"को":11483,"под":11484,"modern":11485,"1934":11486,"##ные":11487,"##に":11488,"ఉననయ":11489,"στο":11490,"festival":11491,"سال":11492,"για":11493,"де":11494,"1919":11495,"andre":11496,"work":11497,"pay":11498,"nos":11499,"since":11500,"seit":11501,"sakop":11502,"vuonna":11503,"##ל":11504,"##скии":11505,"sidlakang":11506,"##ს":11507,"##న":11508,"kilometer":11509,"suo":11510,"##ado":11511,"nombre":11512,"##so":11513,"през":11514,"1914":11515,"century":11516,"dalla":11517,"##9":11518,"byl":11519,"sous":11520,"##au":11521,"##ble":11522,"what":11523,"amin":11524,"##nde":11525,"if":11526,"volt":11527,"ては":11528,"radie":11529,"don":11530,"like":11531,"##tt":11532,"fait":11533,"centre":11534,"louis":11535,"premier":11536,"##한":11537,"ale":11538,"##ant":11539,"41":11540,"##vat":11541,"nom":11542,"dopo":11543,"##8":11544,"1932":11545,"1929":11546,"その":11547,"##ida":11548,"ubos":11549,"nem":11550,"##र":11551,"##ll":11552,"lac":11553,"hasta":11554,"tre":11555,"commune":11556,"43":11557,"55":11558,"1928":11559,"##zo":11560,"##q":11561,"major":11562,"espesye":11563,"hogy":11564,"real":11565,"##lt":11566,"##lu":11567,"casa":11568,"##ть":11569,"primer":11570,"kabanay":11571,"##は":11572,"until":11573,"however":11574,"##cu":11575,"joseph":11576,"hun":11577,"##der":11578,"historia":11579,"ειναι":11580,"chi":11581,"اور":11582,"##них":11583,"##ски":11584,"line":11585,"cui":11586,"wa":11587,"1917":11588,"47":11589,"royal":11590,"600":11591,"gia":11592,"ont":11593,"government":11594,"##ə":11595,"##pa":11596,"##ית":11597,"1931":11598,"##pe":11599,"##tas":11600,"75":11601,"cup":11602,"##ز":11603,"##ent":11604,"##mento":11605,"abril":11606,"early":11607,"contra":11608,"ogsa":11609,"association":11610,"encyclopedia":11611,"ay":11612,"##len":11613,"vao":11614,"pri":11615,"naar":11616,"deze":11617,"ఉంద":11618,"##ite":11619,"τα":11620,"seiner":11621,"take":11622,"##are":11623,"komon":11624,"gilay":11625,"talagsaon":11626,"itandi":11627,"now":11628,"1924":11629,"town":11630,"была":11631,"roce":11632,"##ist":11633,"עם":11634,"sowie":11635,"news":11636,"##з":11637,"cong":11638,"worden":11639,"ing":11640,"##य":11641,"##ца":11642,"##를":11643,"gepubliceerd":11644,"области":11645,"және":11646,"wetenschappelijke":11647,"##ა":11648,"عام":11649,"1927":11650,"##と":11651,"##du":11652,"california":11653,"đe":11654,"##ad":11655,"して":11656,"white":11657,"zwei":11658,"main":11659,"program":11660,"science":11661,"vid":11662,"thuc":11663,"sem":11664,"spesies":11665,"januar":11666,"gada":11667,"##nych":11668,"geldig":11669,"hill":11670,"niya":11671,"hall":11672,"становника":11673,"1922":11674,"1925":11675,"pierre":11676,"back":11677,"kahenera":11678,"1921":11679,"ia":11680,"power":11681,"1926":11682,"zeuden":11683,"sul":11684,"##ai":11685,"52":11686,"##нии":11687,"hatte":11688,"го":11689,"##by":11690,"##ش":11691,"site":11692,"anni":11693,"sistema":11694,"##hi":11695,"##ger":11696,"meg":11697,"anno":11698,"kinadul":11699,"році":11700,"primera":11701,"dakong":11702,"46":11703,"51":11704,"đoi":11705,"last":11706,"china":11707,"gihulagway":11708,"jahre":11709,"##ದ":11710,"released":11711,"aber":11712,"кхузахь":11713,"same":11714,"1912":11715,"juga":11716,"wala":11717,"##ス":11718,"##men":11719,"based":11720,"kingdom":11721,"గరమం":11722,"called":11723,"있다":11724,"##lich":11725,"sig":11726,"party":11727,"patag":11728,"##mu":11729,"1923":11730,"کا":11731,"##ck":11732,"dar":11733,"seus":11734,"fc":11735,"partir":11736,"old":11737,"bagian":11738,"siak":11739,"february":11740,"##nik":11741,"ra":11742,"то":11743,"karon":11744,"pagka":11745,"following":11746,"ga":11747,"nalista":11748,"##ным":11749,"ville":11750,"provinsen":11751,"кӏоштан":11752,"natural":11753,"##ien":11754,"cd":11755,"meme":11756,"played":11757,"australia":11758,"journal":11759,"##zen":11760,"został":11761,"##ны":11762,"##ies":11763,"している":11764,"49":11765,"nun":11766,"##ian":11767,"book":11768,"было":11769,"italian":11770,"##ischen":11771,"diese":11772,"principal":11773,"rader":11774,"##ия":11775,"##ная":11776,"khoa":11777,"thu":11778,"##ло":11779,"tinh":11780,"##ert":11781,"several":11782,"ду":11783,"##ст":11784,"law":11785,"##에서":11786,"etre":11787,"zwischen":11788,"henry":11789,"1900":11790,"stanovnika":11791,"##ere":11792,"mi":11793,"800":11794,"1910":11795,"##son":11796,"ic":11797,"quando":11798,"##ন":11799,"దూరంల":11800,"##ana":11801,"cap":11802,"young":11803,"lang":11804,"56":11805,"##ում":11806,"english":11807,"khong":11808,"church":11809,"dieser":11810,"see":11811,"##ach":11812,"antonio":11813,"1913":11814,"##ు":11815,"οι":11816,"hon":11817,"##ire":11818,"nome":11819,"tri":11820,"vo":11821,"cada":11822,"##ron":11823,"##ische":11824,"##idae":11825,"naselje":11826,"##ке":11827,"culture":11828,"54":11829,"##ᆫ":11830,"premiere":11831,"kini":11832,"pentru":11833,"był":11834,"italy":11835,"bay":11836,"smith":11837,"great":11838,"khi":11839,"ikke":11840,"время":11841,"jan":11842,"##ко":11843,"اس":11844,"efter":11845,"##ura":11846,"women":11847,"juan":11848,"##ι":11849,"##еи":11850,"vez":11851,"net":11852,"niet":11853,"были":11854,"numero":11855,"off":11856,"form":11857,"eines":11858,"##ru":11859,"enligt":11860,"ಮತತು":11861,"insee":11862,"##ет":11863,"februari":11864,"research":11865,"director":11866,"nje":11867,"use":11868,"дар":11869,"opera":11870,"small":11871,"##ع":11872,"etait":11873,"terrangen":11874,"namngivna":11875,"former":11876,"degli":11877,"##ک":11878,"##ف":11879,"##bi":11880,"wordt":11881,"habagatang":11882,"##て":11883,"routledge":11884,"each":11885,"1915":11886,"madrid":11887,"nei":11888,"television":11889,"##ের":11890,"punto":11891,"role":11892,"pais":11893,"##ted":11894,"roma":11895,"bbc":11896,"cambridge":11897,"ngay":11898,"##ды":11899,"narheten":11900,"death":11901,"street":11902,"web":11903,"##ну":11904,"##ini":11905,"vat":11906,"fin":11907,"150":11908,"##ud":11909,"nova":11910,"##ata":11911,"ans":11912,"country":11913,"##sk":11914,"england":11915,"marie":11916,"water":11917,"سے":11918,"izd":11919,"التي":11920,"што":11921,"коды":11922,"play":11923,"member":11924,"road":11925,"leur":11926,"europe":11927,"đen":11928,"maar":11929,"dont":11930,"##val":11931,"##rio":11932,"##ನ":11933,"wat":11934,"record":11935,"etter":11936,"japan":11937,"hai":11938,"##ige":11939,"واقع":11940,"53":11941,"jeho":11942,"##ри":11943,"depuis":11944,"##으로":11945,"bungtod":11946,"##im":11947,"nog":11948,"##rd":11949,"1911":11950,"regia":11951,"ਵਿਚ":11952,"kasadpang":11953,"norte":11954,"marine":11955,"tom":11956,"84":11957,"так":11958,"##ле":11959,"климат":11960,"production":11961,"##cht":11962,"myos":11963,"##dor":11964,"christian":11965,"vida":11966,"daniel":11967,"##ene":11968,"punkten":11969,"order":11970,"عن":11971,"село":11972,"found":11973,"mei":11974,"little":11975,"##bo":11976,"pela":11977,"##nin":11978,"finale":11979,"atau":11980,"olan":11981,"mark":11982,"700":11983,"zona":11984,"pdf":11985,"debut":11986,"према":11987,"##ley":11988,"1916":11989,"hogsta":11990,"58":11991,"prema":11992,"##tte":11993,"##му":11994,"centro":11995,"augusti":11996,"francisco":11997,"kabungtoran":11998,"special":11999,"57":12000,"edition":12001,"ele":12002,"olarak":12003,"seva":12004,"##ம":12005,"##ych":12006,"kunze":12007,"kg":12008,"##ks":12009,"τη":12010,"donde":12011,"utc":12012,"jo":12013,"tambem":12014,"эвла":12015,"saison":12016,"tidak":12017,"بن":12018,"##он":12019,"capital":12020,"pre":12021,"tan":12022,"wever":12023,"##ling":12024,"##ے":12025,"culham":12026,"office":12027,"popular":12028,"side":12029,"##क":12030,"1905":12031,"present":12032,"xa":12033,"ciudad":12034,"1908":12035,"##υ":12036,"مع":12037,"cuando":12038,"##ları":12039,"##lik":12040,"musica":12041,"##ار":12042,"##ник":12043,"internet":12044,"sentro":12045,"же":12046,"third":12047,"59":12048,"five":12049,"good":12050,"frank":12051,"games":12052,"fr":12053,"##sti":12054,"##ova":12055,"##ran":12056,"omgivningarna":12057,"この":12058,"thi":12059,"nell":12060,"kondado":12061,"big":12062,"##б":12063,"karl":12064,"1907":12065,"برای":12066,"##য":12067,"itu":12068,"thuoc":12069,"insecta":12070,"studio":12071,"fut":12072,"##chen":12073,"night":12074,"gegen":12075,"##கள":12076,"development":12077,"project":12078,"plants":12079,"##era":12080,"##dae":12081,"stadt":12082,"februar":12083,"near":12084,"##ier":12085,"nr":12086,"online":12087,"##ова":12088,"##ון":12089,"down":12090,"بعد":12091,"province":12092,"jahren":12093,"##ej":12094,"##nda":12095,"around":12096,"phan":12097,"grupo":12098,"institute":12099,"ong":12100,"ky":12101,"xix":12102,"##ice":12103,"force":12104,"ainsi":12105,"##gan":12106,"berg":12107,"pelo":12108,"##са":12109,"european":12110,"manga":12111,"french":12112,"τους":12113,"##स":12114,"uz":12115,"eds":12116,"##ق":12117,"western":12118,"animalia":12119,"located":12120,"شد":12121,"eerste":12122,"##ven":12123,"six":12124,"just":12125,"налази":12126,"##tor":12127,"##сы":12128,"ersten":12129,"##ius":12130,"##ס":12131,"noi":12132,"onder":12133,"##han":12134,"بود":12135,"german":12136,"andere":12137,"##nje":12138,"ces":12139,"way":12140,"また":12141,"120":12142,"##lan":12143,"1906":12144,"nad":12145,"##க":12146,"иого":12147,"alors":12148,"held":12149,"jego":12150,"championship":12151,"mat":12152,"هو":12153,"було":12154,"##ى":12155,"professor":12156,"1904":12157,"##°":12158,"story":12159,"1909":12160,"ili":12161,"another":12162,"adolah":12163,"##gu":12164,"##tus":12165,"large":12166,"began":12167,"##ee":12168,"##ד":12169,"##ская":12170,"children":12171,"##zy":12172,"jr":12173,"left":12174,"because":12175,"army":12176,"##ци":12177,"був":12178,"asi":12179,"arts":12180,"ac":12181,"pebrero":12182,"hunyo":12183,"telah":12184,"mae":12185,"havia":12186,"families":12187,"edward":12188,"том":12189,"като":12190,"год":12191,"awards":12192,"autres":12193,"ingles":12194,"primo":12195,"##ја":12196,"##ב":12197,"##া":12198,"aussi":12199,"95":12200,"zeit":12201,"lee":12202,"novembre":12203,"##ux":12204,"didziulis":12205,"unha":12206,"##cy":12207,"decock":12208,"lors":12209,"abucay":12210,"##과":12211,"control":12212,"##cie":12213,"named":12214,"##ц":12215,"ایران":12216,"##bu":12217,"far":12218,"भाषा":12219,"##ui":12220,"bang":12221,"trung":12222,"africa":12223,"85":12224,"bio":12225,"match":12226,"menjadi":12227,"sy":12228,"comuna":12229,"##ами":12230,"mayo":12231,"prix":12232,"##ei":12233,"##сь":12234,"dam":12235,"##ин":12236,"xx":12237,"services":12238,"##lor":12239,"liga":12240,"##ano":12241,"global":12242,"onde":12243,"sen":12244,"mu":12245,"населения":12246,"##ła":12247,"desa":12248,"id":12249,"kom":12250,"alexander":12251,"62":12252,"##де":12253,"##ರ":12254,"##dan":12255,"ils":12256,"presidente":12257,"angeles":12258,"##ique":12259,"poblacion":12260,"##다":12261,"building":12262,"mayor":12263,"##ın":12264,"##도":12265,"did":12266,"lugar":12267,"tim":12268,"##ker":12269,"field":12270,"##nak":12271,"##ці":12272,"banda":12273,"##ue":12274,"иогӏу":12275,"names":12276,"moi":12277,"super":12278,"reference":12279,"88":12280,"carlos":12281,"##tan":12282,"ez":12283,"tam":12284,"seg":12285,"##ска":12286,"bureau":12287,"bukid":12288,"plan":12289,"word":12290,"sto":12291,"simon":12292,"episode":12293,"72":12294,"lai":12295,"could":12296,"tempo":12297,"mort":12298,"disyembre":12299,"##고":12300,"anna":12301,"בשנת":12302,"دے":12303,"dla":12304,"##ting":12305,"að":12306,"##ч":12307,"col":12308,"mountain":12309,"vu":12310,"##ato":12311,"##ua":12312,"рф":12313,"ba":12314,"education":12315,"км²":12316,"court":12317,"юкъа":12318,"fire":12319,"এবং":12320,"built":12321,"##క":12322,"##ego":12323,"##ques":12324,"within":12325,"cerambycidae":12326,"egalement":12327,"habitants":12328,"##tar":12329,"గరమంల":12330,"это":12331,"##ija":12332,"250":12333,"पर":12334,"segundo":12335,"iki":12336,"##ور":12337,"said":12338,"##ls":12339,"type":12340,"##ции":12341,"despues":12342,"essere":12343,"drei":12344,"##tta":12345,"civil":12346,"##ок":12347,"jedoch":12348,"head":12349,"theatre":12350,"##we":12351,"tubig":12352,"##dir":12353,"##liche":12354,"position":12355,"их":12356,"ket":12357,"ordo":12358,"francais":12359,"##jos":12360,"##zioni":12361,"##이다":12362,"books":12363,"partie":12364,"chinh":12365,"binon":12366,"ela":12367,"durant":12368,"brasil":12369,"lam":12370,"##mann":12371,"viene":12372,"ich":12373,"quoc":12374,"barcelona":12375,"86":12376,"##ди":12377,"##ville":12378,"##ական":12379,"iran":12380,"sea":12381,"##ப":12382,"nhan":12383,"took":12384,"82":12385,"leta":12386,"nature":12387,"mentre":12388,"##је":12389,"lanaw":12390,"segun":12391,"siecle":12392,"66":12393,"##יה":12394,"carl":12395,"along":12396,"##ᆯ":12397,"이":12398,"coleoptera":12399,"##ido":12400,"latach":12401,"##ском":12402,"volume":12403,"friedrich":12404,"##ты":12405,"department":12406,"wahrend":12407,"mary":12408,"##su":12409,"atlas":12410,"deutschen":12411,"oslo":12412,"1903":12413,"published":12414,"россии":12415,"adtong":12416,"##ның":12417,"##נה":12418,"99":12419,"zo":12420,"let":12421,"diptera":12422,"##ների":12423,"tren":12424,"business":12425,"##ン":12426,"million":12427,"bad":12428,"huvudsak":12429,"63":12430,"habitantes":12431,"היה":12432,"mens":12433,"pado":12434,"##sch":12435,"##jen":12436,"էր":12437,"etwa":12438,"67":12439,"still":12440,"første":12441,"blue":12442,"beim":12443,"joka":12444,"human":12445,"medyo":12446,"brown":12447,"##сти":12448,"پر":12449,"santiago":12450,"apan":12451,"دارد":12452,"या":12453,"##sche":12454,"され":12455,"mal":12456,"council":12457,"##burg":12458,"##van":12459,"planet":12460,"1000":12461,"##də":12462,"members":12463,"##лі":12464,"یا":12465,"anh":12466,"variansen":12467,"denne":12468,"questo":12469,"gamay":12470,"temps":12471,"где":12472,"##ש":12473,"famili":12474,"trois":12475,"ηταν":12476,"через":12477,"##rat":12478,"об":12479,"96":12480,"##ane":12481,"##ј":12482,"saluran":12483,"orang":12484,"car":12485,"plant":12486,"free":12487,"epoca":12488,"player":12489,"##ang":12490,"italiano":12491,"tem":12492,"1901":12493,"community":12494,"very":12495,"##ק":12496,"##kin":12497,"61":12498,"terletak":12499,"##को":12500,"federal":12501,"teil":12502,"nhat":12503,"##nim":12504,"puis":12505,"все":12506,"dung":12507,"##하는":12508,"mereka":12509,"piano":12510,"##ros":12511,"hadde":12512,"pel":12513,"pop":12514,"жана":12515,"##서":12516,"diakses":12517,"costa":12518,"##ico":12519,"jones":12520,"81":12521,"kuh":12522,"nha":12523,"segunda":12524,"##ret":12525,"jack":12526,"97":12527,"##ње":12528,"##ð":12529,"own":12530,"##ris":12531,"otros":12532,"dai":12533,"tym":12534,"green":12535,"regional":12536,"gan":12537,"##ства":12538,"##ат":12539,"ссср":12540,"vers":12541,"اے":12542,"היא":12543,"два":12544,"1902":12545,"98":12546,"##ove":12547,"how":12548,"luis":12549,"obra":12550,"##є":12551,"received":12552,"pays":12553,"dort":12554,"ter":12555,"todos":12556,"68":12557,"sant":12558,"byla":12559,"##lichen":12560,"83":12561,"loro":12562,"った":12563,"zich":12564,"##ای":12565,"ihre":12566,"served":12567,"كان":12568,"bila":12569,"##ك":12570,"1890":12571,"##मा":12572,"##ం":12573,"##ao":12574,"etc":12575,"##ер":12576,"##ye":12577,"metal":12578,"frances":12579,"mundo":12580,"されている":12581,"##pen":12582,"того":12583,"##త":12584,"##ند":12585,"ее":12586,"nhu":12587,"chicago":12588,"studies":12589,"again":12590,"indian":12591,"##use":12592,"һыу":12593,"satu":12594,"живело":12595,"לא":12596,"departement":12597,"fou":12598,"##dy":12599,"mehr":12600,"##jas":12601,"texas":12602,"sam":12603,"fueron":12604,"##gt":12605,"76":12606,"heeft":12607,"pmid":12608,"đai":12609,"airport":12610,"##ima":12611,"kann":12612,"kam":12613,"marco":12614,"lat":12615,"##ು":12616,"design":12617,"hier":12618,"##ף":12619,"marzo":12620,"nas":12621,"include":12622,"93":12623,"sonra":12624,"eu":12625,"qua":12626,"francia":12627,"meer":12628,"hien":12629,"про":12630,"##اء":12631,"населення":12632,"##ade":12633,"amerika":12634,"late":12635,"led":12636,"78":12637,"bank":12638,"גם":12639,"academy":12640,"##ర":12641,"##ile":12642,"fort":12643,"##nas":12644,"##ara":12645,"nalazi":12646,"##nym":12647,"##ಯ":12648,"esis":12649,"##ise":12650,"##ح":12651,"important":12652,"му":12653,"spater":12654,"kelas":12655,"##ન":12656,"espana":12657,"bao":12658,"periodo":12659,"хуьлу":12660,"dall":12661,"92":12662,"universitat":12663,"##ari":12664,"wieder":12665,"tout":12666,"##nek":12667,"##rum":12668,"albert":12669,"##म":12670,"those":12671,"##ure":12672,"sang":12673,"tak":12674,"stand":12675,"##ט":12676,"died":12677,"jej":12678,"spring":12679,"##인":12680,"ما":12681,"па":12682,"також":12683,"##ში":12684,"vart":12685,"##tti":12686,"tiene":12687,"##లు":12688,"ktory":12689,"##ем":12690,"##one":12691,"todo":12692,"magyar":12693,"71":12694,"buvo":12695,"make":12696,"##ation":12697,"antes":12698,"website":12699,"case":12700,"він":12701,"##ino":12702,"ва":12703,"##nja":12704,"##ity":12705,"##గ":12706,"yr":12707,"како":12708,"dette":12709,"engleski":12710,"73":12711,"taxonomic":12712,"висини":12713,"##nih":12714,"74":12715,"77":12716,"##ою":12717,"williams":12718,"##ль":12719,"ایک":12720,"##uk":12721,"filum":12722,"musical":12723,"route":12724,"##nej":12725,"##ського":12726,"##하고":12727,"class":12728,"##ಕ":12729,"port":12730,"contre":12731,"space":12732,"haar":12733,"asia":12734,"##ния":12735,"although":12736,"##leri":12737,"sido":12738,"надморској":12739,"municipio":12740,"91":12741,"##іі":12742,"1898":12743,"pristupljeno":12744,"##ului":12745,"##cji":12746,"##와":12747,"##ate":12748,"##lin":12749,"##ах":12750,"mis":12751,"hotel":12752,"هي":12753,"lost":12754,"annees":12755,"##ᆨ":12756,"насељу":12757,"walter":12758,"##ство":12759,"##α":12760,"argentina":12761,"vier":12762,"economic":12763,"romania":12764,"magazine":12765,"##ого":12766,"arthropoda":12767,"##sten":12768,"буенча":12769,"##ء":12770,"##했다":12771,"premio":12772,"##ную":12773,"minister":12774,"69":12775,"dvd":12776,"political":12777,"##mer":12778,"над":12779,"ti":12780,"##ি":12781,"nueva":12782,"##ие":12783,"##lis":12784,"бассеины":12785,"avant":12786,"your":12787,"body":12788,"ottawa":12789,"##sky":12790,"arte":12791,"round":12792,"run":12793,"##ном":12794,"час":12795,"lain":12796,"##ских":12797,"ako":12798,"##지":12799,"##ג":12800,"citta":12801,"87":12802,"областан":12803,"##lig":12804,"ara":12805,"900":12806,"##issa":12807,"לאחר":12808,"1897":12809,"sir":12810,"ate":12811,"στη":12812,"cidade":12813,"especie":12814,"##ah":12815,"1896":12816,"##ver":12817,"even":12818,"points":12819,"される":12820,"##ceae":12821,"##ν":12822,"language":12823,"##ія":12824,"##их":12825,"thompson":12826,"##ber":12827,"face":12828,"max":12829,"heute":12830,"sai":12831,"##ele":12832,"father":12833,"wikipedia":12834,"peut":12835,"volta":12836,"kun":12837,"act":12838,"1899":12839,"jsou":12840,"victoria":12841,"koja":12842,"си":12843,"89":12844,"icin":12845,"villa":12846,"israel":12847,"eshte":12848,"among":12849,"different":12850,"full":12851,"marupokan":12852,"tambe":12853,"mr":12854,"latin":12855,"according":12856,"johann":12857,"jusqu":12858,"##iert":12859,"##ன":12860,"##ф":12861,"1895":12862,"##ena":12863,"##ני":12864,"ende":12865,"windows":12866,"importante":12867,"##ח":12868,"tanggal":12869,"##zu":12870,"##ج":12871,"tenia":12872,"right":12873,"chung":12874,"##ito":12875,"##ड":12876,"article":12877,"next":12878,"seinen":12879,"але":12880,"மறறும":12881,"jaar":12882,"##nom":12883,"##ksi":12884,"##ਾ":12885,"politica":12886,"caso":12887,"gold":12888,"days":12889,"##ју":12890,"title":12891,"نے":12892,"review":12893,"##nti":12894,"chu":12895,"anys":12896,"##nce":12897,"monde":12898,"##ive":12899,"comune":12900,"wilhelm":12901,"аса":12902,"##bol":12903,"munisipyo":12904,"##nis":12905,"ਅਤ":12906,"taas":12907,"##og":12908,"tva":12909,"groupe":12910,"distrito":12911,"wo":12912,"store":12913,"као":12914,"twee":12915,"има":12916,"شدهاست":12917,"انگلیسی":12918,"werner":12919,"##ту":12920,"##ите":12921,"fine":12922,"equipe":12923,"##sel":12924,"terra":12925,"seinem":12926,"##aan":12927,"dove":12928,"ilə":12929,"kayu":12930,"під":12931,"##ms":12932,"iucn":12933,"نفر":12934,"jak":12935,"##inen":12936,"##하였다":12937,"election":12938,"थाय":12939,"##ais":12940,"bill":12941,"боиынша":12942,"##ys":12943,"##ա":12944,"##ня":12945,"##ল":12946,"##ham":12947,"military":12948,"habia":12949,"અન":12950,"##ев":12951,"southern":12952,"forces":12953,"##ж":12954,"ju":12955,"79":12956,"94":12957,"##ის":12958,"நாள":12959,"##per":12960,"causa":12961,"##ә":12962,"light":12963,"guerre":12964,"##coes":12965,"##mas":12966,"##ono":12967,"northern":12968,"đinh":12969,"дәүләт":12970,"australian":12971,"short":12972,"##ona":12973,"##ена":12974,"држави":12975,"bet":12976,"much":12977,"leon":12978,"min":12979,"agus":12980,"##age":12981,"collection":12982,"once":12983,"1889":12984,"mount":12985,"theo":12986,"##vu":12987,"ਦੀ":12988,"internacional":12989,"network":12990,"ως":12991,"tema":12992,"lu":12993,"دی":12994,"tal":12995,"included":12996,"##wy":12997,"##ге":12998,"tanto":12999,"בין":13000,"venne":13001,"luc":13002,"які":13003,"##sko":13004,"##ят":13005,"jacques":13006,"##ici":13007,"ari":13008,"html":13009,"periode":13010,"##sia":13011,"1880":13012,"##ル":13013,"або":13014,"dies":13015,"support":13016,"##pi":13017,"##ով":13018,"fel":13019,"suite":13020,"titre":13021,"##ore":13022,"copa":13023,"oster":13024,"lasang":13025,"##ras":13026,"izan":13027,"општини":13028,"sunt":13029,"##yn":13030,"হয":13031,"110":13032,"mindre":13033,"grandes":13034,"була":13035,"##ित":13036,"ידי":13037,"##vel":13038,"course":13039,"style":13040,"mundial":13041,"liegt":13042,"##ट":13043,"cultural":13044,"##ᆼ":13045,"bereits":13046,"##ர":13047,"aastal":13048,"сахьтан":13049,"germany":13050,"hy":13051,"takze":13052,"plaats":13053,"level":13054,"hay":13055,"plusieurs":13056,"nelle":13057,"украіни":13058,"lokal":13059,"##ि":13060,"official":13061,"pedro":13062,"sans":13063,"scott":13064,"##lı":13065,"##מה":13066,"##ds":13067,"register":13068,"##ium":13069,"лет":13070,"secondo":13071,"##ین":13072,"fins":13073,"թվականի":13074,"portugal":13075,"films":13076,"##sse":13077,"truong":13078,"після":13079,"##net":13080,"1870":13081,"board":13082,"tras":13083,"dezember":13084,"##лы":13085,"francois":13086,"ilk":13087,"##ді":13088,"сша":13089,"kabupaten":13090,"republica":13091,"municipal":13092,"మరయు":13093,"often":13094,"temporada":13095,"departamento":13096,"lieu":13097,"zuen":13098,"##ын":13099,"report":13100,"##lia":13101,"erste":13102,"dann":13103,"##ға":13104,"thoi":13105,"στις":13106,"##нда":13107,"quatre":13108,"ildə":13109,"ray":13110,"vice":13111,"##ati":13112,"movie":13113,"date":13114,"partido":13115,"kanada":13116,"који":13117,"juo":13118,"histoire":13119,"##ை":13120,"code":13121,"storre":13122,"##сть":13123,"adam":13124,"parti":13125,"bas":13126,"konnte":13127,"بين":13128,"poder":13129,"##기":13130,"god":13131,"##kt":13132,"##кі":13133,"τις":13134,"cual":13135,"using":13136,"савезној":13137,"summer":13138,"puede":13139,"presente":13140,"без":13141,"##ता":13142,"alan":13143,"works":13144,"standard":13145,"##ல":13146,"##ых":13147,"sport":13148,"instituto":13149,"eran":13150,"امریکا":13151,"nuoc":13152,"joe":13153,"construction":13154,"сахьт":13155,"##ᵉ":13156,"students":13157,"##let":13158,"career":13159,"vii":13160,"songs":13161,"sia":13162,"##या":13163,"marz":13164,"три":13165,"described":13166,"tersebut":13167,"get":13168,"##ության":13169,"period":13170,"minor":13171,"##ford":13172,"1886":13173,"பாரதத":13174,"front":13175,"nuo":13176,"scene":13177,"action":13178,"isang":13179,"kabukiran":13180,"##ide":13181,"viet":13182,"역":13183,"verlag":13184,"race":13185,"##tet":13186,"1885":13187,"ին":13188,"1894":13189,"vien":13190,"wilson":13191,"##ам":13192,"##ves":13193,"##isch":13194,"yo":13195,"##het":13196,"수":13197,"##ira":13198,"zone":13199,"ovat":13200,"کرد":13201,"police":13202,"##mus":13203,"poi":13204,"deel":13205,"##נים":13206,"monte":13207,"without":13208,"##chi":13209,"tro":13210,"koje":13211,"##스":13212,"maj":13213,"areas":13214,"harry":13215,"##uri":13216,"##ges":13217,"battle":13218,"индексаш":13219,"material":13220,"deutsche":13221,"ham":13222,"които":13223,"vaxer":13224,"μια":13225,"##ক":13226,"##od":13227,"##kom":13228,"1893":13229,"##ft":13230,"eo":13231,"meyer":13232,"או":13233,"более":13234,"కందరం":13235,"1892":13236,"tipo":13237,"sol":13238,"pagkainila":13239,"##fa":13240,"sub":13241,"1891":13242,"##ring":13243,"թվականին":13244,"qe":13245,"ultimo":13246,"بر":13247,"alto":13248,"qual":13249,"gemeente":13250,"##τα":13251,"##ত":13252,"utan":13253,"hilabihan":13254,"##ць":13255,"##igen":13256,"которыи":13257,"буиынса":13258,"##ال":13259,"##rn":13260,"میشود":13261,"##schen":13262,"##ներ":13263,"##ungen":13264,"شده":13265,"sulla":13266,"ktora":13267,"##iva":13268,"##ಲಲ":13269,"avril":13270,"между":13271,"##ಗಳು":13272,"thuong":13273,"seka":13274,"نام":13275,"##وں":13276,"roi":13277,"nakon":13278,"##ام":13279,"може":13280,"miles":13281,"##ное":13282,"خود":13283,"##ani":13284,"ihm":13285,"##يا":13286,"انگریزی":13287,"человек":13288,"columbia":13289,"deutschland":13290,"##ча":13291,"sempre":13292,"trade":13293,"labing":13294,"##лар":13295,"xviii":13296,"dien":13297,"centrala":13298,"library":13299,"##ം":13300,"guide":13301,"она":13302,"##bar":13303,"campo":13304,"beste":13305,"##las":13306,"нииса":13307,"bestar":13308,"gant":13309,"manuel":13310,"kim":13311,"подацима":13312,"##ong":13313,"русия":13314,"thong":13315,"moved":13316,"##ию":13317,"sitt":13318,"лелаш":13319,"##tos":13320,"##ト":13321,"rang":13322,"130":13323,"1888":13324,"ktore":13325,"cao":13326,"##ային":13327,"किया":13328,"ihr":13329,"xvi":13330,"otto":13331,"nationale":13332,"prince":13333,"були":13334,"aquest":13335,"##iem":13336,"hvor":13337,"##ens":13338,"aquesta":13339,"는":13340,"alta":13341,"##ende":13342,"født":13343,"similar":13344,"vattendrag":13345,"##ськии":13346,"health":13347,"##ala":13348,"##اں":13349,"mare":13350,"تا":13351,"hoi":13352,"ag":13353,"##య":13354,"kot":13355,"##able":13356,"##ша":13357,"nebula":13358,"empire":13359,"lord":13360,"master":13361,"never":13362,"##eg":13363,"jorden":13364,"hop":13365,"square":13366,"##ο":13367,"##tic":13368,"jackson":13369,"selected":13370,"etats":13371,"tous":13372,"##uje":13373,"sports":13374,"##ese":13375,"##ната":13376,"##ser":13377,"##ete":13378,"php":13379,"rei":13380,"fino":13381,"елга":13382,"##цы":13383,"bol":13384,"vita":13385,"moze":13386,"chinese":13387,"fall":13388,"##ੀ":13389,"iko":13390,"الذي":13391,"hot":13392,"##ков":13393,"padre":13394,"geraadpleegd":13395,"arthur":13396,"management":13397,"аз":13398,"nara":13399,"##ਰ":13400,"quebec":13401,"##лық":13402,"عدد":13403,"##ним":13404,"lange":13405,"allen":13406,"##urs":13407,"##ده":13408,"bar":13409,"glesbefolkat":13410,"##ும":13411,"afrika":13412,"##어":13413,"тои":13414,"established":13415,"आह":13416,"##ਨ":13417,"kumbang":13418,"file":13419,"является":13420,"vaster":13421,"##aren":13422,"те":13423,"која":13424,"chile":13425,"##ula":13426,"##це":13427,"selon":13428,"##ց":13429,"came":13430,"juin":13431,"daha":13432,"johnson":13433,"autor":13434,"##ները":13435,"nordvast":13436,"جو":13437,"##ել":13438,"##ע":13439,"##rie":13440,"phat":13441,"##tis":13442,"ary":13443,"narmaste":13444,"##ան":13445,"chris":13446,"integrated":13447,"##ал":13448,"common":13449,"محمد":13450,"هذه":13451,"despres":13452,"осіб":13453,"vum":13454,"hand":13455,"status":13456,"##sh":13457,"jazz":13458,"professional":13459,"half":13460,"##че":13461,"ru":13462,"stone":13463,"gemeinde":13464,"हो":13465,"один":13466,"punta":13467,"neu":13468,"motor":13469,"middle":13470,"eesti":13471,"##يد":13472,"nar":13473,"##yi":13474,"##ismo":13475,"اینگیلیسجه":13476,"various":13477,"##ps":13478,"agua":13479,"##rea":13480,"సమప":13481,"##ede":13482,"##ట":13483,"##lər":13484,"written":13485,"دا":13486,"dio":13487,"fois":13488,"1878":13489,"mismo":13490,"jesus":13491,"लिए":13492,"##ী":13493,"##nan":13494,"miejsce":13495,"##ња":13496,"questa":13497,"study":13498,"##하여":13499,"jakarta":13500,"mac":13501,"anti":13502,"##ᆷ":13503,"وی":13504,"место":13505,"marca":13506,"##sı":13507,"maja":13508,"##ht":13509,"##nta":13510,"tuong":13511,"performance":13512,"##ff":13513,"##ły":13514,"anderen":13515,"##ത":13516,"##ern":13517,"##rna":13518,"structure":13519,"##ськоі":13520,"##eri":13521,"##nza":13522,"##ali":13523,"page":13524,"##ym":13525,"##си":13526,"1883":13527,"##се":13528,"forme":13529,"им":13530,"track":13531,"hospital":13532,"fi":13533,"circa":13534,"vagy":13535,"ਦਾ":13536,"##tik":13537,"##ция":13538,"1887":13539,"michel":13540,"##tra":13541,"##ғы":13542,"medal":13543,"actor":13544,"munchen":13545,"##ги":13546,"##за":13547,"tudi":13548,"mutta":13549,"valley":13550,"##사":13551,"primeiro":13552,"janeiro":13553,"##jan":13554,"walog":13555,"kuperad":13556,"foram":13557,"chien":13558,"##िक":13559,"##ग":13560,"hang":13561,"oficial":13562,"ok":13563,"##bus":13564,"inc":13565,"making":13566,"##ი":13567,"girl":13568,"papa":13569,"famille":13570,"ana":13571,"fler":13572,"etat":13573,"produced":13574,"##ши":13575,"haben":13576,"nouvelle":13577,"mike":13578,"vil":13579,"canal":13580,"##ster":13581,"platz":13582,"vie":13583,"##po":13584,"paulo":13585,"samhalle":13586,"##ket":13587,"##ние":13588,"sve":13589,"عليه":13590,"yılında":13591,"##los":13592,"liste":13593,"having":13594,"metres":13595,"kirche":13596,"کو":13597,"eastern":13598,"dag":13599,"##ika":13600,"drama":13601,"##ں":13602,"giovanni":13603,"dins":13604,"##dd":13605,"##ът":13606,"они":13607,"norr":13608,"wikimedia":13609,"भी":13610,"##ix":13611,"heinrich":13612,"given":13613,"##cija":13614,"tussen":13615,"cross":13616,"married":13617,"із":13618,"lebih":13619,"ultima":13620,"teams":13621,"seperti":13622,"living":13623,"##field":13624,"junto":13625,"philip":13626,"together":13627,"##cs":13628,"steve":13629,"sun":13630,"alt":13631,"elso":13632,"హకటరలు":13633,"##ба":13634,"ktery":13635,"##ી":13636,"kapunawpunawan":13637,"bob":13638,"##も":13639,"##tat":13640,"##ac":13641,"virginia":13642,"taylor":13643,"jos":13644,"heart":13645,"##би":13646,"##sis":13647,"1860":13648,"##eni":13649,"##ag":13650,"policy":13651,"varios":13652,"muy":13653,"sadana":13654,"##ez":13655,"memiliki":13656,"aj":13657,"##ey":13658,"altri":13659,"morte":13660,"went":13661,"##hu":13662,"##nın":13663,"primeira":13664,"cinema":13665,"1884":13666,"every":13667,"programa":13668,"xi":13669,"started":13670,"yra":13671,"##த":13672,"dapat":13673,"forst":13674,"queen":13675,"كانت":13676,"canh":13677,"160":13678,"superficie":13679,"##rin":13680,"stata":13681,"annee":13682,"bahasa":13683,"regione":13684,"toi":13685,"militar":13686,"nordost":13687,"mesmo":13688,"islam":13689,"vai":13690,"anne":13691,"করে":13692,"##nost":13693,"оьрс":13694,"syahan":13695,"google":13696,"inwoners":13697,"иылға":13698,"nhieu":13699,"binh":13700,"loi":13701,"futbol":13702,"jamfort":13703,"##nos":13704,"זה":13705,"become":13706,"nebo":13707,"weer":13708,"##ң":13709,"ganska":13710,"ovanligt":13711,"nama":13712,"teatro":13713,"1882":13714,"##ры":13715,"##ым":13716,"1881":13717,"minh":13718,"signifikant":13719,"committee":13720,"##된":13721,"##vy":13722,"により":13723,"sky":13724,"poblacio":13725,"russian":13726,"akan":13727,"dabei":13728,"стал":13729,"##ина":13730,"##line":13731,"victor":13732,"forekomst":13733,"ep":13734,"1848":13735,"##ami":13736,"##ਲ":13737,"tao":13738,"russell":13739,"stad":13740,"sei":13741,"private":13742,"##ના":13743,"##ா":13744,"quale":13745,"##gar":13746,"##ше":13747,"jim":13748,"color":13749,"altres":13750,"против":13751,"champion":13752,"uefa":13753,"florida":13754,"##ios":13755,"rose":13756,"extension":13757,"jane":13758,"##rte":13759,"قرار":13760,"konnen":13761,"##ط":13762,"camp":13763,"##द":13764,"ort":13765,"release":13766,"lub":13767,"stati":13768,"corps":13769,"ktere":13770,"billboard":13771,"publishing":13772,"##되었다":13773,"janvier":13774,"bac":13775,"siglo":13776,"180":13777,"##heid":13778,"վերցված":13779,"change":13780,"dance":13781,"marc":13782,"oscar":13783,"##nosti":13784,"nin":13785,"institut":13786,"avait":13787,"ihrer":13788,"toppen":13789,"railway":13790,"nen":13791,"##ા":13792,"##ಲ":13793,"140":13794,"away":13795,"sera":13796,"##iste":13797,"##tia":13798,"kepada":13799,"technology":13800,"source":13801,"tran":13802,"damit":13803,"universidad":13804,"republic":13805,"societe":13806,"около":13807,"1871":13808,"seven":13809,"avoir":13810,"##mis":13811,"هذا":13812,"communes":13813,"cultura":13814,"##ntes":13815,"##ld":13816,"uso":13817,"roger":13818,"ouest":13819,"ft":13820,"ஒரு":13821,"fer":13822,"##ncia":13823,"ενα":13824,"якии":13825,"septembre":13826,"octobre":13827,"##nika":13828,"quien":13829,"cerca":13830,"однако":13831,"comte":13832,"##cos":13833,"##gang":13834,"реестры":13835,"sos":13836,"omradet":13837,"đao":13838,"pulo":13839,"complete":13840,"छग":13841,"modo":13842,"lap":13843,"dictionary":13844,"##મા":13845,"ohio":13846,"pape":13847,"origine":13848,"gov":13849,"1st":13850,"marso":13851,"##ale":13852,"bez":13853,"junior":13854,"только":13855,"##cja":13856,"suas":13857,"##자":13858,"यह":13859,"ima":13860,"azərbaycan":13861,"wien":13862,"zituzten":13863,"salah":13864,"polski":13865,"ss":13866,"##tie":13867,"lead":13868,"historical":13869,"nouveau":13870,"##fe":13871,"chef":13872,"כי":13873,"kota":13874,"след":13875,"encuentra":13876,"##ി":13877,"henri":13878,"##ком":13879,"entertainment":13880,"hanh":13881,"frantsesez":13882,"viii":13883,"##ತ":13884,"мен":13885,"abinon":13886,"##က":13887,"саны":13888,"katika":13889,"jawa":13890,"января":13891,"eric":13892,"euro":13893,"##ela":13894,"шп":13895,"term":13896,"##ell":13897,"equipo":13898,"storsta":13899,"lag":13900,"इस":13901,"##им":13902,"francaise":13903,"bil":13904,"section":13905,"mellom":13906,"mother":13907,"россиин":13908,"##osa":13909,"cast":13910,"##isme":13911,"##rne":13912,"pres":13913,"canton":13914,"##ciones":13915,"##ൽ":13916,"##ಗ":13917,"tay":13918,"##ಾ":13919,"buenos":13920,"##mes":13921,"mine":13922,"##ingen":13923,"julio":13924,"##tz":13925,"##리":13926,"đat":13927,"років":13928,"poco":13929,"samt":13930,"neue":13931,"commission":13932,"##נו":13933,"##ss":13934,"lady":13935,"шеран":13936,"حيث":13937,"mieu":13938,"persones":13939,"fifa":13940,"1861":13941,"peru":13942,"федерацин":13943,"##יים":13944,"cas":13945,"systems":13946,"##nn":13947,"1879":13948,"##rar":13949,"ihn":13950,"іх":13951,"1864":13952,"suoi":13953,"##اد":13954,"##ните":13955,"##ard":13956,"1857":13957,"време":13958,"autre":13959,"ging":13960,"armee":13961,"anu":13962,"cruz":13963,"мексику":13964,"double":13965,"malaysia":13966,"ass":13967,"dy":13968,"etta":13969,"код":13970,"unit":13971,"них":13972,"lietuvos":13973,"plu":13974,"##σε":13975,"nuevo":13976,"1876":13977,"foundation":13978,"created":13979,"today":13980,"alfred":13981,"start":13982,"few":13983,"maart":13984,"సంఖయ":13985,"chief":13986,"состав":13987,"그":13988,"##ων":13989,"spisak":13990,"ainda":13991,"##қ":13992,"syn":13993,"dua":13994,"unis":13995,"##hen":13996,"win":13997,"aires":13998,"aos":13999,"##mos":14000,"hong":14001,"regiment":14002,"##ια":14003,"beiden":14004,"zuten":14005,"boston":14006,"aven":14007,"our":14008,"staat":14009,"##స":14010,"franz":14011,"stage":14012,"##tel":14013,"жылы":14014,"lewis":14015,"phu":14016,"ol":14017,"##ille":14018,"amihang":14019,"software":14020,"kong":14021,"jahrhundert":14022,"ella":14023,"fast":14024,"mario":14025,"robinson":14026,"huvudsakligen":14027,"african":14028,"##lta":14029,"ഒര":14030,"##ose":14031,"francis":14032,"regionen":14033,"sede":14034,"korea":14035,"1800":14036,"kasagaran":14037,"##jon":14038,"bajo":14039,"juillet":14040,"range":14041,"وچ":14042,"##ding":14043,"contro":14044,"دو":14045,"##cha":14046,"ademas":14047,"here":14048,"eit":14049,"woman":14050,"conference":14051,"##ви":14052,"dakbayan":14053,"septiyembre":14054,"pendant":14055,"##ությունը":14056,"tony":14057,"phap":14058,"text":14059,"territorio":14060,"pho":14061,"tong":14062,"##व":14063,"pola":14064,"zweiten":14065,"##nego":14066,"##owa":14067,"moment":14068,"soder":14069,"transport":14070,"##ными":14071,"przy":14072,"eglise":14073,"##skiego":14074,"mange":14075,"klub":14076,"katalog":14077,"kwa":14078,"города":14079,"nije":14080,"##ism":14081,"baldoti":14082,"lifayelas":14083,"test":14084,"russia":14085,"##ties":14086,"independent":14087,"guitar":14088,"##ول":14089,"##ціі":14090,"campeonato":14091,"воины":14092,"##ella":14093,"##ging":14094,"##dt":14095,"##ため":14096,"biography":14097,"regie":14098,"aunque":14099,"##ноі":14100,"##illa":14101,"momento":14102,"##ados":14103,"1873":14104,"hit":14105,"vir":14106,"1877":14107,"ذلك":14108,"eren":14109,"decembre":14110,"hanno":14111,"##cus":14112,"tarafından":14113,"ua":14114,"francesco":14115,"ora":14116,"1863":14117,"##cke":14118,"##iti":14119,"miguel":14120,"announced":14121,"ford":14122,"ada":14123,"1875":14124,"nobiyembre":14125,"있는":14126,"sound":14127,"##ют":14128,"##rer":14129,"negara":14130,"wife":14131,"seorang":14132,"##ಸ":14133,"nazionale":14134,"##tura":14135,"dende":14136,"1865":14137,"##cije":14138,"##zie":14139,"boy":14140,"1810":14141,"return":14142,"etxek":14143,"đang":14144,"channel":14145,"interior":14146,"kde":14147,"##ру":14148,"working":14149,"person":14150,"##هم":14151,"##ться":14152,"founded":14153,"cau":14154,"##ско":14155,"upon":14156,"##мен":14157,"jednak":14158,"це":14159,"##ram":14160,"pere":14161,"amsterdam":14162,"##nog":14163,"hau":14164,"austria":14165,"という":14166,"tang":14167,"##ил":14168,"континенталан":14169,"duke":14170,"1867":14171,"##iro":14172,"val":14173,"islands":14174,"##ור":14175,"leader":14176,"gang":14177,"##ாக":14178,"polo":14179,"skulle":14180,"manera":14181,"sama":14182,"cours":14183,"لا":14184,"cote":14185,"##ман":14186,"था":14187,"tako":14188,"సకరయం":14189,"namen":14190,"johannes":14191,"zealand":14192,"titel":14193,"further":14194,"tiempo":14195,"xiii":14196,"commons":14197,"estat":14198,"amor":14199,"##ous":14200,"japanese":14201,"##ында":14202,"1868":14203,"rowniez":14204,"##elle":14205,"stesso":14206,"pertama":14207,"##rus":14208,"golden":14209,"ere":14210,"##iv":14211,"##dır":14212,"mans":14213,"##ett":14214,"consultau":14215,"##ті":14216,"worked":14217,"weitere":14218,"naselju":14219,"bere":14220,"britannica":14221,"века":14222,"##ava":14223,"thai":14224,"event":14225,"universal":14226,"especies":14227,"vs":14228,"patrick":14229,"wrote":14230,"evolution":14231,"##llo":14232,"phong":14233,"##lli":14234,"stephen":14235,"revolution":14236,"1850":14237,"aout":14238,"recorded":14239,"khac":14240,"bola":14241,"gen":14242,"politico":14243,"nguyen":14244,"xvii":14245,"125":14246,"lista":14247,"лараран":14248,"микрохаамаш":14249,"italiana":14250,"ann":14251,"oro":14252,"personal":14253,"joined":14254,"barat":14255,"##ज":14256,"кӏошт":14257,"##cher":14258,"1872":14259,"wales":14260,"##zia":14261,"competition":14262,"##cje":14263,"aircraft":14264,"ji":14265,"##대":14266,"baldotu":14267,"nations":14268,"##zer":14269,"seria":14270,"##idad":14271,"dello":14272,"yon":14273,"daerah":14274,"tarde":14275,"georg":14276,"xiv":14277,"##ор":14278,"##tive":14279,"##시":14280,"dead":14281,"1859":14282,"##თ":14283,"actual":14284,"octubre":14285,"carolina":14286,"##nus":14287,"santo":14288,"gibt":14289,"قبل":14290,"canadian":14291,"deutscher":14292,"1866":14293,"viec":14294,"##niu":14295,"diesem":14296,"sendo":14297,"low":14298,"future":14299,"تے":14300,"novel":14301,"##dia":14302,"waar":14303,"1869":14304,"linea":14305,"wilayah":14306,"##ण":14307,"hem":14308,"##ություն":14309,"августа":14310,"notamment":14311,"possible":14312,"раион":14313,"წლის":14314,"vsak":14315,"garcia":14316,"units":14317,"lei":14318,"brian":14319,"omkring":14320,"когда":14321,"شهر":14322,"pred":14323,"##est":14324,"though":14325,"##ili":14326,"erhielt":14327,"hymenoptera":14328,"sent":14329,"petit":14330,"superior":14331,"1500":14332,"kozott":14333,"101":14334,"1862":14335,"medical":14336,"ant":14337,"machine":14338,"##kat":14339,"##rol":14340,"dessen":14341,"consultado":14342,"##ਕ":14343,"miss":14344,"arten":14345,"سنة":14346,"dias":14347,"geschichte":14348,"homes":14349,"него":14350,"active":14351,"neben":14352,"gruppo":14353,"##acion":14354,"generale":14355,"put":14356,"##ses":14357,"training":14358,"đoan":14359,"andrew":14360,"στον":14361,"##وا":14362,"##دا":14363,"sydost":14364,"classe":14365,"확인함":14366,"##ola":14367,"xii":14368,"##א":14369,"operation":14370,"##nica":14371,"कल":14372,"filme":14373,"giao":14374,"grad":14375,"returned":14376,"catalog":14377,"1874":14378,"fernando":14379,"ги":14380,"pot":14381,"mon":14382,"##ora":14383,"##een":14384,"current":14385,"platt":14386,"zusammen":14387,"xv":14388,"##ons":14389,"##ło":14390,"##nou":14391,"sv":14392,"##тар":14393,"angel":14394,"ulohang":14395,"pode":14396,"##টি":14397,"אך":14398,"others":14399,"sekolah":14400,"ludwig":14401,"سی":14402,"musik":14403,"2nd":14404,"##ான":14405,"##ー":14406,"molto":14407,"##haus":14408,"より":14409,"dc":14410,"اما":14411,"##ih":14412,"##una":14413,"outros":14414,"lien":14415,"##եր":14416,"##eur":14417,"которые":14418,"alguns":14419,"disco":14420,"porto":14421,"био":14422,"rights":14423,"てあり":14424,"##ente":14425,"encore":14426,"мая":14427,"ہیں":14428,"ayisyen":14429,"creation":14430,"faire":14431,"tant":14432,"##yo":14433,"##ника":14434,"##oi":14435,"systema":14436,"sydvast":14437,"enpresak":14438,"corporation":14439,"##し":14440,"ecole":14441,"format":14442,"empresa":14443,"ly":14444,"որ":14445,"рус":14446,"male":14447,"rome":14448,"siendo":14449,"londres":14450,"leurs":14451,"となる":14452,"россиискои":14453,"regio":14454,"موقع":14455,"giai":14456,"##ые":14457,"inn":14458,"##lui":14459,"انها":14460,"##ich":14461,"bridge":14462,"week":14463,"##ম":14464,"besar":14465,"fylke":14466,"paises":14467,"##fer":14468,"revista":14469,"##ля":14470,"dark":14471,"depois":14472,"ही":14473,"ensemble":14474,"geographical":14475,"inte":14476,"kad":14477,"eng":14478,"かある":14479,"##ве":14480,"##wood":14481,"punkt":14482,"meksiku":14483,"барамера":14484,"עד":14485,"estos":14486,"##via":14487,"medio":14488,"elected":14489,"chiesa":14490,"ix":14491,"branch":14492,"aveva":14493,"은":14494,"visini":14495,"kas":14496,"peu":14497,"bylo":14498,"##tre":14499,"कि":14500,"##ando":14501,"primary":14502,"##ori":14503,"энциклопедия":14504,"elizabeth":14505,"apos":14506,"gmina":14507,"এই":14508,"##장":14509,"masa":14510,"hanen":14511,"eus":14512,"##ி":14513,"huyen":14514,"davis":14515,"institution":14516,"##lus":14517,"dentro":14518,"##ay":14519,"##па":14520,"##ير":14521,"##ો":14522,"نیز":14523,"gas":14524,"бассеин":14525,"oko":14526,"шиила":14527,"##ವನನು":14528,"growth":14529,"fox":14530,"ఒక":14531,"의":14532,"##מים":14533,"kanssa":14534,"##op":14535,"sinh":14536,"len":14537,"gab":14538,"ordre":14539,"https":14540,"erano":14541,"coast":14542,"rat":14543,"flere":14544,"dva":14545,"##feld":14546,"##gh":14547,"stars":14548,"##ел":14549,"mitglied":14550,"gol":14551,"secolo":14552,"considered":14553,"στα":14554,"град":14555,"altre":14556,"genre":14557,"##ння":14558,"continued":14559,"шыв":14560,"##ін":14561,"իր":14562,"jersey":14563,"ente":14564,"তার":14565,"তিনি":14566,"puerto":14567,"secara":14568,"##ске":14569,"шш":14570,"hett":14571,"ese":14572,"stagione":14573,"##skim":14574,"beach":14575,"করেন":14576,"example":14577,"hade":14578,"まて":14579,"titulo":14580,"mint":14581,"seguito":14582,"భూమ":14583,"celui":14584,"##ləri":14585,"grace":14586,"##ngen":14587,"##원":14588,"كما":14589,"##ють":14590,"homme":14591,"temple":14592,"##tek":14593,"menos":14594,"norsk":14595,"tez":14596,"##ме":14597,"республики":14598,"pacific":14599,"##ու":14600,"ба":14601,"раиона":14602,"colombia":14603,"##ција":14604,"##dad":14605,"estaven":14606,"ek":14607,"##ре":14608,"timur":14609,"kommunen":14610,"entry":14611,"veel":14612,"elements":14613,"principale":14614,"kang":14615,"opened":14616,"mondiale":14617,"pan":14618,"गया":14619,"tokyo":14620,"##lio":14621,"##ク":14622,"##isk":14623,"##한다":14624,"रप":14625,"disse":14626,"##jac":14627,"sad":14628,"episodio":14629,"となった":14630,"##ската":14631,"##don":14632,"##ila":14633,"جمعیت":14634,"##ivo":14635,"##نا":14636,"bass":14637,"##bb":14638,"##set":14639,"luong":14640,"wolfgang":14641,"prime":14642,"ise":14643,"іі":14644,"posto":14645,"##ך":14646,"wild":14647,"tieng":14648,"テレヒ":14649,"must":14650,"##يات":14651,"شہر":14652,"idea":14653,"cosi":14654,"tweede":14655,"zivelo":14656,"claude":14657,"##гу":14658,"nadmorskoj":14659,"beberapa":14660,"##asi":14661,"zituen":14662,"##ciu":14663,"##ду":14664,"##স":14665,"too":14666,"ona":14667,"भारत":14668,"##רה":14669,"##ർ":14670,"segle":14671,"##tica":14672,"została":14673,"tutti":14674,"ligne":14675,"theory":14676,"artist":14677,"podczas":14678,"марта":14679,"##кои":14680,"vista":14681,"espanol":14682,"##nı":14683,"##ар":14684,"available":14685,"##iques":14686,"francesa":14687,"δεν":14688,"##bach":14689,"winter":14690,"рәсәи":14691,"phai":14692,"should":14693,"οτι":14694,"stanovnistva":14695,"##ση":14696,"brother":14697,"note":14698,"publication":14699,"maior":14700,"##met":14701,"otras":14702,"##ム":14703,"kui":14704,"sehr":14705,"##ota":14706,"כל":14707,"105":14708,"issue":14709,"##чи":14710,"jedna":14711,"result":14712,"বারো":14713,"boi":14714,"##ման":14715,"##dur":14716,"internationale":14717,"tego":14718,"miller":14719,"nın":14720,"roy":14721,"##mia":14722,"##ما":14723,"lalek":14724,"יותר":14725,"kecamatan":14726,"mil":14727,"senior":14728,"##lse":14729,"genero":14730,"tuvo":14731,"kaominina":14732,"kod":14733,"playing":14734,"estan":14735,"##ır":14736,"situe":14737,"##ыи":14738,"bot":14739,"gobierno":14740,"##hus":14741,"##kim":14742,"help":14743,"wide":14744,"fishbase":14745,"থেকে":14746,"moins":14747,"navy":14748,"ernst":14749,"##ral":14750,"formula":14751,"zunachst":14752,"carlo":14753,"fils":14754,"editions":14755,"##သည":14756,"chart":14757,"key":14758,"blues":14759,"একটি":14760,"села":14761,"ton":14762,"child":14763,"этого":14764,"bernard":14765,"sjo":14766,"##יו":14767,"##uta":14768,"była":14769,"rey":14770,"##յան":14771,"tina":14772,"sale":14773,"بتاريخ":14774,"enrique":14775,"##ү":14776,"fevrier":14777,"administration":14778,"tieu":14779,"libro":14780,"##երի":14781,"##tal":14782,"تم":14783,"##rono":14784,"chateau":14785,"член":14786,"soit":14787,"negeri":14788,"cuenta":14789,"sat":14790,"dog":14791,"##ında":14792,"##יות":14793,"cet":14794,"##kou":14795,"hacia":14796,"ред":14797,"hockey":14798,"мм":14799,"##వ":14800,"##her":14801,"##san":14802,"##tak":14803,"kontinente":14804,"wenn":14805,"реки":14806,"##lige":14807,"##if":14808,"sydney":14809,"##fi":14810,"##い":14811,"publico":14812,"##вання":14813,"##து":14814,"##ット":14815,"varias":14816,"joylashgan":14817,"susan":14818,"keine":14819,"dupa":14820,"direction":14821,"estaba":14822,"hag":14823,"##pan":14824,"iku":14825,"lepidoptera":14826,"##ების":14827,"energy":14828,"factbook":14829,"##ские":14830,"computer":14831,"stadium":14832,"sex":14833,"yw":14834,"##itat":14835,"##ր":14836,"players":14837,"mesto":14838,"##vano":14839,"##해":14840,"pol":14841,"schools":14842,"による":14843,"bekannt":14844,"große":14845,"daughter":14846,"coach":14847,"princeton":14848,"##eren":14849,"две":14850,"##ಗಳ":14851,"originally":14852,"pr":14853,"していた":14854,"reino":14855,"##ness":14856,"وقد":14857,"tatbefolkat":14858,"nivel":14859,"##heim":14860,"dipterorum":14861,"mid":14862,"170":14863,"части":14864,"##يل":14865,"museo":14866,"1830":14867,"limited":14868,"girls":14869,"##च":14870,"mientras":14871,"##ου":14872,"бил":14873,"sons":14874,"била":14875,"##یت":14876,"бар":14877,"bilo":14878,"ch":14879,"alex":14880,"todas":14881,"jalkeen":14882,"##ז":14883,"##во":14884,"himself":14885,"ku":14886,"bruce":14887,"##nts":14888,"appeared":14889,"##ero":14890,"##رة":14891,"zuruck":14892,"does":14893,"justice":14894,"москваца":14895,"khan":14896,"pakistan":14897,"##կ":14898,"formed":14899,"само":14900,"##dores":14901,"box":14902,"nang":14903,"దవర":14904,"budapest":14905,"developed":14906,"этом":14907,"fe":14908,"rosa":14909,"cinco":14910,"mere":14911,"##ик":14912,"##rde":14913,"vuoden":14914,"pennsylvania":14915,"##ில":14916,"yari":14917,"ball":14918,"##нан":14919,"##ement":14920,"##اب":14921,"عبد":14922,"##ಗಳನನು":14923,"currently":14924,"provinsi":14925,"##ая":14926,"##ின":14927,"წელს":14928,"auto":14929,"stockholm":14930,"vung":14931,"##owe":14932,"thay":14933,"кеп":14934,"organization":14935,"process":14936,"places":14937,"##owy":14938,"ireland":14939,"grup":14940,"104":14941,"##eta":14942,"theater":14943,"furono":14944,"spanish":14945,"regions":14946,"##לה":14947,"contemporary":14948,"##డ":14949,"də":14950,"alcuni":14951,"##nar":14952,"csak":14953,"102":14954,"tard":14955,"novo":14956,"bell":14957,"forest":14958,"diego":14959,"donne":14960,"##аи":14961,"spider":14962,"kaumahan":14963,"manager":14964,"sm":14965,"mest":14966,"##сті":14967,"celle":14968,"chan":14969,"иовха":14970,"еще":14971,"georgia":14972,"township":14973,"##erte":14974,"across":14975,"نسمة":14976,"delstaten":14977,"deren":14978,"elles":14979,"boys":14980,"dois":14981,"rural":14982,"decada":14983,"labon":14984,"##ean":14985,"##யில":14986,"എനന":14987,"gordon":14988,"character":14989,"stor":14990,"ки":14991,"##ije":14992,"##get":14993,"quelques":14994,"kako":14995,"lett":14996,"##ias":14997,"bade":14998,"менен":14999,"addition":15000,"hollywood":15001,"##ae":15002,"orden":15003,"dago":15004,"sverige":15005,"categoria":15006,"##ович":15007,"##hin":15008,"yer":15009,"joan":15010,"embargo":15011,"##oni":15012,"zif":15013,"центр":15014,"custodian":15015,"noruwega":15016,"events":15017,"##ult":15018,"население":15019,"aby":15020,"minutes":15021,"samuel":15022,"anhianhi":15023,"##ய":15024,"ohne":15025,"kali":15026,"negli":15027,"##מות":15028,"##ую":15029,"ての":15030,"milano":15031,"հետ":15032,"money":15033,"##ments":15034,"blir":15035,"това":15036,"##트":15037,"bai":15038,"industry":15039,"cuatro":15040,"normal":15041,"nagy":15042,"##ય":15043,"खः":15044,"signed":15045,"##상":15046,"ihren":15047,"cat":15048,"lon":15049,"tap":15050,"##게":15051,"1840":15052,"sohn":15053,"sue":15054,"student":15055,"##այի":15056,"recensement":15057,"тому":15058,"magnoliopsida":15059,"nicolas":15060,"andra":15061,"traves":15062,"##נות":15063,"garden":15064,"ialah":15065,"##oa":15066,"##sion":15067,"molupyo":15068,"ivan":15069,"##werk":15070,"nafar":15071,"##тан":15072,"mycket":15073,"##ська":15074,"декабря":15075,"##మ":15076,"##aja":15077,"##ија":15078,"ger":15079,"notes":15080,"universite":15081,"illinois":15082,"schon":15083,"կազմում":15084,"tamien":15085,"leben":15086,"banyak":15087,"samo":15088,"##ద":15089,"castle":15090,"##ص":15091,"##жи":15092,"obec":15093,"editor":15094,"less":15095,"albums":15096,"че":15097,"douglas":15098,"orchestra":15099,"ante":15100,"##ces":15101,"đay":15102,"aholi":15103,"наи":15104,"obras":15105,"##ct":15106,"##hl":15107,"fase":15108,"diverse":15109,"##cka":15110,"##tto":15111,"formation":15112,"##ված":15113,"appointed":15114,"anthony":15115,"prvni":15116,"esa":15117,"##ની":15118,"ebenfalls":15119,"tale":15120,"drzavi":15121,"patedik":15122,"werk":15123,"obefolkad":15124,"doctor":15125,"cause":15126,"singles":15127,"mod":15128,"exemple":15129,"close":15130,"hemiboreal":15131,"##का":15132,"plaza":15133,"##wan":15134,"##kel":15135,"##적":15136,"historic":15137,"byen":15138,"##kow":15139,"##ין":15140,"pelicula":15141,"##rak":15142,"silver":15143,"2009an":15144,"lower":15145,"bija":15146,"করা":15147,"##ків":15148,"industrial":15149,"##ք":15150,"tho":15151,"basis":15152,"gruppe":15153,"##ात":15154,"численность":15155,"prvi":15156,"rue":15157,"июля":15158,"ın":15159,"##sto":15160,"dom":15161,"dna":15162,"алып":15163,"movement":15164,"laut":15165,"honor":15166,"coupe":15167,"##할":15168,"ibn":15169,"bahwa":15170,"##ана":15171,"governo":15172,"sta":15173,"puo":15174,"cum":15175,"ancient":15176,"gradova":15177,"sense":15178,"devient":15179,"এর":15180,"##ض":15181,"personas":15182,"seconda":15183,"سطح":15184,"daily":15185,"ӏа":15186,"##τη":15187,"って":15188,"orthoptera":15189,"##회":15190,"topon":15191,"कथ":15192,"đieu":15193,"popis":15194,"esto":15195,"##чно":15196,"1858":15197,"ltd":15198,"אשר":15199,"market":15200,"##vas":15201,"הייתה":15202,"##ս":15203,"##она":15204,"quella":15205,"setelah":15206,"attack":15207,"anderson":15208,"κατα":15209,"##מן":15210,"##ను":15211,"اطلع":15212,"videtu":15213,"への":15214,"lunetu":15215,"moderne":15216,"zm":15217,"hinh":15218,"xuat":15219,"##bile":15220,"dieses":15221,"##erd":15222,"##ই":15223,"iso":15224,"food":15225,"##یر":15226,"taken":15227,"##menti":15228,"federation":15229,"vise":15230,"unica":15231,"##kas":15232,"##لی":15233,"##ες":15234,"politique":15235,"##мі":15236,"##aria":15237,"foreign":15238,"self":15239,"pertsona":15240,"##ார":15241,"##скан":15242,"##лык":15243,"wieku":15244,"##부":15245,"##gas":15246,"antara":15247,"##ર":15248,"жер":15249,"ਇਕ":15250,"debido":15251,"nba":15252,"majd":15253,"chuyen":15254,"principe":15255,"champions":15256,"captain":15257,"disney":15258,"तथा":15259,"gun":15260,"المتحدة":15261,"##owych":15262,"составе":15263,"pages":15264,"donc":15265,"##nto":15266,"##eti":15267,"kawasan":15268,"220":15269,"##ß":15270,"##ское":15271,"neuen":15272,"storia":15273,"roberto":15274,"georges":15275,"##دة":15276,"350":15277,"particular":15278,"свою":15279,"talet":15280,"cara":15281,"hard":15282,"campionato":15283,"enw":15284,"decide":15285,"уже":15286,"ani":15287,"2007an":15288,"sine":15289,"khu":15290,"##ث":15291,"object":15292,"mondo":15293,"##ста":15294,"##ない":15295,"##һы":15296,"features":15297,"municipality":15298,"seen":15299,"##ҳои":15300,"mezi":15301,"##ји":15302,"కూడ":15303,"ktera":15304,"##ningen":15305,"mix":15306,"##ო":15307,"decision":15308,"religion":15309,"мемлекеттік":15310,"situada":15311,"генерал":15312,"kommun":15313,"##η":15314,"operations":15315,"ground":15316,"lingua":15317,"##nal":15318,"##リー":15319,"peak":15320,"eight":15321,"##عة":15322,"estas":15323,"اک":15324,"համար":15325,"rugby":15326,"mann":15327,"ole":15328,"октября":15329,"komt":15330,"memorial":15331,"hamburg":15332,"##zio":15333,"##ған":15334,"remix":15335,"vascular":15336,"bzw":15337,"edo":15338,"havde":15339,"##чки":15340,"erst":15341,"##ൻ":15342,"##তে":15343,"diversos":15344,"мира":15345,"senere":15346,"proprio":15347,"##чка":15348,"leipzig":15349,"ancora":15350,"befindet":15351,"tich":15352,"allem":15353,"ontario":15354,"massachusetts":15355,"howard":15356,"годах":15357,"##art":15358,"との":15359,"పబడన":15360,"nich":15361,"によって":15362,"ישראל":15363,"parts":15364,"июня":15365,"##ott":15366,"paso":15367,"karena":15368,"walker":15369,"pueden":15370,"##ার":15371,"##isi":15372,"tournament":15373,"өзен":15374,"##ته":15375,"geen":15376,"vocals":15377,"milan":15378,"terme":15379,"ја":15380,"organisation":15381,"otra":15382,"##din":15383,"fodd":15384,"##sc":15385,"microsoft":15386,"##nden":15387,"זו":15388,"##vis":15389,"##min":15390,"michigan":15391,"##tur":15392,"prize":15393,"متحدہ":15394,"##ული":15395,"1856":15396,"متر":15397,"##bel":15398,"##bia":15399,"сентября":15400,"romana":15401,"leo":15402,"kilometers":15403,"torre":15404,"ver":15405,"gar":15406,"franca":15407,"duas":15408,"свои":15409,"throughout":15410,"principalmente":15411,"1854":15412,"lifayels":15413,"toda":15414,"need":15415,"saat":15416,"aver":15417,"kommune":15418,"einige":15419,"##зе":15420,"##ына":15421,"240":15422,"kilometres":15423,"tengah":15424,"proceni":15425,"barbara":15426,"حتى":15427,"##же":15428,"tae":15429,"regular":15430,"tid":15431,"lima":15432,"##dal":15433,"sold":15434,"porte":15435,"сан":15436,"##way":15437,"##ит":15438,"tijdens":15439,"##led":15440,"федерации":15441,"##wał":15442,"conservation":15443,"dj":15444,"opp":15445,"##up":15446,"franco":15447,"grote":15448,"cuoc":15449,"ins":15450,"территории":15451,"madre":15452,"concise":15453,"moon":15454,"unico":15455,"tierra":15456,"anak":15457,"##heit":15458,"##lari":15459,"##ови":15460,"##skiej":15461,"##ген":15462,"##면":15463,"часть":15464,"blood":15465,"##ਤ":15466,"jeden":15467,"groups":15468,"bon":15469,"##less":15470,"cach":15471,"arab":15472,"fm":15473,"largest":15474,"dir":15475,"urban":15476,"carrera":15477,"gdzie":15478,"други":15479,"##վել":15480,"tag":15481,"surface":15482,"##ラ":15483,"затем":15484,"deur":15485,"1849":15486,"performed":15487,"soviet":15488,"arena":15489,"##ச":15490,"##ро":15491,"##ਦ":15492,"##iin":15493,"gave":15494,"##іи":15495,"porta":15496,"##ших":15497,"oriental":15498,"situee":15499,"##り":15500,"##ები":15501,"sammen":15502,"shows":15503,"нем":15504,"train":15505,"இநத":15506,"phia":15507,"beide":15508,"wegen":15509,"oa":15510,"simple":15511,"luego":15512,"जो":15513,"##ante":15514,"среди":15515,"directed":15516,"got":15517,"सन":15518,"##liga":15519,"oblast":15520,"bin":15521,"sistem":15522,"##ров":15523,"cargo":15524,"1855":15525,"deep":15526,"norra":15527,"venezuela":15528,"valle":15529,"الله":15530,"थासय":15531,"projektu":15532,"وفي":15533,"edicion":15534,"moore":15535,"##лары":15536,"kemudian":15537,"##տ":15538,"##чна":15539,"##zne":15540,"includes":15541,"secret":15542,"letech":15543,"individual":15544,"tat":15545,"semi":15546,"ob":15547,"algunos":15548,"##sie":15549,"christopher":15550,"hal":15551,"presenta":15552,"arasında":15553,"fick":15554,"papel":15555,"bronze":15556,"frankfurt":15557,"være":15558,"analysis":15559,"##ವ":15560,"чтобы":15561,"dira":15562,"っている":15563,"synonymic":15564,"female":15565,"##bas":15566,"vardır":15567,"nato":15568,"results":15569,"##º":15570,"tham":15571,"manchester":15572,"oktubre":15573,"##maan":15574,"##ск":15575,"عنوان":15576,"trinh":15577,"forsta":15578,"103":15579,"fourth":15580,"selbst":15581,"frente":15582,"تاریخینده":15583,"view":15584,"mexican":15585,"##bles":15586,"vila":15587,"cinq":15588,"großen":15589,"catherine":15590,"famiglia":15591,"survey":15592,"label":15593,"округу":15594,"coppa":15595,"415":15596,"engineering":15597,"điem":15598,"にも":15599,"norman":15600,"singer":15601,"##mar":15602,"##ρα":15603,"апреля":15604,"##ზე":15605,"catholic":15606,"toronto":15607,"pat":15608,"##ени":15609,"defense":15610,"rok":15611,"countries":15612,"estudio":15613,"стала":15614,"centrale":15615,"zbog":15616,"før":15617,"##aa":15618,"klimatzonen":15619,"##بة":15620,"telepules":15621,"серед":15622,"brothers":15623,"1852":15624,"##യ":15625,"##യം":15626,"ռուս":15627,"करन":15628,"greek":15629,"##tore":15630,"##zas":15631,"lot":15632,"ад":15633,"##my":15634,"charge":15635,"security":15636,"وجود":15637,"##sson":15638,"##گ":15639,"problem":15640,"##ał":15641,"вид":15642,"membre":15643,"##ən":15644,"above":15645,"trouve":15646,"##ute":15647,"designed":15648,"адам":15649,"quindi":15650,"begin":15651,"##any":15652,"نوں":15653,"##ली":15654,"saveznoj":15655,"apenas":15656,"години":15657,"##에는":15658,"ریاستہايے":15659,"##وم":15660,"##jes":15661,"gabriel":15662,"abinons":15663,"nove":15664,"youtube":15665,"regiao":15666,"julius":15667,"області":15668,"stanley":15669,"sotto":15670,"teoria":15671,"kevin":15672,"##ਸ":15673,"##प":15674,"##یی":15675,"langau":15676,"پس":15677,"##ला":15678,"reserve":15679,"biet":15680,"αλλα":15681,"##leg":15682,"quello":15683,"ciutat":15684,"cai":15685,"фон":15686,"ring":15687,"mau":15688,"הם":15689,"sedan":15690,"nachdem":15691,"producer":15692,"تحت":15693,"##kar":15694,"ran":15695,"##ಾಗ":15696,"harper":15697,"بیر":15698,"behind":15699,"фр":15700,"##ща":15701,"115":15702,"đuong":15703,"##적인":15704,"##aire":15705,"adunay":15706,"basa":15707,"tol":15708,"według":15709,"##ların":15710,"##чен":15711,"kunne":15712,"##red":15713,"##jat":15714,"officer":15715,"elections":15716,"augustus":15717,"maggio":15718,"baby":15719,"cia":15720,"थी":15721,"publica":15722,"lopez":15723,"size":15724,"statt":15725,"کہ":15726,"##сі":15727,"begann":15728,"اول":15729,"legal":15730,"levy":15731,"##ec":15732,"##tum":15733,"111":15734,"##taan":15735,"lane":15736,"ಒಂದು":15737,"despite":15738,"##مة":15739,"##car":15740,"chua":15741,"3000":15742,"وهو":15743,"haute":15744,"verso":15745,"##ове":15746,"##mat":15747,"sydostra":15748,"##rsi":15749,"##ٹ":15750,"dunia":15751,"determinado":15752,"philippe":15753,"mesta":15754,"zij":15755,"ucun":15756,"nuovo":15757,"شهرستان":15758,"##зи":15759,"##xa":15760,"##тер":15761,"उततराखणड":15762,"##zh":15763,"bekend":15764,"ever":15765,"##ала":15766,"##フ":15767,"ap":15768,"наук":15769,"musique":15770,"tegen":15771,"pels":15772,"arrondissement":15773,"##ню":15774,"gioi":15775,"sri":15776,"altra":15777,"مثل":15778,"##מי":15779,"خلال":15780,"months":15781,"সালে":15782,"##수":15783,"##tzen":15784,"cele":15785,"##ری":15786,"##ган":15787,"##nice":15788,"##קה":15789,"клуб":15790,"108":15791,"vec":15792,"vanaf":15793,"##tin":15794,"##лен":15795,"quanto":15796,"जाता":15797,"complex":15798,"3월":15799,"eventually":15800,"checklists":15801,"##dar":15802,"##ides":15803,"marina":15804,"##డు":15805,"##ха":15806,"कर":15807,"भारतया":15808,"weg":15809,"call":15810,"##lag":15811,"##დ":15812,"wall":15813,"istanbul":15814,"imperial":15815,"gora":15816,"##oja":15817,"##ата":15818,"diferentes":15819,"##ности":15820,"##лу":15821,"##מת":15822,"maurice":15823,"##وب":15824,"към":15825,"आणि":15826,"valencia":15827,"nation":15828,"titan":15829,"burton":15830,"sierra":15831,"##ins":15832,"leading":15833,"drive":15834,"1851":15835,"##ful":15836,"107":15837,"ogni":15838,"clark":15839,"ইউনিযন":15840,"lado":15841,"taun":15842,"nummer":15843,"تعداد":15844,"##oon":15845,"siden":15846,"killed":15847,"finland":15848,"mind":15849,"ноября":15850,"sultan":15851,"##gia":15852,"##wi":15853,"##લ":15854,"##ans":15855,"settembre":15856,"##σαν":15857,"trabajo":15858,"##and":15859,"##ლი":15860,"190":15861,"quali":15862,"mise":15863,"వదయ":15864,"sala":15865,"##yan":15866,"panjang":15867,"tidligere":15868,"##nne":15869,"statunitense":15870,"cel":15871,"macmillan":15872,"gennaio":15873,"##انی":15874,"##ود":15875,"selatan":15876,"gary":15877,"fram":15878,"##det":15879,"которых":15880,"1853":15881,"یکی":15882,"animal":15883,"##isen":15884,"oltre":15885,"ditu":15886,"senza":15887,"しかし":15888,"kleine":15889,"lawrence":15890,"campaign":15891,"##tique":15892,"##stein":15893,"بخش":15894,"titolo":15895,"##owej":15896,"klasse":15897,"##acao":15898,"đem":15899,"ieu":15900,"existe":15901,"kanton":15902,"##pt":15903,"past":15904,"uns":15905,"##aza":15906,"concert":15907,"بالانجليزية":15908,"sites":15909,"termine":15910,"prin":15911,"m²":15912,"raja":15913,"johnny":15914,"asteroide":15915,"hoang":15916,"##asa":15917,"room":15918,"seculo":15919,"truoc":15920,"generation":15921,"wood":15922,"##და":15923,"ferdinand":15924,"irish":15925,"ice":15926,"така":15927,"##ено":15928,"staff":15929,"##iya":15930,"sp":15931,"##жа":15932,"hebben":15933,"stefan":15934,"##zna":15935,"1ᵉʳ":15936,"несколько":15937,"grant":15938,"cola":15939,"##stan":15940,"rest":15941,"introduction":15942,"rene":15943,"septiembre":15944,"##ить":15945,"aprile":15946,"других":15947,"##az":15948,"bagi":15949,"baru":15950,"forte":15951,"bus":15952,"##ται":15953,"bishop":15954,"finalmente":15955,"dalle":15956,"racing":15957,"heavy":15958,"7th":15959,"aantal":15960,"upper":15961,"anterior":15962,"ak":15963,"command":15964,"день":15965,"kr":15966,"chez":15967,"oeste":15968,"pak":15969,"##드":15970,"230":15971,"trat":15972,"geslacht":15973,"1846":15974,"suomen":15975,"usually":15976,"истории":15977,"##yon":15978,"##ient":15979,"giugno":15980,"matoari":15981,"##rade":15982,"isla":15983,"condado":15984,"nelson":15985,"ned":15986,"anton":15987,"electric":15988,"##vos":15989,"ռուսաստանի":15990,"yeni":15991,"digunakan":15992,"##zar":15993,"paper":15994,"##king":15995,"בית":15996,"##lon":15997,"##cki":15998,"##פה":15999,"москва":16000,"philadelphia":16001,"##skog":16002,"барамехь":16003,"inoltre":16004,"طرفیندن":16005,"anderem":16006,"ثم":16007,"drie":16008,"direct":16009,"##zza":16010,"гг":16011,"##కు":16012,"gay":16013,"johan":16014,"hitler":16015,"##zes":16016,"congress":16017,"##す":16018,"bull":16019,"ст":16020,"thus":16021,"##uma":16022,"##ום":16023,"##шы":16024,"##ος":16025,"εχει":16026,"higher":16027,"мәліметтер":16028,"featured":16029,"nieuwe":16030,"followed":16031,"native":16032,"junio":16033,"moscow":16034,"hann":16035,"utara":16036,"studios":16037,"related":16038,"cox":16039,"##vin":16040,"##ஙகள":16041,"immer":16042,"##bre":16043,"kanal":16044,"hermann":16045,"##ستان":16046,"giuseppe":16047,"censo":16048,"loire":16049,"ради":16050,"##bes":16051,"completed":16052,"##ping":16053,"##ному":16054,"##gio":16055,"ngadto":16056,"alpes":16057,"kent":16058,"##מו":16059,"hamilton":16060,"express":16061,"denen":16062,"firma":16063,"josef":16064,"energia":16065,"##לי":16066,"kaayo":16067,"##цию":16068,"##zenie":16069,"directory":16070,"##ья":16071,"ul":16072,"kelly":16073,"unos":16074,"##oma":16075,"##endo":16076,"unesco":16077,"##τος":16078,"abu":16079,"##ह":16080,"abc":16081,"годы":16082,"##taa":16083,"graf":16084,"##ским":16085,"##kent":16086,"norge":16087,"##dən":16088,"ու":16089,"beliau":16090,"muller":16091,"colorado":16092,"stycznia":16093,"clubs":16094,"##gı":16095,"##var":16096,"tobb":16097,"1847":16098,"##logia":16099,"##rit":16100,"highway":16101,"desember":16102,"reste":16103,"stal":16104,"bod":16105,"много":16106,"swiata":16107,"##των":16108,"montreal":16109,"goal":16110,"##uti":16111,"##ால":16112,"##ires":16113,"zou":16114,"nou":16115,"##vet":16116,"image":16117,"give":16118,"friends":16119,"vietnam":16120,"dream":16121,"орналасқан":16122,"210":16123,"##خ":16124,"telt":16125,"biztanle":16126,"etant":16127,"sodra":16128,"##री":16129,"##ई":16130,"ancien":16131,"##gel":16132,"##skih":16133,"alberto":16134,"championships":16135,"##ovi":16136,"##lat":16137,"contract":16138,"##sku":16139,"permet":16140,"106":16141,"encyclopædia":16142,"dernier":16143,"torneo":16144,"##kych":16145,"foar":16146,"eau":16147,"marcus":16148,"##ierte":16149,"persona":16150,"##ется":16151,"hos":16152,"guy":16153,"##fen":16154,"writing":16155,"##скую":16156,"360":16157,"##hr":16158,"fiction":16159,"##ট":16160,"chuc":16161,"maison":16162,"1815":16163,"##tico":16164,"##sin":16165,"importantes":16166,"gdje":16167,"otro":16168,"riktning":16169,"gunung":16170,"asli":16171,"espanola":16172,"##iga":16173,"assembly":16174,"speed":16175,"gallery":16176,"##ades":16177,"epoque":16178,"author":16179,"##eli":16180,"##き":16181,"niveau":16182,"ottobre":16183,"##usi":16184,"kinadak":16185,"период":16186,"##sus":16187,"ellos":16188,"gene":16189,"##وی":16190,"naval":16191,"первыи":16192,"cok":16193,"##enia":16194,"112":16195,"projekt":16196,"better":16197,"jahrhunderts":16198,"lenghe":16199,"luglio":16200,"खन":16201,"chau":16202,"##ette":16203,"##ats":16204,"##ек":16205,"##る":16206,"tac":16207,"కళశల":16208,"instead":16209,"tej":16210,"soon":16211,"109":16212,"февраля":16213,"billy":16214,"##ait":16215,"hugo":16216,"sungai":16217,"128":16218,"inicio":16219,"##uar":16220,"italien":16221,"true":16222,"##nici":16223,"đia":16224,"##נית":16225,"pare":16226,"ship":16227,"iron":16228,"commercial":16229,"rus":16230,"##ау":16231,"voice":16232,"##ವು":16233,"##iz":16234,"profesor":16235,"##ე":16236,"gruppen":16237,"primordial":16238,"kadar":16239,"frantziako":16240,"baden":16241,"pedig":16242,"largo":16243,"##nich":16244,"allerdings":16245,"daripada":16246,"combat":16247,"finished":16248,"byly":16249,"ain":16250,"reported":16251,"andrea":16252,"##ttiin":16253,"##ست":16254,"ami":16255,"oil":16256,"##miento":16257,"1845":16258,"とは":16259,"dave":16260,"indiana":16261,"szerint":16262,"academia":16263,"هم":16264,"##ததில":16265,"##dorf":16266,"##ದಲಲ":16267,"یارانمیش":16268,"politik":16269,"corpo":16270,"вместе":16271,"degree":16272,"1842":16273,"##ץ":16274,"lokala":16275,"missouri":16276,"experience":16277,"##കൾ":16278,"ایشلدنلری":16279,"ویکیپدیاسینین":16280,"##ama":16281,"گوتورولوبدور":16282,"според":16283,"مقالهسیندن":16284,"molt":16285,"армии":16286,"rol":16287,"साथ":16288,"saw":16289,"##lly":16290,"նա":16291,"stop":16292,"کر":16293,"membres":16294,"nahm":16295,"certain":16296,"hills":16297,"یوخلانیلیبدیر":16298,"spielte":16299,"##פות":16300,"может":16301,"##ture":16302,"nobel":16303,"edificio":16304,"ian":16305,"##ение":16306,"stat":16307,"اتے":16308,"ata":16309,"dicembre":16310,"gian":16311,"##бе":16312,"##erne":16313,"executive":16314,"amt":16315,"bau":16316,"trang":16317,"раионе":16318,"erstmals":16319,"platsen":16320,"funf":16321,"135":16322,"alice":16323,"awarded":16324,"død":16325,"porque":16326,"zde":16327,"##צה":16328,"##רים":16329,"било":16330,"least":16331,"know":16332,"atas":16333,"folk":16334,"muito":16335,"##구":16336,"ուկրաինայի":16337,"fikk":16338,"succes":16339,"##mon":16340,"##நத":16341,"either":16342,"てあった":16343,"minnesota":16344,"tika":16345,"##гі":16346,"britain":16347,"terre":16348,"##well":16349,"associated":16350,"stuttgart":16351,"получил":16352,"remained":16353,"mode":16354,"inter":16355,"wcsp":16356,"##cne":16357,"##nder":16358,"strong":16359,"pl":16360,"stoleti":16361,"##ries":16362,"topographic":16363,"daar":16364,"второи":16365,"город":16366,"publications":16367,"able":16368,"americano":16369,"dazu":16370,"ala":16371,"##esi":16372,"##дан":16373,"##վում":16374,"championnat":16375,"kimi":16376,"1844":16377,"##mit":16378,"cases":16379,"##elt":16380,"##nju":16381,"francese":16382,"##ev":16383,"ביותר":16384,"فہرست":16385,"годзе":16386,"tau":16387,"discovery":16388,"deuxieme":16389,"belodanis":16390,"interno":16391,"كل":16392,"##দ":16393,"##cni":16394,"planta":16395,"би":16396,"##adas":16397,"almost":16398,"ocean":16399,"там":16400,"orde":16401,"gore":16402,"mont":16403,"bili":16404,"jordan":16405,"jonka":16406,"##ರು":16407,"pc":16408,"diciembre":16409,"##sed":16410,"đuc":16411,"##တင":16412,"##ania":16413,"##xe":16414,"siege":16415,"##bau":16416,"##cas":16417,"##tions":16418,"hab":16419,"winning":16420,"##до":16421,"muerte":16422,"nederland":16423,"იყო":16424,"libre":16425,"fred":16426,"sc":16427,"biasonyo":16428,"##το":16429,"editors":16430,"specie":16431,"ても":16432,"youth":16433,"spain":16434,"##ика":16435,"افراد":16436,"felix":16437,"##ಡ":16438,"posteriormente":16439,"mejor":16440,"scientific":16441,"obyvatelov":16442,"monument":16443,"gom":16444,"##zeit":16445,"stories":16446,"sebastian":16447,"##bert":16448,"beginning":16449,"##mal":16450,"nine":16451,"ਸੀ":16452,"schloss":16453,"పఠశల":16454,"contour":16455,"statistics":16456,"##ues":16457,"estava":16458,"##мы":16459,"esas":16460,"profile":16461,"osob":16462,"nick":16463,"bit":16464,"##iche":16465,"및":16466,"groot":16467,"goi":16468,"documents":16469,"##eu":16470,"sr":16471,"##wie":16472,"hold":16473,"noviembre":16474,"##tori":16475,"век":16476,"tracks":16477,"##ನನು":16478,"ще":16479,"##שה":16480,"##ити":16481,"alte":16482,"musee":16483,"running":16484,"baron":16485,"##ец":16486,"##ից":16487,"access":16488,"hogst":16489,"совет":16490,"drugi":16491,"##ಮ":16492,"##ব":16493,"sina":16494,"jorge":16495,"قد":16496,"say":16497,"юханшыв":16498,"##mt":16499,"oma":16500,"threatened":16501,"hojddata":16502,"flora":16503,"hari":16504,"##има":16505,"ea":16506,"vincent":16507,"##bra":16508,"pont":16509,"casi":16510,"##نی":16511,"medicine":16512,"میکند":16513,"gewann":16514,"liberal":16515,"traditional":16516,"etapa":16517,"##rad":16518,"adolf":16519,"1837":16520,"##غ":16521,"##zenia":16522,"entonces":16523,"##ab":16524,"escola":16525,"added":16526,"##ック":16527,"##amento":16528,"род":16529,"한다":16530,"##или":16531,"##ини":16532,"literature":16533,"peace":16534,"ειχε":16535,"republik":16536,"genom":16537,"rudolf":16538,"##ક":16539,"kind":16540,"##oli":16541,"marinespecies":16542,"##ggio":16543,"1839":16544,"mississippi":16545,"libraries":16546,"1814":16547,"##вали":16548,"##usa":16549,"gjennom":16550,"##ish":16551,"jeung":16552,"hatten":16553,"nederlandse":16554,"mois":16555,"bois":16556,"livre":16557,"117":16558,"دیگر":16559,"governor":16560,"ensuite":16561,"##iden":16562,"jour":16563,"tennis":16564,"distribution":16565,"yu":16566,"##ικη":16567,"involved":16568,"buyuk":16569,"##шии":16570,"rather":16571,"sherman":16572,"kraju":16573,"μετα":16574,"influence":16575,"congo":16576,"##της":16577,"кои":16578,"archive":16579,"mang":16580,"##кии":16581,"turn":16582,"sino":16583,"##되어":16584,"toen":16585,"##uz":16586,"soul":16587,"romano":16588,"artists":16589,"syns":16590,"svoje":16591,"استان":16592,"یہ":16593,"tamen":16594,"find":16595,"##ત":16596,"1834":16597,"quattro":16598,"##fall":16599,"samme":16600,"ਹਨ":16601,"jimmy":16602,"находится":16603,"geografia":16604,"##eo":16605,"cancer":16606,"పరభుతవ":16607,"waard":16608,"##лер":16609,"которои":16610,"##atu":16611,"want":16612,"atlantic":16613,"italie":16614,"1838":16615,"1835":16616,"##ческои":16617,"##igt":16618,"paghatag":16619,"##ения":16620,"##ವಾಗ":16621,"gilapdon":16622,"cha":16623,"naglibot":16624,"tiilan":16625,"topograpikong":16626,"tereyn":16627,"echter":16628,"##idade":16629,"bruno":16630,"##ischer":16631,"engine":16632,"##рі":16633,"##skeho":16634,"др":16635,"##dio":16636,"wel":16637,"مربع":16638,"sit":16639,"sainte":16640,"роль":16641,"agent":16642,"##rse":16643,"element":16644,"hui":16645,"см":16646,"grupos":16647,"һө":16648,"##ਣ":16649,"meta":16650,"##ının":16651,"campus":16652,"roll":16653,"##vad":16654,"##ении":16655,"##stvo":16656,"tower":16657,"##երը":16658,"compte":16659,"menschen":16660,"గరమనక":16661,"область":16662,"quyen":16663,"##oval":16664,"anime":16665,"phuong":16666,"##sy":16667,"##vne":16668,"pozniej":16669,"אל":16670,"proti":16671,"segons":16672,"wadi":16673,"charlie":16674,"bland":16675,"##cı":16676,"##gs":16677,"adalwyd":16678,"استفاده":16679,"##iske":16680,"##イ":16681,"renaissance":16682,"wang":16683,"bach":16684,"حسب":16685,"##دی":16686,"הראשון":16687,"außerdem":16688,"##tiva":16689,"godina":16690,"insieme":16691,"baker":16692,"שם":16693,"##ція":16694,"##нь":16695,"##су":16696,"cine":16697,"fauna":16698,"##sio":16699,"జలల":16700,"mukaan":16701,"##ати":16702,"dana":16703,"kalapukan":16704,"interview":16705,"avenue":16706,"kiradi":16707,"میلادی":16708,"seis":16709,"practice":16710,"chaque":16711,"##schaft":16712,"ему":16713,"##тов":16714,"урнашкан":16715,"verde":16716,"kinh":16717,"одним":16718,"ito":16719,"நவமபர":16720,"horisonten":16721,"basketball":16722,"success":16723,"fame":16724,"vastra":16725,"writer":16726,"conseil":16727,"tempat":16728,"logo":16729,"##قة":16730,"##وس":16731,"tin":16732,"غير":16733,"##stand":16734,"wing":16735,"nomme":16736,"benjamin":16737,"helsinki":16738,"280":16739,"نسبة":16740,"squadra":16741,"##ule":16742,"questi":16743,"##적으로":16744,"figure":16745,"aufgrund":16746,"всего":16747,"eli":16748,"seat":16749,"napoleon":16750,"outside":16751,"etxebizitza":16752,"одного":16753,"cuba":16754,"parish":16755,"היו":16756,"jon":16757,"donald":16758,"huet":16759,"jezik":16760,"##اس":16761,"दवारा":16762,"##али":16763,"gibi":16764,"##ось":16765,"igy":16766,"nuova":16767,"turk":16768,"recent":16769,"ул":16770,"duong":16771,"має":16772,"maio":16773,"めた":16774,"listopada":16775,"wies":16776,"ms":16777,"habitatges":16778,"նաև":16779,"nes":16780,"1843":16781,"એક":16782,"tree":16783,"zoals":16784,"##tud":16785,"қазақ":16786,"дека":16787,"##nca":16788,"tod":16789,"##int":16790,"cimu":16791,"amihanang":16792,"jonathan":16793,"hohe":16794,"##hed":16795,"ross":16796,"ngoai":16797,"##בה":16798,"kwam":16799,"brazil":16800,"##나":16801,"dones":16802,"guinea":16803,"ал":16804,"artean":16805,"##und":16806,"##ensis":16807,"##лся":16808,"##kiego":16809,"estudios":16810,"##zel":16811,"jaren":16812,"artista":16813,"programme":16814,"##να":16815,"260":16816,"brigade":16817,"մարդ":16818,"gehorte":16819,"ла":16820,"previous":16821,"dame":16822,"presso":16823,"hele":16824,"vladimir":16825,"evidence":16826,"ryan":16827,"provided":16828,"prior":16829,"allo":16830,"carriere":16831,"maydoni":16832,"pagina":16833,"##ців":16834,"casti":16835,"tarkibiga":16836,"##ంగ":16837,"sector":16838,"##ει":16839,"passe":16840,"replaced":16841,"grund":16842,"score":16843,"яка":16844,"##لة":16845,"##ця":16846,"isə":16847,"თარიღი":16848,"capita":16849,"vest":16850,"wrestling":16851,"wis":16852,"ayant":16853,"wrzesnia":16854,"estadistica":16855,"feet":16856,"##worth":16857,"santos":16858,"nomes":16859,"simbad":16860,"12월":16861,"opstini":16862,"##чу":16863,"jacob":16864,"##oes":16865,"inizio":16866,"iar":16867,"యకక":16868,"financial":16869,"rolle":16870,"recording":16871,"участие":16872,"группы":16873,"123":16874,"pec":16875,"ostra":16876,"##eva":16877,"harris":16878,"tiep":16879,"##ως":16880,"orbit":16881,"architecture":16882,"protein":16883,"##дар":16884,"ugahon":16885,"δυο":16886,"rodriguez":16887,"##mine":16888,"uj":16889,"##λ":16890,"mitte":16891,"electronic":16892,"ویکیپیڈیا":16893,"situation":16894,"نسخة":16895,"norske":16896,"mobile":16897,"cree":16898,"али":16899,"toute":16900,"pueblo":16901,"nous":16902,"estadounidense":16903,"став":16904,"113":16905,"tradition":16906,"կայքում":16907,"116":16908,"##ера":16909,"##lah":16910,"अभिगमन":16911,"1831":16912,"stock":16913,"##تی":16914,"environ":16915,"rom":16916,"politiker":16917,"genannt":16918,"secretary":16919,"sondern":16920,"ministro":16921,"этот":16922,"##wo":16923,"untuak":16924,"tok":16925,"surfat":16926,"eva":16927,"##dra":16928,"seme":16929,"medaille":16930,"cell":16931,"წაკითხვის":16932,"sometimes":16933,"below":16934,"muc":16935,"114":16936,"gray":16937,"politics":16938,"detta":16939,"danach":16940,"rund":16941,"kunhod":16942,"gesellschaft":16943,"##nse":16944,"posods":16945,"##ール":16946,"gonzalez":16947,"##jski":16948,"которая":16949,"episodes":16950,"##cer":16951,"##gos":16952,"larva":16953,"estar":16954,"なと":16955,"своеи":16956,"diesen":16957,"##tig":16958,"kansas":16959,"##تر":16960,"##명":16961,"4월":16962,"sarah":16963,"jossa":16964,"##zet":16965,"realise":16966,"pole":16967,"delta":16968,"lemesed":16969,"germania":16970,"letter":16971,"##ики":16972,"##uan":16973,"##weg":16974,"especial":16975,"montana":16976,"salvador":16977,"##തതിൽ":16978,"baseball":16979,"etaient":16980,"lincoln":16981,"כמו":16982,"1836":16983,"کشور":16984,"##ान":16985,"##ines":16986,"##υς":16987,"##കക":16988,"febrero":16989,"1841":16990,"га":16991,"времени":16992,"price":16993,"viele":16994,"estilo":16995,"ost":16996,"##kih":16997,"enn":16998,"pi":16999,"##хь":17000,"##yen":17001,"oan":17002,"oh":17003,"iglesia":17004,"экология":17005,"apple":17006,"toan":17007,"arizona":17008,"cam":17009,"going":17010,"cancion":17011,"##נת":17012,"sister":17013,"robin":17014,"matt":17015,"dok":17016,"wright":17017,"##రు":17018,"mig":17019,"లదు":17020,"##ngan":17021,"mediana":17022,"harvard":17023,"नही":17024,"совета":17025,"parliament":17026,"femme":17027,"##ary":17028,"##ap":17029,"##τες":17030,"etudes":17031,"voce":17032,"##ことか":17033,"##dom":17034,"1812":17035,"tienen":17036,"450":17037,"aphia":17038,"batalla":17039,"cities":17040,"við":17041,"keith":17042,"byt":17043,"##ら":17044,"classic":17045,"##ब":17046,"search":17047,"taxdetails":17048,"##ակ":17049,"##אי":17050,"length":17051,"けた":17052,"ty":17053,"##kus":17054,"editorial":17055,"tetapi":17056,"namun":17057,"landkreis":17058,"##nio":17059,"whose":17060,"greenwood":17061,"kampung":17062,"previously":17063,"##ಟ":17064,"setembro":17065,"dues":17066,"flight":17067,"##ना":17068,"additional":17069,"3rd":17070,"pass":17071,"होता":17072,"에":17073,"apollo":17074,"systeme":17075,"cambio":17076,"alem":17077,"relations":17078,"interest":17079,"haut":17080,"##コ":17081,"##ande":17082,"duc":17083,"oldu":17084,"scotland":17085,"##har":17086,"ايضا":17087,"なお":17088,"oliver":17089,"adams":17090,"история":17091,"rhestr":17092,"danh":17093,"outubro":17094,"lagu":17095,"anglais":17096,"##rik":17097,"praefecturae":17098,"##ony":17099,"##nut":17100,"##전":17101,"frau":17102,"270":17103,"##see":17104,"##ին":17105,"svensk":17106,"omdat":17107,"academic":17108,"##श":17109,"jason":17110,"1833":17111,"##ized":17112,"esse":17113,"anul":17114,"nuclear":17115,"sabuah":17116,"presence":17117,"##zat":17118,"gehort":17119,"mtv":17120,"rapport":17121,"tutto":17122,"menor":17123,"александр":17124,"aki":17125,"haus":17126,"##ському":17127,"##ਆ":17128,"##כה":17129,"தமிழநாடு":17130,"kreis":17131,"##shi":17132,"cape":17133,"provide":17134,"graham":17135,"1832":17136,"erik":17137,"febbraio":17138,"##τ":17139,"vera":17140,"mass":17141,"##ლ":17142,"##vic":17143,"temperatura":17144,"##essa":17145,"ενω":17146,"asian":17147,"kunst":17148,"japon":17149,"август":17150,"える":17151,"victory":17152,"skal":17153,"##ється":17154,"כאשר":17155,"issues":17156,"smrti":17157,"sw":17158,"gouvernement":17159,"quasi":17160,"conquest":17161,"cependant":17162,"parents":17163,"tog":17164,"##mm":17165,"рік":17166,"##kiej":17167,"##pp":17168,"בו":17169,"đi":17170,"تاریخ":17171,"##like":17172,"plays":17173,"10월":17174,"આવલા":17175,"opening":17176,"1600":17177,"agli":17178,"troch":17179,"##pel":17180,"nye":17181,"##dade":17182,"որը":17183,"във":17184,"##zt":17185,"##kov":17186,"muhammad":17187,"andy":17188,"##ран":17189,"##smo":17190,"لم":17191,"##သော":17192,"trova":17193,"outras":17194,"solar":17195,"које":17196,"1820":17197,"##ør":17198,"dod":17199,"introduced":17200,"nastepnie":17201,"pictures":17202,"jeu":17203,"kw":17204,"herbert":17205,"##bin":17206,"##stva":17207,"assistant":17208,"zero":17209,"いた":17210,"provincie":17211,"polsce":17212,"##לים":17213,"sara":17214,"אחד":17215,"scale":17216,"деревня":17217,"انه":17218,"##aux":17219,"بعض":17220,"вони":17221,"121":17222,"##ਜ":17223,"всех":17224,"feat":17225,"مشارکین":17226,"له":17227,"estate":17228,"##ೂ":17229,"gwefan":17230,"7월":17231,"##از":17232,"##ніи":17233,"##ಂದ":17234,"move":17235,"రహదర":17236,"##ター":17237,"nombreux":17238,"bilan":17239,"rad":17240,"аст":17241,"mehrere":17242,"blant":17243,"двух":17244,"qiladi":17245,"novi":17246,"indrindra":17247,"quest":17248,"tales":17249,"placed":17250,"selv":17251,"##lles":17252,"collins":17253,"fatto":17254,"##əsi":17255,"##ун":17256,"republike":17257,"kasagbotan":17258,"owned":17259,"fight":17260,"dansk":17261,"городских":17262,"##ort":17263,"राजय":17264,"##ева":17265,"link":17266,"udalerrian":17267,"lieutenant":17268,"parc":17269,"הברית":17270,"##чы":17271,"ken":17272,"ministre":17273,"wolf":17274,"##its":17275,"gustav":17276,"##ार":17277,"##hn":17278,"produce":17279,"##ила":17280,"##ив":17281,"huong":17282,"այն":17283,"hoac":17284,"122":17285,"##port":17286,"1793":17287,"istifadə":17288,"departament":17289,"frederick":17290,"##ema":17291,"توسط":17292,"means":17293,"lines":17294,"namn":17295,"onun":17296,"protection":17297,"clan":17298,"##ден":17299,"##אל":17300,"taking":17301,"upp":17302,"##lem":17303,"approximately":17304,"##μα":17305,"fernandez":17306,"afin":17307,"##یه":17308,"plata":17309,"тем":17310,"miasta":17311,"##оі":17312,"morgan":17313,"есть":17314,"այդ":17315,"conditions":17316,"алматы":17317,"bulletin":17318,"abitanti":17319,"gjorde":17320,"##pu":17321,"pie":17322,"tallet":17323,"phase":17324,"عشر":17325,"bezeichnet":17326,"##ਮ":17327,"heritage":17328,"proces":17329,"##تا":17330,"deres":17331,"##dı":17332,"##ial":17333,"towards":17334,"encara":17335,"seines":17336,"genere":17337,"##фа":17338,"##jar":17339,"број":17340,"comun":17341,"biasanya":17342,"##يم":17343,"orleans":17344,"##σια":17345,"##tro":17346,"engelsk":17347,"religious":17348,"bisa":17349,"##יר":17350,"##amente":17351,"bird":17352,"welt":17353,"##ਟ":17354,"rata":17355,"3d":17356,"pazdziernika":17357,"đien":17358,"##lie":17359,"##ᆸ":17360,"ll":17361,"aasta":17362,"pt":17363,"##kem":17364,"##pus":17365,"##row":17366,"czerwca":17367,"##nsa":17368,"peninsula":17369,"taman":17370,"церкви":17371,"にある":17372,"stark":17373,"figura":17374,"portal":17375,"administrative":17376,"famous":17377,"egyik":17378,"kamen":17379,"155":17380,"joao":17381,"grudnia":17382,"entao":17383,"##azione":17384,"##سی":17385,"перед":17386,"##ती":17387,"edwards":17388,"##isa":17389,"##кс":17390,"##tivo":17391,"118":17392,"drug":17393,"epi":17394,"##లను":17395,"##ян":17396,"delhi":17397,"бұл":17398,"127":17399,"effect":17400,"яких":17401,"##вала":17402,"права":17403,"లన":17404,"##بر":17405,"tavakilian":17406,"##gne":17407,"##ік":17408,"successful":17409,"##tiin":17410,"gare":17411,"podle":17412,"lea":17413,"morris":17414,"piece":17415,"##sos":17416,"hms":17417,"cesar":17418,"orange":17419,"750":17420,"##more":17421,"##ೕ":17422,"##ain":17423,"stated":17424,"1821":17425,"osa":17426,"##hy":17427,"میباشد":17428,"##ნის":17429,"buildings":17430,"klein":17431,"espece":17432,"samen":17433,"rise":17434,"اهل":17435,"friend":17436,"literatura":17437,"font":17438,"tas":17439,"trieu":17440,"##पर":17441,"##owego":17442,"charlotte":17443,"##פים":17444,"escuela":17445,"plans":17446,"себе":17447,"letzten":17448,"климатан":17449,"مدينة":17450,"##kia":17451,"ուկր":17452,"##borg":17453,"##zni":17454,"9월":17455,"pulau":17456,"##ക":17457,"reached":17458,"##দের":17459,"taona":17460,"##く":17461,"##iere":17462,"한":17463,"issn":17464,"##פת":17465,"prof":17466,"perez":17467,"mana":17468,"##িক":17469,"insgesamt":17470,"były":17471,"محفوظة":17472,"tinha":17473,"##iana":17474,"pablo":17475,"cantante":17476,"svenska":17477,"polen":17478,"americain":17479,"property":17480,"jewish":17481,"gebied":17482,"problema":17483,"listed":17484,"##isten":17485,"souvent":17486,"էին":17487,"thought":17488,"originale":17489,"inside":17490,"mempunyai":17491,"certains":17492,"بھی":17493,"##ое":17494,"villages":17495,"noin":17496,"аб":17497,"##цыі":17498,"corte":17499,"siguiente":17500,"млн":17501,"составляет":17502,"always":17503,"ocksa":17504,"##nski":17505,"palgrave":17506,"##hausen":17507,"निस":17508,"lp":17509,"##xo":17510,"brought":17511,"fuhrte":17512,"##cal":17513,"brand":17514,"река":17515,"table":17516,"##ვა":17517,"##sal":17518,"paz":17519,"وهي":17520,"principales":17521,"hung":17522,"##ður":17523,"бу":17524,"126":17525,"mari":17526,"124":17527,"economia":17528,"##film":17529,"meses":17530,"ellen":17531,"comite":17532,"##kte":17533,"होत":17534,"##istes":17535,"centrum":17536,"przed":17537,"bugnaw":17538,"eles":17539,"##uit":17540,"деҳа":17541,"##rata":17542,"između":17543,"##ட":17544,"obce":17545,"metu":17546,"жизни":17547,"maakt":17548,"americana":17549,"##cida":17550,"jordbruksmark":17551,"раз":17552,"camera":17553,"##vik":17554,"mor":17555,"weiteren":17556,"##sing":17557,"##۰":17558,"##lijk":17559,"аьхка":17560,"##house":17561,"voz":17562,"maps":17563,"changed":17564,"bayern":17565,"dragon":17566,"westen":17567,"فیلم":17568,"качестве":17569,"rusia":17570,"дел":17571,"toujours":17572,"jadi":17573,"altro":17574,"מספר":17575,"continue":17576,"morning":17577,"tenien":17578,"konig":17579,"gebiet":17580,"soll":17581,"##কে":17582,"christmas":17583,"vision":17584,"str":17585,"ketika":17586,"##から":17587,"jeff":17588,"especially":17589,"##ρ":17590,"zegoen":17591,"кој":17592,"rate":17593,"novembro":17594,"było":17595,"быу":17596,"##vio":17597,"scored":17598,"notre":17599,"popisu":17600,"mesa":17601,"##cions":17602,"raymond":17603,"##చ":17604,"kin":17605,"##という":17606,"школа":17607,"##தது":17608,"##hip":17609,"##jak":17610,"decided":17611,"aa":17612,"οπως":17613,"તમ":17614,"##iska":17615,"fritz":17616,"##لا":17617,"straße":17618,"andreas":17619,"medieval":17620,"luigi":17621,"pilot":17622,"mile":17623,"host":17624,"##dre":17625,"##jem":17626,"##hon":17627,"vilnius":17628,"massa":17629,"steht":17630,"distance":17631,"##ово":17632,"כך":17633,"kedua":17634,"##вал":17635,"turno":17636,"chat":17637,"folge":17638,"##zan":17639,"također":17640,"filmen":17641,"desarrollo":17642,"##bili":17643,"deja":17644,"##ников":17645,"1825":17646,"sommer":17647,"faritr":17648,"basic":17649,"sør":17650,"5월":17651,"danmark":17652,"##זה":17653,"##ast":17654,"##ował":17655,"інших":17656,"pietro":17657,"besteht":17658,"людеи":17659,"jeune":17660,"familiak":17661,"travel":17662,"##dig":17663,"featuring":17664,"##тор":17665,"regime":17666,"экз":17667,"sing":17668,"##گاه":17669,"անգլ":17670,"цього":17671,"119":17672,"toutes":17673,"близько":17674,"ro":17675,"crime":17676,"##њу":17677,"##sme":17678,"kiba":17679,"родился":17680,"उततर":17681,"multi":17682,"cabo":17683,"falls":17684,"##ნი":17685,"##ать":17686,"##esa":17687,"1200":17688,"lipca":17689,"##νη":17690,"орден":17691,"corso":17692,"##בר":17693,"airlines":17694,"maggiore":17695,"##ione":17696,"##ナ":17697,"145":17698,"##شت":17699,"##pes":17700,"mientres":17701,"stewart":17702,"1월":17703,"oz":17704,"##ciju":17705,"parque":17706,"goals":17707,"extra":17708,"kur":17709,"##דה":17710,"##yt":17711,"paolo":17712,"жалпы":17713,"azonban":17714,"obci":17715,"##ª":17716,"##み":17717,"quand":17718,"##მა":17719,"seconde":17720,"aller":17721,"anders":17722,"##lte":17723,"zurich":17724,"dato":17725,"praha":17726,"soc":17727,"وكان":17728,"oblasti":17729,"required":17730,"1829":17731,"republika":17732,"kane":17733,"##gue":17734,"coma":17735,"название":17736,"վրա":17737,"ਇਸ":17738,"jedan":17739,"wind":17740,"articles":17741,"##nem":17742,"##nna":17743,"mostra":17744,"##out":17745,"feature":17746,"doit":17747,"variety":17748,"jours":17749,"ph":17750,"##del":17751,"pasa":17752,"##یل":17753,"pierwszy":17754,"οποια":17755,"##iji":17756,"alter":17757,"6월":17758,"industria":17759,"kon":17760,"чи":17761,"##タ":17762,"terdapat":17763,"itself":17764,"001":17765,"sierpnia":17766,"छयलिग":17767,"##ep":17768,"enpresa":17769,"hanya":17770,"##цев":17771,"fact":17772,"1700":17773,"##ських":17774,"udalerri":17775,"laura":17776,"artikel":17777,"hizo":17778,"cela":17779,"இது":17780,"اي":17781,"##вав":17782,"actualmente":17783,"ruolo":17784,"##ney":17785,"8월":17786,"kort":17787,"mellan":17788,"hommes":17789,"meksiko":17790,"winner":17791,"worms":17792,"demi":17793,"holland":17794,"occidental":17795,"impact":17796,"shot":17797,"silva":17798,"auteur":17799,"magic":17800,"వయవసథ":17801,"система":17802,"ambos":17803,"phil":17804,"129":17805,"##ρο":17806,"##zed":17807,"democratic":17808,"allan":17809,"companies":17810,"שלו":17811,"##nun":17812,"стали":17813,"rafael":17814,"##cho":17815,"1828":17816,"ის":17817,"##chten":17818,"hijo":17819,"առաջին":17820,"lived":17821,"##ոն":17822,"deutsch":17823,"автор":17824,"calciatore":17825,"freedom":17826,"ihrem":17827,"moun":17828,"meeting":17829,"##бы":17830,"##ccion":17831,"fishes":17832,"aid":17833,"כדי":17834,"zudem":17835,"khoang":17836,"parks":17837,"pitkin":17838,"##vani":17839,"nho":17840,"обь":17841,"##wany":17842,"pauly":17843,
[...]
